{"<s>":0,"<pad>":1,"</s>":2,"<unk>":3,"<mask>":4,"!":5,"\"":6,"#":7,"$":8,"%":9,"&":10,"'":11,"(":12,")":13,"*":14,"+":15,",":16,"-":17,".":18,"/":19,"0":20,"1":21,"2":22,"3":23,"4":24,"5":25,"6":26,"7":27,"8":28,"9":29,":":30,";":31,"<":32,"=":33,">":34,"?":35,"@":36,"A":37,"B":38,"C":39,"D":40,"E":41,"F":42,"G":43,"H":44,"I":45,"J":46,"K":47,"L":48,"M":49,"N":50,"O":51,"P":52,"Q":53,"R":54,"S":55,"T":56,"U":57,"V":58,"W":59,"X":60,"Y":61,"Z":62,"[":63,"\\":64,"]":65,"^":66,"_":67,"`":68,"a":69,"b":70,"c":71,"d":72,"e":73,"f":74,"g":75,"h":76,"i":77,"j":78,"k":79,"l":80,"m":81,"n":82,"o":83,"p":84,"q":85,"r":86,"s":87,"t":88,"u":89,"v":90,"w":91,"x":92,"y":93,"z":94,"{":95,"|":96,"}":97,"~":98,"¡":99,"¢":100,"£":101,"¤":102,"¥":103,"¦":104,"§":105,"¨":106,"©":107,"ª":108,"«":109,"¬":110,"®":111,"¯":112,"°":113,"±":114,"²":115,"³":116,"´":117,"µ":118,"¶":119,"·":120,"¸":121,"¹":122,"º":123,"»":124,"¼":125,"½":126,"¾":127,"¿":128,"À":129,"Á":130,"Â":131,"Ã":132,"Ä":133,"Å":134,"Æ":135,"Ç":136,"È":137,"É":138,"Ê":139,"Ë":140,"Ì":141,"Í":142,"Î":143,"Ï":144,"Ð":145,"Ñ":146,"Ò":147,"Ó":148,"Ô":149,"Õ":150,"Ö":151,"×":152,"Ø":153,"Ù":154,"Ú":155,"Û":156,"Ü":157,"Ý":158,"Þ":159,"ß":160,"à":161,"á":162,"â":163,"ã":164,"ä":165,"å":166,"æ":167,"ç":168,"è":169,"é":170,"ê":171,"ë":172,"ì":173,"í":174,"î":175,"ï":176,"ð":177,"ñ":178,"ò":179,"ó":180,"ô":181,"õ":182,"ö":183,"÷":184,"ø":185,"ù":186,"ú":187,"û":188,"ü":189,"ý":190,"þ":191,"ÿ":192,"Ā":193,"ā":194,"Ă":195,"ă":196,"Ą":197,"ą":198,"Ć":199,"ć":200,"Ĉ":201,"ĉ":202,"Ċ":203,"ċ":204,"Č":205,"č":206,"Ď":207,"ď":208,"Đ":209,"đ":210,"Ē":211,"ē":212,"Ĕ":213,"ĕ":214,"Ė":215,"ė":216,"Ę":217,"ę":218,"Ě":219,"ě":220,"Ĝ":221,"ĝ":222,"Ğ":223,"ğ":224,"Ġ":225,"ġ":226,"Ģ":227,"ģ":228,"Ĥ":229,"ĥ":230,"Ħ":231,"ħ":232,"Ĩ":233,"ĩ":234,"Ī":235,"ī":236,"Ĭ":237,"ĭ":238,"Į":239,"į":240,"İ":241,"ı":242,"Ĳ":243,"ĳ":244,"Ĵ":245,"ĵ":246,"Ķ":247,"ķ":248,"ĸ":249,"Ĺ":250,"ĺ":251,"Ļ":252,"ļ":253,"Ľ":254,"ľ":255,"Ŀ":256,"ŀ":257,"Ł":258,"ł":259,"Ń":260,"Ġt":261,"er":262,"in":263,"an":264,"re":265,"he":266,"on":267,"at":268,"or":269,"st":270,"ar":271,"it":272,"Ġthe":273,"al":274,"čĊ":275,"en":276,"es":277,"ed":278,"Ġ|":279,"Ġo":280,"Ġa":281,"is":282,"Ġw":283,"le":284,"]]":285,"[[":286,"ic":287,"Ġof":288,"Ġs":289,"and":290,"20":291,"Ġc":292,"ion":293,"ing":294,"ur":295,"Ġf":296,"Ġb":297,"Ġp":298,"ref":299,"Ġin":300,"om":301,"Ġ[[":302,"am":303,"as":304,"Ġand":305,"ch":306,"ve":307,"''":308,"Ġn":309,"}}":310,"{{":311,"Ġd":312,"ro":313,"Ġto":314,"ht":315,"ate":316,"Ġm":317,"il":318,"ent":319,"ĠĠ":320,"ac":321,"ĠS":322,"ol":323,"Ġh":324,"th":325,"us":326,"Ġ1":327,"un":328,"ĠA":329,"Ġ=":330,"ir":331,"ĠT":332,"ĠC":333,"ive":334,"id":335,"el":336,"et":337,"ad":338,"ation":339,"Ġ20":340,"la":341,"Ġre":342,"ame":343,"ig":344,"ct":345,"Ġth":346,"tp":347,"//":348,"http":349,"://":350,"ĠM":351,"im":352,"eb":353,"ag":354,"ww":355,".<":356,"ut":357,"date":358,"lo":359,"Ġe":360,"arch":361,"ul":362,"ce":363,"ers":364,"Ġ(":365,"url":366,"ite":367,"ot":368,"ew":369,"ĠP":370,"ĠB":371,"</":372,"Ġname":373,"ly":374,"um":375,"ess":376,"ist":377,"ĠI":378,"em":379,"itle":380,"ub":381,"Ġon":382,"19":383,"ĠR":384,"ĠH":385,"archive":386,"Ġfor":387,"=\"":388,"10":389,"==":390,"Ġl":391,"ter":392,"ver":393,"Ġg":394,"Ġbe":395,"ay":396,"irst":397,"Ġ''":398,"ĠD":399,"com":400,"ap":401,"ber":402,"Ġwas":403,"ĠF":404,"âĢ":405,"ith":406,"Ġst":407,"ĠW":408,"ri":409,">{{":410,"Ġas":411,"Ġis":412,"od":413,"ow":414,"art":415,"ĠN":416,"title":417,"ish":418,"ĠĠĠĠ":419,"our":420,"}}</":421,"os":422,"ĠL":423,"ĠG":424,"200":425,"https":426,"Ġ19":427,"last":428,"ĠJ":429,"cess":430,"cite":431,"ĠE":432,"Ġthat":433,"web":434,"âĢĵ":435,"sp":436,"'s":437,"ĠThe":438,"op":439,"iv":440,"Ġwith":441,"www":442,"res":443,"all":444,"Ġcon":445,"Ġwh":446,"]],":447,"ain":448,"if":449,"ory":450,"/>":451,"ear":452,"ubl":453,"ug":454,"org":455,"og":456,"00":457,"Ġ\"":458,"Ġby":459,"ort":460,"ard":461,"up":462,"ity":463,"ab":464,"ary":465,"ok":466,"Ġan":467,"ec":468,"ere":469,"Ġ2":470,"Ġ201":471,"rom":472,"first":473,"ies":474,"ia":475,"Ġv":476,"ep":477,"Ġat":478,"The":479,"Ġ200":480,"est":481,"age":482,"ĠO":483,"oc":484,"qu":485,"ill":486,"Ġ{{":487,"und":488,"ip":489,"201":490,"ine":491,"ork":492,"Ġal":493,"ian":494,"access":495,"ra":496,"ust":497,"Ġpro":498,"ore":499,"Ġit":500,"ublish":501,"ment":502,"ud":503,"ant":504,"se":505,"uth":506,"ord":507,"Ġcom":508,"ich":509,"ect":510,"nal":511,"ĠIn":512,"ublisher":513,"ak":514,"Ġhe":515,"Ġfrom":516,"ews":517,"ath":518,"ĠSt":519,"ook":520,"ical":521,"ang":522,"ial":523,"Ġex":524,"ue":525,"ight":526,"end":527,"ure":528,"year":529,"ff":530,"ack":531,"11":532,"ĠU":533,"av":534,"Ġr":535,"pp":536,"ournal":537,"publisher":538,"nb":539,"Ġweb":540,"Ġhis":541,"ast":542,")|":543,"sf":544,"ign":545,"ther":546,"ĠK":547,"Ġde":548,"ated":549,"ell":550,"ong":551,"ence":552,"ex":553,"ge":554,"Ġor":555,"Ġj":556,"orm":557,"Ġch":558,"Ġare":559,"ie":560,"ous":561,"uc":562,"ire":563,"pt":564,"ost":565,"30":566,"ions":567,"ass":568,"sfn":569,"rit":570,"12":571,"ile":572,"uthor":573,"ran":574,"Ġsh":575,"act":576,"Ġwere":577,"htm":578,"Ġse":579,"ry":580,"oun":581,"ru":582,"cl":583,"ide":584,"ress":585,"Ġle":586,"ft":587,"ib":588,"Ġnot":589,"ik":590,"loc":591,"ĠV":592,"per":593,"ateg":594,"iss":595,"are":596,"vi":597,"18":598,"Ġfirst":599,"22":600,"nbsp":601,"ult":602,"man":603,"bo":604,"ld":605,"Ġsp":606,"stat":607,"te":608,"iz":609,"ond":610,"ave":611,"ric":612,"ind":613,"low":614,"ĠCh":615,"Ġwhich":616,"In":617,"15":618,"mber":619,"so":620,".{{":621,"ations":622,"con":623,"14":624,"mer":625,"ov":626,"=[[":627,"ategory":628,"les":629,"\">{{":630,"ages":631,"lay":632,"Ġ3":633,"Ġus":634,"Ġhad":635,"status":636,"olog":637,"97":638,"ition":639,"\"/>":640,"16":641,"ph":642,"to":643,"the":644,"land":645,"Ġ/>":646,"ark":647,"ey":648,"17":649,"html":650,"oul":651,"Category":652,"13":653,"de":654,"Ġcomp":655,"]]''":656,"ction":657,"ugh":658,"ime":659,"ual":660,"son":661,"author":662,"Ġac":663,"ĠY":664,"port":665,"Ġun":666,"Ġcont":667,"ice":668,"hen":669,"ail":670,"Ġk":671,"ens":672,"ates":673,"Ġbook":674,"ould":675,"work":676,"ĠUn":677,"enc":678,"ove":679,"===":680,"ĠTh":681,"ach":682,"ace":683,"]].":684,"ics":685,"co":686,"ree":687,"50":688,"ll":689,"wo":690,"ng":691,"199":692,"sh":693,"int":694,"pr":695,"olum":696,"ink":697,"artic":698,"ational":699,"amp":700,"ĠĠĠĠĠĠĠĠ":701,"80":702,"ern":703,"ound":704,"Ġhave":705,"ef":706,"Ġjournal":707,"own":708,"math":709,"Ġ''[[":710,"ance":711,"Ġbut":712,"az":713,"ited":714,"'''":715,"br":716,"Ġim":717,"Ġ18":718,"Ġ4":719,"ome":720,"one":721,"able":722,"23":723,"form":724,"Ġad":725,"ater":726,"ober":727,"tem":728,"Ġtheir":729,"Ġro":730,".</":731,"Ġsc":732,"Ġtitle":733,"ss":734,"21":735,"fter":736,"Ġalso":737,"Ġ}}</":738,"ount":739,"ren":740,"hed":741,"),":742,"Ġdes":743,"Ġ||":744,"St":745,"Ġyear":746,"att":747,"ee":748,"olume":749,"ase":750,"ward":751,"..":752,"Ġthis":753,"orld":754,"uch":755,"40":756,"60":757,"ict":758,"pl":759,"Ġits":760,"eg":761,"ton":762,"old":763,"ob":764,"news":765,"|-":766,"erv":767,"oh":768,"Ġapp":769,"Ġdis":770,"25":771,"Ġar":772,"row":773,"uk":774,"70":775,"ral":776,"Ġper":777,"bn":778,"rap":779,"ron":780,"yst":781,"sc":782,"Ġone":783,"view":784,"Ch":785,"ings":786,"une":787,"hy":788,"ne":789,"oi":790,"inal":791,"24":792,"ade":793,"ors":794,"Ġnews":795,"ject":796,"location":797,"red":798,"we":799,"Cite":800,"ann":801,"ivers":802,"igh":803,"Ġpl":804,"rib":805,"Ġlast":806,"ĠCom":807,"ick":808,"Ġbeen":809,"ents":810,"ev":811,"Ġhas":812,"anu":813,"Ġme":814,"Ġso":815,"ology":816,"ĠAn":817,"ĠAr":818,"26":819,"ĠHe":820,"90":821,"imes":822,"Ġen":823,"'',":824,"ames":825,"ason":826,"Ġwho":827,"Ġher":828,"any":829,"27":830,"enter":831,"aw":832,"ext":833,"Ġte":834,"ans":835,"Ġlo":836,"io":837,"Ġ5":838,"vert":839,"ctober":840,"28":841,"pg":842,"ild":843,"clud":844,"uring":845,"urn":846,"ugust":847,"ystem":848,"ooks":849,"ms":850,"istory":851,"meric":852,"Ġtwo":853,"ece":854,"pages":855,"ied":856,"angu":857,"tember":858,"><":859,"Ġag":860,"out":861,"Ġthey":862,"anuary":863,"eptember":864,"uly":865,"Ġev":866,"--":867,"live":868,"anc":869,"ific":870,"fer":871,"Ġwork":872,"usic":873,"Ġtr":874,"ĠNew":875,"iel":876,"ts":877,"Ġ10":878,"pril":879,"Ġrec":880,"ou":881,"ohn":882,"pe":883,"Ġother":884,"29":885,"Ġcomm":886,"yle":887,"ood":888,"hip":889,"Ġinter":890,"ener":891,"way":892,"ode":893,"ovember":894,"umb":895,"ism":896,"du":897,"ecember":898,"over":899,"ash":900,"lop":901,"]].<":902,"ons":903,"]]|":904,"Ġmore":905,"ix":906,"df":907,"page":908,"Ġover":909,"ĠčĊ":910,"use":911,"ative":912,"lect":913,"Ġcan":914,"isbn":915,"journal":916,"ebru":917,"ebruary":918,"ram":919,"Ġout":920,"ley":921,"Ġy":922,".|":923,"ased":924,"978":925,"anguage":926,"Ġafter":927,"Ġ199":928,"orn":929,"198":930,"Ġres":931,"Ġ6":932,"site":933,"Ġinclud":934,"tain":935,"pro":936,"col":937,"oci":938,"Ġ2008":939,"Ġpre":940,"ĠIt":941,"Ġne":942,"agaz":943,"Ġ<":944,"Ġ[":945,"Ġwould":946,"Ġup":947,"ĠâĢĵ":948,"Ġplay":949,"roup":950,"Ġbo":951,"Ġbet":952,"Ġabo":953,"edit":954,"Ġinto":955,"Ġ&":956,").":957,"books":958,"ins":959,"Ġtime":960,"go":961,"An":962,"ock":963,"orth":964,"33":965,"ake":966,"volume":967,"agazine":968,"ank":969,"Ġ2009":970,"tern":971,"reat":972,"Ar":973,"AA":974,"of":975,"ilm":976,"Ġcl":977,"ĠYork":978,"iversity":979,"Ġ7":980,"Ġqu":981,"Ġall":982,"Ġcol":983,"ope":984,"Ġrel":985,"45":986,"ision":987,"ĠAl":988,"under":989,"doi":990,"ough":991,"oot":992,"Un":993,"Ġpart":994,"Ġ2010":995,"che":996,"oy":997,"eat":998,"Ġexp":999,"Ġoff":1000,"File":1001,"iam":1002,"ĠWar":1003,"ublic":1004,"ury":1005,"ience":1006,"ween":1007,"dead":1008,"my":1009,"Ġurl":1010,"right":1011,"Ġwhen":1012,"sy":1013,"ty":1014,"eries":1015,"ose":1016,"ular":1017,"let":1018,"ier":1019,"000":1020,"35":1021,"Ġnew":1022,"erson":1023,"\">":1024,"Ġatt":1025,"enn":1026,"ari":1027,"ustral":1028,"article":1029,"eng":1030,"pdf":1031,"ah":1032,"ale":1033,"edia":1034,"Ġ8":1035,"issue":1036,"ĠEng":1037,"Ġcons":1038,"cc":1039,"merican":1040,"Ġ2007":1041,"ople":1042,"Ġhim":1043,"Ġact":1044,"2010":1045,"ont":1046,"ating":1047,"ution":1048,"Ġthan":1049,"\",":1050,"als":1051,"alk":1052,"2008":1053,"round":1054,"Ġkn":1055,".\"":1056,"Ġbetween":1057,"Ġass":1058,"ures":1059,"Ġsup":1060,"Ġbec":1061,"convert":1062,"Ġla":1063,"ield":1064,"Ġind":1065,"07":1066,"ane":1067,"Ġmod":1068,"arv":1069,"Ġdo":1070,"mp":1071,"rough":1072,"jpg":1073,"44":1074,"38":1075,"ĠStates":1076,"Ġabout":1077,"air":1078,"37":1079,"ĠSc":1080,"Ġsuch":1081,"Ġco":1082,"arn":1083,"cept":1084,"ĠPress":1085,"Ġ\\":1086,"Ġonly":1087,"ily":1088,"Ġsystem":1089,"oint":1090,"ident":1091,"website":1092,"Ġ2011":1093,"ris":1094,"thumb":1095,"Ġsome":1096,"ife":1097,"velop":1098,"outh":1099,"ĠMay":1100,"its":1101,"Ġunder":1102,"36":1103,"Ġrem":1104,"au":1105,"ograp":1106,"Ġpe":1107,"39":1108,"Ġpos":1109,"editor":1110,"led":1111,"Ġref":1112,"Ġsub":1113,"ollow":1114,"Ġ}}":1115,"Ġ17":1116,"ten":1117,"fl":1118,"Ġdec":1119,"Ġused":1120,"ool":1121,"yn":1122,"ught":1123,"\"|":1124,"Th":1125,"âĢĶ":1126,"arg":1127,"mall":1128,"duc":1129,"2007":1130,"Ġ9":1131,"erm":1132,"Ġshe":1133,"ient":1134,"very":1135,"Ġreg":1136,"bum":1137,"ences":1138,"ese":1139,"Ġint":1140,"Ġdate":1141,"Ġform":1142,"line":1143,"umber":1144,"09":1145,"Ġmem":1146,"ike":1147,"ĠĠĠĠĠĠ":1148,"Ġduring":1149,"01":1150,"ax":1151,"05":1152,"ered":1153,"ise":1154,"ĠAugust":1155,"08":1156,"Ġmost":1157,"ĠOctober":1158,"ĠPro":1159,"ball":1160,"econd":1161,"ĠMarch":1162,"2009":1163,"06":1164,"47":1165,"46":1166,"ever":1167,"itt":1168,"Ġ2012":1169,"Ġdesc":1170,"ote":1171,"Ġpr":1172,"ĠThis":1173,"48":1174,"Ġstyle":1175,"ished":1176,"ities":1177,"fore":1178,"Ġdif":1179,"ility":1180,"Ġspec":1181,"ural":1182,"ĠSeptember":1183,"Ġstud":1184,"ford":1185,"erman":1186,"ata":1187,"inn":1188,",<":1189,"ments":1190,"Ġno":1191,"55":1192,"ĠJanuary":1193,"ĠJuly":1194,"||":1195,"rop":1196,"new":1197,"ĠSh":1198,"eneral":1199,"New":1200,"03":1201,"ĠJune":1202,"ript":1203,"Ġdef":1204,"list":1205,"link":1206,"ely":1207,"wn":1208,"Ġthem":1209,"ffect":1210,"ret":1211,"ved":1212,"Ġthrough":1213,"Ġob":1214,"04":1215,"ĠApril":1216,"ling":1217,"ĠRe":1218,"Ġthere":1219,"ety":1220,"ĠNovember":1221,"elf":1222,"Ġ'''":1223,"ogle":1224,"ĠCon":1225,"ys":1226,"Ġab":1227,"aj":1228,"Ġagain":1229,"Ġ16":1230,"uss":1231,"ĠDecember":1232,"Ġhttps":1233,"ets":1234,"ĠUnited":1235,"Ġwe":1236,"02":1237,"rans":1238,"Ġpublisher":1239,"ull":1240,"ather":1241,"Ġpp":1242,"Ġcap":1243,"Ġaccess":1244,"Ġhigh":1245,"rist":1246,"197":1247,"Ġiss":1248,"ces":1249,"arly":1250,"resent":1251,"ett":1252,"Ġman":1253,"Pro":1254,"49":1255,"ars":1256,"ck":1257,"Ġ198":1258,"Ġ15":1259,"Ġfollow":1260,"irect":1261,"ritish":1262,"other":1263,"Ã©":1264,"Ġmay":1265,"Ġret":1266,"rad":1267,"Ġend":1268,"ange":1269,"Ġgame":1270,"Ġwhere":1271,"ĠUniversity":1272,"Ġ'":1273,"ouse":1274,"lish":1275,"ondon":1276,"ple":1277,"pen":1278,"Ġ-":1279,"aper":1280,"ives":1281,"ĠFebruary":1282,"atch":1283,"ruct":1284,"2006":1285,"ĠWorld":1286,"Ġadd":1287,"ible":1288,"etail":1289,"gov":1290,"align":1291,"ĠSp":1292,"ĠLe":1293,"ute":1294,"Ġam":1295,"Ġseason":1296,"Ġ2013":1297,"ists":1298,"Ġthree":1299,"Ġmade":1300,"57":1301,"Sh":1302,"ays":1303,"ert":1304,"alt":1305,"ines":1306,"chn":1307,"Ġchar":1308,"arl":1309,"ĠOn":1310,"pos":1311,"Ġdevelop":1312,"vent":1313,"Ġpol":1314,"overn":1315,"play":1316,"67":1317,"by":1318,"Ġlater":1319,"Al":1320,"58":1321,"ined":1322,"Ġ2016":1323,"illiam":1324,"ĠEn":1325,"Ġbu":1326,"ional":1327,"Ġwrit":1328,"language":1329,"\".<":1330,"ĠInd":1331,"sport":1332,"ower":1333,"span":1334,"Ġdist":1335,"ina":1336,"mid":1337,"Ġwhile":1338,"Ġ==":1339,"31":1340,"Ġdep":1341,"ause":1342,"der":1343,"px":1344,"wards":1345,"Ġsur":1346,"ince":1347,"vel":1348,"Ġ2014":1349,"idge":1350,"ĠAustral":1351,"ke":1352,"ven":1353,"google":1354,"ium":1355,"Ġbeg":1356,"reg":1357,"ross":1358,"Ġfound":1359,"ired":1360,"hil":1361,"ps":1362,"Ġany":1363,"ues":1364,"ital":1365,"ĠFor":1366,"Ġrele":1367,"ootball":1368,"Ġcent":1369,"Ġ2017":1370,"Ġ2015":1371,"vers":1372,"tr":1373,"Ġyears":1374,"net":1375,"Ġinc":1376,"ott":1377,"istor":1378,"59":1379,"arvnb":1380,"Ġmon":1381,"aid":1382,"John":1383,"reen":1384,"Ġinst":1385,"Ġrecord":1386,"Ref":1387,"sub":1388,"pis":1389,"ird":1390,"ser":1391,"...":1392,"Ġthen":1393,"Ġpeople":1394,"formation":1395,"Ġbeing":1396,"Ġbefore":1397,"no":1398,"attle":1399,"eter":1400,"43":1401,"US":1402,"Ġauthor":1403,"ĠEx":1404,"uck":1405,"56":1406,"left":1407,"Ġacc":1408,"Ġarchive":1409,"Ġcall":1410,"Ġbel":1411,"Ġteam":1412,"ature":1413,"ĠZ":1414,"ler":1415,"ideo":1416,"Ġgroup":1417,"gram":1418,"lack":1419,"inc":1420,"Ġsim":1421,"ured":1422,"Ġdiffer":1423,"Ġstr":1424,"2005":1425,"Ġshow":1426,"Ġcre":1427,"ived":1428,"Ġfilm":1429,"ington":1430,"ĠII":1431,"ized":1432,"ĠComm":1433,"ald":1434,"fo":1435,"aking":1436,"2011":1437,"rick":1438,"chool":1439,"iver":1440,"ham":1441,"/|":1442,"Ġdesign":1443,"sych":1444,"Ġseries":1445,"68":1446,"Ġlink":1447,"Ġ2020":1448,"order":1449,"uman":1450,"vol":1451,"ner":1452,"ĠAmerican":1453,"Ġnumber":1454,"Ġ12":1455,"Ġuse":1456,"ĠAd":1457,"ency":1458,"Ġserv":1459,"Ġback":1460,"Ġthese":1461,"ement":1462,"Ġlead":1463,"2004":1464,"Ġmany":1465,"irc":1466,"Com":1467,"May":1468,"Ġwell":1469,"ious":1470,"ĠAt":1471,"ĠWh":1472,"Ġcould":1473,"center":1474,"eek":1475,"aur":1476,"Ġhttp":1477,"Ġboth":1478,"Ġship":1479,"42":1480,"Ġsecond":1481,"ilit":1482,"2012":1483,"69":1484,"Ġ2006":1485,"magazine":1486,"ĠGu":1487,"Ġext":1488,"owever":1489,"ĠTe":1490,"|[[":1491,"off":1492,"els":1493,"Ġresp":1494,"be":1495,"me":1496,"road":1497,"ox":1498,"Ġfour":1499,"val":1500,"cent":1501,"ĠJohn":1502,"lag":1503,"Ġperform":1504,"Ġprov":1505,"por":1506,"arri":1507,"ĠCol":1508,"edu":1509,"avid":1510,"ior":1511,"rol":1512,"ĠQ":1513,"iginal":1514,"Ġ13":1515,"March":1516,"]])":1517,"Ġ2019":1518,"Ġ2018":1519,"ery":1520,"for":1521,".\"<":1522,"ask":1523,"ological":1524,"Ġ197":1525,"itation":1526,"ĠIs":1527,"Ġsever":1528,"Ġmain":1529,"med":1530,"hes":1531,"raft":1532,"Sp":1533,"ised":1534,"66":1535,"eorg":1536,"ingle":1537,"ĠCl":1538,"Ġagainst":1539,"ster":1540,"ĠAs":1541,"Ġbr":1542,"ĠMar":1543,"ians":1544,"etails":1545,"ocial":1546,"Ġ11":1547,"January":1548,"organ":1549,"ĠComp":1550,"duct":1551,"Ġ2021":1552,"ful":1553,"lex":1554,"ually":1555,"Ġest":1556,"yp":1557,"ym":1558,"October":1559,"ness":1560,"Ġclass":1561,"af":1562,"ally":1563,"articles":1564,"Ġincluding":1565,"ung":1566,"her":1567,"Ġresult":1568,"spaper":1569,"32":1570,"Ġrep":1571,"lock":1572,"amily":1573,"ĠOr":1574,"ground":1575,"Ġ14":1576,"Sc":1577,"United":1578,"Ġoper":1579,"September":1580,"anad":1581,"ales":1582,"ced":1583,"atic":1584,"Ġvi":1585,"ission":1586,"ator":1587,"Ġdid":1588,"apan":1589,"ogn":1590,"leg":1591,"Ġepis":1592,"ague":1593,"Ġart":1594,"Ġgo":1595,"34":1596,"Ġwill":1597,"ble":1598,"ically":1599,"Ġeffect":1600,"ead":1601,"August":1602,"Ġ30":1603,"Ġpages":1604,"esp":1605,"ĠGerman":1606,"wh":1607,"hem":1608,"nd":1609,"Ġknown":1610,"April":1611,"Ġsong":1612,"Ġexper":1613,"Ġconst":1614,"}}{{":1615,"Ġsupport":1616,"uccess":1617,"ĠKing":1618,"itive":1619,"ae":1620,"lection":1621,"Ġlong":1622,"99":1623,"ource":1624,"class":1625,"min":1626,"duction":1627,"ĠFran":1628,"back":1629,"ued":1630,"Ġsign":1631,"omen":1632,"Ġ([[":1633,"lin":1634,"ories":1635,"PA":1636,"Ġvari":1637,"Ġstate":1638,"ai":1639,"cid":1640,"php":1641,"Ġbecame":1642,"acter":1643,"Ġvolume":1644,"ĠBritish":1645,"Ġperson":1646,"July":1647,"Ġif":1648,"]]'',":1649,"December":1650,"though":1651,"lor":1652,"ĠTimes":1653,"BC":1654,"*{{":1655,"log":1656,"fr":1657,"June":1658,"til":1659,"Ġclo":1660,"oman":1661,"53":1662,"Ġissue":1663,"ants":1664,"now":1665,"cont":1666,"ography":1667,"ize":1668,"November":1669,"apter":1670,"Ġed":1671,"Ġsame":1672,"ription":1673,"ugg":1674,"ified":1675,"sup":1676,"ration":1677,"ivid":1678,"February":1679,"Ġown":1680,"Ġcontin":1681,"ware":1682,"ajor":1683,"ared":1684,"41":1685,"Ġprocess":1686,"88":1687,"dom":1688,"ially":1689,"2003":1690,"ract":1691,"Ġearly":1692,"Ġra":1693,"box":1694,"uff":1695,"arm":1696,"rown":1697,"ones":1698,"urch":1699,"52":1700,"board":1701,"ization":1702,"Ġem":1703,"arge":1704,"rest":1705,"ney":1706,"''.":1707,"iqu":1708,"urg":1709,"iness":1710,"2013":1711,"lev":1712,"hys":1713,"ves":1714,"ection":1715,"Ġseveral":1716,"aus":1717,"ship":1718,"Ġ0":1719,"ats":1720,"avy":1721,"music":1722,"text":1723,"ãĥ":1724,"ices":1725,"erg":1726,"Ġpop":1727,"Ġyou":1728,"Ġconsid":1729,"Con":1730,"Ġbecause":1731,"ĠHistory":1732,".,":1733,"!--":1734,"ael":1735,"rew":1736,"Ġneed":1737,"ĠRep":1738,"Ġremain":1739,"ality":1740,"Ġdescrib":1741,"ĠAll":1742,"Ġcalled":1743,"ole":1744,"urope":1745,"ony":1746,"Ġeach":1747,"Ġpartic":1748,"ĠSe":1749,"search":1750,"Ġloc":1751,"77":1752,"ounty":1753,"Ġequ":1754,"Ġ25":1755,"Ġpoint":1756,"ilitary":1757,"rand":1758,"98":1759,"ample":1760,"Ġmin":1761,"Ġdirect":1762,"ped":1763,"Ġmusic":1764,"inter":1765,"color":1766,"Ġreport":1767,"Ġent":1768,"Ġocc":1769,"Ġ2022":1770,"65":1771,"overnment":1772,"ĠEd":1773,"]]'":1774,"IS":1775,"alth":1776,"ĠSouth":1777,"Ġ21":1778,"ĠEngland":1779,"Ġrequ":1780,"*[[":1781,"aff":1782,"iving":1783,"oth":1784,"100":1785,"urric":1786,"bor":1787,"ases":1788,"ument":1789,"Ġalbum":1790,"iki":1791,".&":1792,"ene":1793,"iction":1794,"comp":1795,"oll":1796,"ended":1797,"Ġreturn":1798,"ĠĠĠ":1799,"light":1800,"acy":1801,"ĠShe":1802,"comm":1803,"Ġappro":1804,"Ad":1805,"2014":1806,"details":1807,"Ġdifferent":1808,"cy":1809,"Ġset":1810,"ociety":1811,"aul":1812,"Ġeng":1813,"Ġ27":1814,"small":1815,"illion":1816,"Ġoffic":1817,"aced":1818,"arts":1819,"Ġwar":1820,"Ġlanguage":1821,"Ġsaid":1822,"ording":1823,"dis":1824,"64":1825,"ody":1826,"Ġnear":1827,"abbr":1828,"Ġrece":1829,"Ġcrit":1830,"ny":1831,"Ġvis":1832,"Ġrun":1833,"amed":1834,"Ġfun":1835,"ray":1836,"Ġ28":1837,"ĠĠĠĠĠĠĠ":1838,"sk":1839,"-->":1840,"Ġwhat":1841,"Ġfeat":1842,"Ġgeneral":1843,"ĠBe":1844,"Ġdoi":1845,"Ġuntil":1846,"otes":1847,"ĠMc":1848,"ief":1849,"Ġbeh":1850,"54":1851,"ords":1852,"harvnb":1853,"Ġworld":1854,"na":1855,"Ġ2005":1856,"iven":1857,"\"/><":1858,"Ġsuccess":1859,"itions":1860,"rel":1861,"bb":1862,"duced":1863,"Ġfollowing":1864,"Ġgu":1865,"ulation":1866,"ĠDe":1867,"ternational":1868,"Ġpass":1869,"Ġ24":1870,"apt":1871,"2002":1872,"read":1873,"63":1874,"lic":1875,"Ġopen":1876,"2000":1877,"ĠLondon":1878,"Ġpres":1879,"urther":1880,"wood":1881,"Ex":1882,"2019":1883,"ĠEnglish":1884,"Ġinformation":1885,"bers":1886,"Ġ22":1887,"rench":1888,"2015":1889,"Ġlocation":1890,"newspaper":1891,"Ġincre":1892,"Ġdown":1893,"Ġmagazine":1894,"Ġjust":1895,"ichael":1896,"Ġright":1897,"ĠWest":1898,"ense":1899,"Ġdisc":1900,"2001":1901,"ĠAss":1902,"62":1903,"Ġleft":1904,"Ġpublic":1905,"Ġoriginal":1906,"uter":1907,"app":1908,"side":1909,"Ġcor":1910,"Ġph":1911,"ĠRec":1912,"obert":1913,"Ġsmall":1914,"Ġ===":1915,"Arch":1916,"Ġbecom":1917,"2016":1918,"views":1919,"Ġ23":1920,"iod":1921,"51":1922,"Mar":1923,"usiness":1924,"tt":1925,"Ġposs":1926,"ĠPark":1927,"ĠCo":1928,"Ġlife":1929,"yes":1930,"ĠĠĠĠĠ":1931,"Ġval":1932,"Ġhead":1933,"User":1934,"Ġbegan":1935,"Re":1936,"gu":1937,"akes":1938,"aving":1939,"87":1940,"iment":1941,"American":1942,"Ġcharacter":1943,"\".":1944,"=\":":1945,"Ġlow":1946,"Ġ\"[[":1947,"ibr":1948,"Ġallow":1949,"II":1950,"ĠNews":1951,"ĠBr":1952,"imate":1953,"head":1954,"arr":1955,"Ġorgan":1956,"ront":1957,"Ġcount":1958,"Ġbuild":1959,"Ġvers":1960,"ivision":1961,"ĠUS":1962,"Ġepisode":1963,"ĠTr":1964,"err":1965,"stit":1966,"Wh":1967,"Ġcontrol":1968,"serv":1969,"ĠState":1970,"Ġtran":1971,"ided":1972,"ability":1973,"iter":1974,"Ġ29":1975,"oss":1976,"Ġlarge":1977,"Ġdeath":1978,"ffic":1979,"ca":1980,"ĠMan":1981,"Ġbro":1982,"Ġlist":1983,"ichard":1984,"bert":1985,"ĠNational":1986,"Ġland":1987,"Ġchild":1988,"]]<":1989,"Ġ26":1990,"idth":1991,"Ġtra":1992,"omin":1993,"Ġprom":1994,"Ġlike":1995,"Ed":1996,"ander":1997,"aint":1998,"ĠX":1999,"urricane":2000,"Ġmet":2001,"index":2002,"Ġfact":2003,"ashington":2004,"Ġaround":2005,"idd":2006,"Ġ/><":2007,"vir":2008,"ength":2009,"ĠJapan":2010,"Ġtechn":2011,"iles":2012,"ternal":2013,"ĠAustralia":2014,"Ġfinal":2015,"Ġcommun":2016,"name":2017,"ĠCity":2018,"ĠAfter":2019,"esc":2020,"mith":2021,"oon":2022,"Ġalong":2023,"ĠNorth":2024,"ored":2025,"Ġthose":2026,"Ġappear":2027,"epend":2028,"Ġadv":2029,"Ġprogram":2030,"Ġsouth":2031,"hel":2032,"ica":2033,"eorge":2034,"Ġimage":2035,"ĠThey":2036,"Ġmen":2037,"ister":2038,"atter":2039,"amer":2040,"olit":2041,"day":2042,"erences":2043,"story":2044,"thers":2045,"oyal":2046,"Le":2047,"Ġexample":2048,"ĠJournal":2049,"ma":2050,"illboard":2051,"laim":2052,"Ġpar":2053,"reed":2054,"Ġmov":2055,"ches":2056,"oe":2057,"Ġarea":2058,"mar":2059,"Ġoften":2060,"ograph":2061,"ĠPl":2062,"}},":2063,"Ġattack":2064,"doc":2065,"Ġhel":2066,"'t":2067,"ividual":2068,"Ġ2004":2069,"National":2070,"Ġfe":2071,"93":2072,"flu":2073,"Ġfin":2074,"2017":2075,"thod":2076,"ourt":2077,"Ġday":2078,"Ġtrans":2079,"Ġchang":2080,"riv":2081,"ein":2082,"ĠAnd":2083,"Ġarticle":2084,"thing":2085,"Ġbased":2086,"oung":2087,"rey":2088,"ĠPr":2089,"On":2090,"ides":2091,"ago":2092,"ribut":2093,"aut":2094,"William":2095,"cast":2096,"met":2097,"Ġann":2098,"urren":2099,"yd":2100,"ots":2101,"Ġrest":2102,"Ġterm":2103,"ĠAmeric":2104,"ĠHer":2105,"ype":2106,"olution":2107,"Ġtest":2108,"ering":2109,"ilt":2110,"Ġleg":2111,"Ġtri":2112,"etwork":2113,"code":2114,"ought":2115,"61":2116,"Ġtook":2117,"ush":2118,"2018":2119,"Mc":2120,"ning":2121,"ille":2122,"field":2123,"Ġdata":2124,"Ġreview":2125,"|''":2126,"mon":2127,"ze":2128,"Ġstand":2129,"press":2130,"omas":2131,"mi":2132,"Ġusing":2133,"Ġanother":2134,"Ġhistory":2135,"Ġdem":2136,"78":2137,"ampions":2138,"ming":2139,"tic":2140,"raph":2141,"rec":2142,"Ġeven":2143,"Ġsince":2144,"Ġsingle":2145,"Ġtheory":2146,"Ġmuch":2147,"alf":2148,"Ġwithin":2149,"ards":2150,"ruction":2151,"====":2152,"BA":2153,"Ġcentury":2154,"Ġav":2155,"tempt":2156,"ĠHowever":2157,"ĠRo":2158,"ĠCar":2159,"ream":2160,"Ġread":2161,"pmid":2162,"str":2163,"times":2164,"Ġalign":2165,"Ġknow":2166,"raw":2167,"adem":2168,"aval":2169,"Ġline":2170,"Ġstart":2171,"Ġpo":2172,"Ġpower":2173,"ival":2174,"arry":2175,"ĠChrist":2176,"useum":2177,"ius":2178,"osop":2179,"ĠCal":2180,"ropical":2181,"itional":2182,"Ġsk":2183,"ources":2184,"ternet":2185,"ently":2186,"ĠEurope":2187,"ulture":2188,"ricket":2189,"ape":2190,"ification":2191,"uggest":2192,"ãĤ":2193,".]]":2194,"ĠCounty":2195,"Ġlinks":2196,"aged":2197,"berg":2198,"Ġgames":2199,"aster":2200,"1999":2201,"less":2202,"bridge":2203,"vious":2204,"75":2205,"xford":2206,"89":2207,"ĠAir":2208,"Ġhow":2209,"Ġmajor":2210,"Ġ$":2211,"ains":2212,"tainment":2213,"Ġmark":2214,"Ġconc":2215,"Ġdet":2216,"atural":2217,"ĠMe":2218,"Ġevent":2219,"Ġreleased":2220,"Ġvideo":2221,"istic":2222,"Ġsuggest":2223,"Ġmake":2224,"={{":2225,"iff":2226,"lear":2227,"ociation":2228,"Ġport":2229,"ledge":2230,"Ġpresent":2231,"inger":2232,"Ġresearch":2233,"Ġcapt":2234,"quote":2235,"state":2236,"ilar":2237,"David":2238,"Ġmy":2239,"Ġdel":2240,"omb":2241,"202":2242,"km":2243,"ftware":2244,"Ġinvol":2245,"time":2246,"86":2247,"authors":2248,"Ġconf":2249,"van":2250,"Ġsee":2251,"Ġmed":2252,"ibrary":2253,"List":2254,"Ġanal":2255,"can":2256,"omet":2257,"Ġplace":2258,"reet":2259,"Ġtalk":2260,"iography":2261,"Ġview":2262,"ours":2263,"Ġopp":2264,"urs":2265,"ĠWilliam":2266,"Ġhand":2267,"Ġdr":2268,"Ġindividual":2269,"stand":2270,"Ġway":2271,"Ġpolit":2272,"erence":2273,"Project":2274,"Ġtop":2275,"irth":2276,"ances":2277,"Ġlearn":2278,"gr":2279,"ected":2280,"history":2281,"ĠAng":2282,"ampa":2283,"96":2284,"well":2285,"elt":2286,"ysis":2287,"ĠBy":2288,"And":2289,"Ġident":2290,"TC":2291,"Ġisbn":2292,"Cl":2293,"85":2294,"ĠCanad":2295,"ĠNo":2296,"Ġpage":2297,"ĠCor":2298,"Ġshort":2299,"Ġfield":2300,"tal":2301,"chapter":2302,"ivity":2303,"Ġmodel":2304,"ĠQu":2305,"arles":2306,"rote":2307,"ittle":2308,"Ġshould":2309,"Ġdue":2310,"Ġstudy":2311,"idence":2312,"levision":2313,"ublished":2314,"Ġfamily":2315,"ference":2316,"den":2317,"ĠNe":2318,"lang":2319,"ops":2320,"London":2321,"apers":2322,"Ġsix":2323,"Ġpat":2324,"ention":2325,"Ġpost":2326,"Ġgiven":2327,"itch":2328,"Ġimport":2329,"riend":2330,"ential":2331,"AS":2332,"Ġ2003":2333,"aining":2334,"Ġgovernment":2335,"asp":2336,"roll":2337,"All":2338,"cover":2339,"type":2340,"Ġprot":2341,"aily":2342,"ĠLeague":2343,"Ġlaw":2344,"istics":2345,"oday":2346,"110":2347,"review":2348,"arian":2349,"Ġdescribed":2350,"Ġ+":2351,"vest":2352,"igital":2353,"Ġdevelopment":2354,"Ġschool":2355,"0000":2356,"fess":2357,"Ġlevel":2358,"Ġestab":2359,"Ġhuman":2360,"aces":2361,"ination":2362,"Ġfive":2363,"Ġter":2364,"icago":2365,"quad":2366,"Ġproble":2367,"Ġtake":2368,"rem":2369,"ison":2370,"|{{":2371,"group":2372,"92":2373,"BN":2374,"Ġide":2375,"Ġstill":2376,"Fran":2377,"viron":2378,"Ġnow":2379,"Ġcaus":2380,"Ġnorth":2381,"Ġturn":2382,"ĠReg":2383,"Ġnext":2384,"95":2385,"roy":2386,"illa":2387,"Ġperiod":2388,"Ġtem":2389,"Ġgun":2390,"antic":2391,"world":2392,"arth":2393,"Ġvery":2394,"ĠPart":2395,"Ġcare":2396,"ara":2397,"Ġwrote":2398,"clop":2399,"jects":2400,"aken":2401,"ĠHigh":2402,"Ġmove":2403,"Ġwithout":2404,"ãģ":2405,"Ġelect":2406,"Ġmemory":2407,"FA":2408,"aren":2409,"Ġlength":2410,"itz":2411,"eder":2412,"ĠKingdom":2413,"ites":2414,"Ġlarg":2415,"Austral":2416,"Ġinflu":2417,"unt":2418,"Ġrepl":2419,"Or":2420,"Ġreceived":2421,"Ġattempt":2422,"ĠArmy":2423,"Ġincluded":2424,"Ġorder":2425,"Wiki":2426,"pson":2427,"ĠSociety":2428,"style":2429,"rict":2430,"bal":2431,"Ġdescription":2432,"riev":2433,"Ġlate":2434,"top":2435,"yl":2436,"Ġamong":2437,"Ã¡":2438,"ĠOne":2439,"Ġspecies":2440,"ĠStud":2441,"isc":2442,"ks":2443,"Ġsimilar":2444,"burg":2445,"Ġstruct":2446,"lege":2447,"ellig":2448,"Ġcommon":2449,"2020":2450,"ĠSch":2451,"igan":2452,"enry":2453,"En":2454,"osaur":2455,"Ġconsidered":2456,"1997":2457,"Ġrelations":2458,"sports":2459,"Ġsystems":2460,"Ġrepresent":2461,"ĠFrench":2462,"Pr":2463,"ampionship":2464,"Ind":2465,"WikiProject":2466,"Ġ100":2467,"ĠRet":2468,"artment":2469,"De":2470,"1998":2471,"Ġrole":2472,"Ġbelie":2473,"ĠSim":2474,"Ġcity":2475,"World":2476,"tv":2477,"agement":2478,"oper":2479,"iber":2480,"Ġreal":2481,"ID":2482,"aps":2483,"action":2484,"reak":2485,"content":2486,"Ġnon":2487,"ression":2488,"rison":2489,"TV":2490,"sequ":2491,"Ġclaim":2492,"Archive":2493,";âĢĵ":2494,"lease":2495,"Ġstory":2496,"ivil":2497,"20110":2498,"Ġstat":2499,"sw":2500,"ĠHis":2501,"hilosop":2502,"esearch":2503,"Ġmat":2504,"Ġless":2505,"Ġbest":2506,"Ġfootball":2507,"Ġinit":2508,"Ne":2509,"inds":2510,"ino":2511,"wik":2512,"Ġele":2513,"ĠReview":2514,"Ġlive":2515,"arb":2516,"Ġnamed":2517,"Ġled":2518,"ify":2519,"asy":2520,"Ġet":2521,"Ġold":2522,"iforn":2523,"Ġsocial":2524,"ĠCent":2525,"ette":2526,"Ġair":2527,"gin":2528,"Ġpublished":2529,"ana":2530,"Ġevery":2531,";\"|":2532,"Se":2533,"94":2534,"loy":2535,"}}.":2536,"ampaign":2537,"Ġspe":2538,"ĠAmerica":2539,"ĠSystem":2540,"Ġcomplet":2541,"James":2542,"ift":2543,"ĠPer":2544,"Ġsol":2545,"lam":2546,"Ġparticular":2547,"Ġ2001":2548,"84":2549,"win":2550,"Ġmeas":2551,"Ġel":2552,"Ġ-->":2553,"ills":2554,"fric":2555,"Ġinclude":2556,"Ġmonth":2557,"76":2558,"fn":2559,"ĠAct":2560,"conom":2561,"ched":2562,"Ġmembers":2563,"ger":2564,"ule":2565,"issn":2566,"Ġprevious":2567,"ounc":2568,"ĠAc":2569,"lood":2570,"urrent":2571,"{\\":2572,"ĠAustralian":2573,"sychology":2574,"ries":2575,"Ġlight":2576,"Ġbas":2577,"background":2578,"Ġcond":2579,"Ġhome":2580,"Ġtext":2581,"ifornia":2582,"Im":2583,"ication":2584,"ached":2585,"AR":2586,"ĠArch":2587,"dy":2588,"Ġdam":2589,"Ġmatch":2590,"Info":2591,"Ġweek":2592,"ĠAm":2593,"ĠAg":2594,"Ġgen":2595,"Eng":2596,"West":2597,"Ġarch":2598,"ISBN":2599,"ES":2600,"Ġlim":2601,"Ġsent":2602,"ĠPar":2603,"itu":2604,"ĠCompany":2605,"ky":2606,"aspx":2607,"Ġ2002":2608,"los":2609,"vironment":2610,"Ġve":2611,"lc":2612,"Ġ2000":2613,"ambridge":2614,"Ġscope":2615,"part":2616,"ardian":2617,"lands":2618,"ĠDep":2619,"Ġplayed":2620,"Ġhistor":2621,"MS":2622,"Ġtyp":2623,"ĠEast":2624,"album":2625,"ĠHar":2626,"Ġwater":2627,"73":2628,"ula":2629,"oice":2630,"istration":2631,"Ġbi":2632,"flag":2633,"Ġ(''":2634,"ways":2635,"west":2636,"Ġdoes":2637,"Ġcomb":2638,"Ġfunction":2639,"itect":2640,"Ġcer":2641,"ĠYear":2642,"ĠWhen":2643,"orial":2644,"ii":2645,"ĠMon":2646,"Ġfew":2647,"Ġsec":2648,"ained":2649,"ĠPol":2650,"ĠThese":2651,"ĠWe":2652,"79":2653,"ĠSw":2654,"Ġfurther":2655,"Ġband":2656,"Ġwest":2657,"Ġ31":2658,"ective":2659,"gy":2660,"OR":2661,"Ġarg":2662,"Ġkill":2663,"ĠMusic":2664,"used":2665,"ependent":2666,"Ġversion":2667,"info":2668,"odes":2669,"ably":2670,"inning":2671,"eck":2672,"citation":2673,"clopedia":2674,"ament":2675,"Ġcover":2676,"ama":2677,"2021":2678,"Ġthird":2679,"]].{{":2680,"Ġmult":2681,"ux":2682,"Ġeast":2683,"Ã¶":2684,"Ġtrad":2685,"ĠĠĠĠĠĠĠĠĠ":2686,"Ġsold":2687,"ither":2688,"ha":2689,"ĠRiver":2690,"ĠPe":2691,"83":2692,"Ġdest":2693,"ĠThere":2694,"kn":2695,"eal":2696,"/><":2697,"mc":2698,"Ġposition":2699,"ĠInternational":2700,"Ġfl":2701,"82":2702,"ĠDivision":2703,"74":2704,"**":2705,"rian":2706,"ving":2707,"Ġtrack":2708,"emb":2709,"South":2710,"ams":2711,"ĠTo":2712,"2022":2713,").<":2714,"ĠHouse":2715,"Ġbl":2716,"sv":2717,"ĠWith":2718,"bol":2719,"Ġcase":2720,"<!--":2721,"anks":2722,"bel":2723,"rieved":2724,"ĠPublish":2725,"Sch":2726,"Col":2727,"Ġcr":2728,"iple":2729,"ibcode":2730,"]]\"":2731,"Ġpract":2732,"Robert":2733,"amil":2734,"Ġalthough":2735,"Ġothers":2736,"reek":2737,"Harvnb":2738,"Internet":2739,"hi":2740,"Ġdeb":2741,"72":2742,"uel":2743,"free":2744,"ceed":2745,"Ġservice":2746,"ĠInter":2747,"TS":2748,"ictor":2749,"Ġengine":2750,"lot":2751,"lain":2752,"Ġgr":2753,"Billboard":2754,"Ġheld":2755,"Ġwon":2756,"Ġ/":2757,"Ġphys":2758,"Ġmean":2759,"Ġmilitary":2760,"ĠEl":2761,"post":2762,"ĠDo":2763,"Ġside":2764,"uture":2765,"self":2766,"Ġmethod":2767,"Ġaut":2768,"Ġchildren":2769,"edition":2770,"ĠBrit":2771,"ummer":2772,"Ġdays":2773,"Ġbehav":2774,"Ġpropos":2775,"Ġ978":2776,"width":2777,"most":2778,"ising":2779,"mm":2780,"ensive":2781,"Ġbatt":2782,"Bot":2783,"Ġformer":2784,"Ġbecome":2785,"ellow":2786,"ators":2787,"Ġage":2788,"par":2789,"Ste":2790,"ĠScience":2791,"Ġrelease":2792,"ĠMed":2793,"Ġfr":2794,"ĠMin":2795,"University":2796,"ircraft":2797,"ĠSo":2798,"aker":2799,"Ġemp":2800,"uments":2801,"Ġmot":2802,"ĠJack":2803,"blog":2804,"book":2805,"Ġfore":2806,"cer":2807,"Ġquest":2808,"ĠResearch":2809,"ids":2810,"ude":2811,"ele":2812,"Christ":2813,"ovel":2814,"icro":2815,"Ġgood":2816,"uit":2817,"El":2818,"Ġhaving":2819,"Ġbuilt":2820,"Ġpress":2821,"ih":2822,"1996":2823,"ault":2824,"artin":2825,"ociated":2826,"Ġwritten":2827,"bot":2828,"Ġnational":2829,">\\":2830,"Ġthought":2831,"ocr":2832,"arter":2833,"Ġconcept":2834,"ĠSup":2835,"As":2836,"bi":2837,"Ġfre":2838,"Ġgener":2839,"Ġfail":2840,"Ġcame":2841,"1995":2842,"Qu":2843,"71":2844,"Web":2845,"game":2846,"irgin":2847,"Ġlik":2848,"aterial":2849,"bbc":2850,"At":2851,"iate":2852,"Ġperformance":2853,"Ġdeveloped":2854,":#":2855,"Ġintro":2856,"Ġplan":2857,"Ġlocal":2858,"ĠBo":2859,"ĠCenter":2860,"Ġanim":2861,"Ġchanges":2862,"ouncil":2863,"ichigan":2864,"bl":2865,"olk":2866,"asc":2867,"Ġsignific":2868,"ronic":2869,"ĠAfric":2870,"ccording":2871,"bs":2872,";\"":2873,"Ã¼":2874,"utes":2875,"Ġrad":2876,"ique":2877,"],":2878,"ows":2879,"ĠRuss":2880,"ĠGeneral":2881,"Ġcompos":2882,"ĠAssociation":2883,"Ġstrong":2884,"vey":2885,"iers":2886,"History":2887,"British":2888,"unk":2889,"ico":2890,"hib":2891,"iet":2892,"ilms":2893,"oclc":2894,"hemat":2895,"elligence":2896,"Ġimp":2897,"ockey":2898,"cis":2899,"Ġinterest":2900,"Ġri":2901,"film":2902,"chan":2903,"aries":2904,"ecut":2905,"Ġproject":2906,"ĠCup":2907,"ribution":2908,"Michael":2909,"ida":2910,"Ġhowever":2911,"Ġimportant":2912,"Ġder":2913,"aa":2914,"91":2915,"Ġcontinued":2916,"orts":2917,"ĠHol":2918,"ĠApp":2919,"Ġfind":2920,"Am":2921,"frac":2922,"ĠAward":2923,"ĠRoad":2924,"Ġdev":2925,">[":2926,"eph":2927,"ja":2928,"upright":2929,"ells":2930,"Ġthough":2931,"irl":2932,"Ġexist":2933,"face":2934,"Ġenc":2935,"}}<":2936,"national":2937,"iences":2938,"ĠServ":2939,"ĠGr":2940,"Ġobserv":2941,"ending":2942,"Ġinf":2943,"ipp":2944,"fic":2945,"acters":2946,"120":2947,"ender":2948,"Ġcy":2949,"Ġships":2950,"FF":2951,"ĠSchool":2952,"acing":2953,"Ġconn":2954,"osp":2955,"ĠArt":2956,"No":2957,"ultural":2958,"Ġcareer":2959,"Ġproduction":2960,"Rep":2961,"feat":2962,"Ġtransf":2963,"gen":2964,"icon":2965,"iller":2966,"umm":2967,"ider":2968,"ĠNor":2969,")</":2970,"ston":2971,"olar":2972,"ĠDavid":2973,"Ġrelationship":2974,"aylor":2975,"DE":2976,"rior":2977,"da":2978,"]],<":2979,"Ġser":2980,"load":2981,"Ġmedia":2982,"Infobox":2983,"Ġchange":2984,"Ġnever":2985,"ean":2986,"1994":2987,")<":2988,"iddle":2989,"Gu":2990,"Ġfree":2991,"resident":2992,"20080":2993,"eting":2994,"Ġseen":2995,"enced":2996,"BBC":2997,"ville":2998,":<":2999,"Ġpmid":3000,"Ġyoung":3001,"eth":3002,"ĠStreet":3003,"Ġcompany":3004,"Ġtro":3005,"with":3006,"men":3007,"war":3008,"ĠRetrieved":3009,"Ġvarious":3010,"do":3011,"Ġcommand":3012,"Ġplayer":3013,"atory":3014,"Ġgreat":3015,"ĠMem":3016,"Ġhalf":3017,"football":3018,"ring":3019,"Ġenter":3020,"lete":3021,"erry":3022,"las":3023,"anted":3024,"quadron":3025,"Ġprim":3026,"ube":3027,"Ġtimes":3028,"81":3029,"Ġreason":3030,"UTC":3031,"ĠIm":3032,"exual":3033,"Ġ1999":3034,"down":3035,"ingu":3036,"Ġneeded":3037,"stein":3038,"mark":3039,"1016":3040,"Ġord":3041,"ros":3042,"thern":3043,"ĠHall":3044,"Ġdead":3045,"Richard":3046,"Ġimpro":3047,"Ġcirc":3048,"Ġeditor":3049,"esign":3050,"aly":3051,"block":3052,"See":3053,"Ġbuilding":3054,"ĠCalifornia":3055,"stitute":3056,"Ġhelp":3057,"ception":3058,"Har":3059,"Ġlook":3060,"Ġpossible":3061,"Ġforces":3062,"Ġclos":3063,"amb":3064,"ĠPh":3065,"Ġrather":3066,"lying":3067,"oo":3068,"ĠJapanese":3069,"ĠFrance":3070,"lected":3071,"George":3072,"Ġmaking":3073,"ĠWashington":3074,"Ġpopular":3075,"Ġsett":3076,"ĠMary":3077,"Ġjo":3078,"Ġbody":3079,"Ship":3080,"Ġstation":3081,"eep":3082,"Sfn":3083,"Ġmodern":3084,"Ġproper":3085,"ĠHistor":3086,"Ġcountry":3087,"Ġmillion":3088,"ns":3089,"usion":3090,"ĠNavy":3091,"que":3092,"erred":3093,"Te":3094,"Tr":3095,"Ph":3096,"Ġrecogn":3097,"Ġill":3098,"oted":3099,"NA":3100,"achine":3101,"lished":3102,"ĠChampionship":3103,"Ġplayers":3104,"ĠForce":3105,"Ġwomen":3106,"]]'''":3107,"ergy":3108,"References":3109,"He":3110,"ĠAngel":3111,"ump":3112,"20090":3113,"ĠDuring":3114,"aught":3115,"Ġaircraft":3116,"ĠMuseum":3117,"leet":3118,"ij":3119,"Ġprob":3120,"iting":3121,"ailable":3122,"We":3123,")}}":3124,"ights":3125,"Ġacross":3126,"orse":3127,"_{":3128,"Ġmust":3129,"Ġworks":3130,"ĠRes":3131,"erc":3132,"trans":3133,">[[":3134,"oms":3135,"ĠChurch":3136,"Ġz":3137,"Ġfoc":3138,",{{":3139,"Ġcarri":3140,"Ġsuff":3141,"hester":3142,"Ġroad":3143,"omy":3144,"Ġfriend":3145,"Ġtype":3146,"eball":3147,"Ġnetwork":3148,"Don":3149,"ĠFirst":3150,"Ġsource":3151,"Journal":3152,"inson":3153,"Ġfront":3154,"Ġfire":3155,"Ġsw":3156,"Battle":3157,"Ġtotal":3158,"ĠBl":3159,"ognitive":3160,"place":3161,"itte":3162,"Ġbirth":3163,"ults":3164,"Ġdisplay":3165,"Port":3166,"Ġtw":3167,"Ġcampaign":3168,"ĠEmp":3169,"stor":3170,"Ġself":3171,"Ġmap":3172,"Ġpred":3173,"urb":3174,"ĠDr":3175,"Ġsignificant":3176,"ĠÃ":3177,"ti":3178,"ero":3179,"shire":3180,"Ġblack":3181,"Ġpolitical":3182,"ĠCanada":3183,"Ġ50":3184,"Ġtown":3185,"ĠJames":3186,"season":3187,"Ġhouse":3188,"elling":3189,"ĠRev":3190,"antasy":3191,"Ġparticip":3192,"Ġable":3193,"ĠPublishing":3194,"Ġneg":3195,"Ġforce":3196,"20160":3197,"Ġproduc":3198,"Co":3199,"nytimes":3200,"]];":3201,"Ġstorm":3202,"ports":3203,"Ġcost":3204,"BAJ":3205,"For":3206,"oid":3207,"News":3208,"ĠWil":3209,"cg":3210,"Ġsyn":3211,"agn":3212,"Ġlost":3213,"acific":3214,"NY":3215,"series":3216,"ĠOff":3217,"rix":3218,"ĠEm":3219,"Ġbattle":3220,"asing":3221,"Ġsym":3222,"ephen":3223,"oring":3224,"Pl":3225,"ĠMod":3226,"lobal":3227,"Ġevents":3228,"Ġground":3229,"bury":3230,"ĠRef":3231,"ager":3232,"more":3233,"yr":3234,")]]":3235,"ibility":3236,"Ġmoved":3237,"HL":3238,"def":3239,"itted":3240,"Ġcharacters":3241,"Ġmaterial":3242,"ĠTest":3243,"}}}}":3244,"oph":3245,"Ġreturned":3246,"Ġhold":3247,"Comm":3248,"epar":3249,"1993":3250,"Ġscience":3251,"Ġcompet":3252,"1990":3253,"games":3254,"ĠCont":3255,"Ġsay":3256,"Ġhimself":3257,"Ġreported":3258,"Ġproduced":3259,"Ġsound":3260,"Ġins":3261,"Ġanalysis":3262,"upt":3263,"ĠMac":3264,"gress":3265,"Ġ1998":3266,"spec":3267,"Ġcritic":3268,"Is":3269,"Ġcreated":3270,"::":3271,"Do":3272,"ArchiveBot":3273,"InternetArchiveBot":3274,"Br":3275,"Ġcop":3276,"Ġearl":3277,"Ġrev":3278,"Ġvict":3279,"Ġclub":3280,"bf":3281,"Ġrelig":3282,"Ġareas":3283,"mat":3284,"Ġthink":3285,"fact":3286,"Ġwhe":3287,"atin":3288,"AAAA":3289,"ounter":3290,"Ġpers":3291,"hol":3292,"Ġsoftware":3293,"udg":3294,"Ġinv":3295,"ĠBar":3296,"open":3297,"irginia":3298,"Ġtaken":3299,"Ġfight":3300,"ades":3301,"era":3302,"Ġofficial":3303,"Ġaction":3304,"ĠIf":3305,"iana":3306,"ilities":3307,"ental":3308,"bit":3309,"ĠGroup":3310,"talk":3311,"ĠPost":3312,"urt":3313,"uz":3314,"Ġaud":3315,"spapers":3316,"gcolor":3317,"Ġeither":3318,"Ġwebsite":3319,"ounced":3320,"ĠRout":3321,"IG":3322,"umer":3323,"pol":3324,"ĠBest":3325,"Ġred":3326,"Ġcorre":3327,"public":3328,"irt":3329,"OS":3330,"ĠRoyal":3331,"Ġdied":3332,"Thomas":3333,"ept":3334,"Ġtelevision":3335,"Ġfull":3336,"quare":3337,"lantic":3338,"Ġdi":3339,"Ġrange":3340,"han":3341,"mov":3342,"ĠLaw":3343,"ires":3344,"Ġobject":3345,"King":3346,"]]}}":3347,"ĠâĢĶ":3348,"roadcast":3349,"ĠCan":3350,"alls":3351,"Ġwhite":3352,"ules":3353,"png":3354,"onse":3355,"Man":3356,"ĠMor":3357,"rang":3358,"duce":3359,"ds":3360,"Ġmass":3361,"ĠVal":3362,"âĢĻ":3363,"Ġlearning":3364,"Ġestablished":3365,"Ġwent":3366,"Ġeight":3367,"1992":3368,"Ġaccept":3369,"Ġcross":3370,"ĠUK":3371,"Ġlog":3372,"Ġevidence":3373,"sort":3374,"Australian":3375,"ka":3376,"pect":3377,"Ġphot":3378,"not":3379,"ĠPal":3380,"300":3381,"Ġput":3382,"ĠBritain":3383,"Ġdiffic":3384,"ĠAwards":3385,"Met":3386,"Ġdifficult":3387,"atal":3388,"restling":3389,"Reflist":3390,"ĠPhil":3391,"pre":3392,"edy":3393,"Ġinvest":3394,"Ġarm":3395,"ios":3396,"Ġspace":3397,"Pe":3398,"ĠDepartment":3399,"band":3400,"Ġtoo":3401,"sen":3402,"20070":3403,"ittee":3404,"Ġdestroy":3405,"Ġgrow":3406,"Ġdeterm":3407,"rook":3408,"Ġson":3409,"Ġoppos":3410,"ĠInt":3411,"igg":3412,"AN":3413,"Ġstudies":3414,"ĠĠĠĠĠĠĠĠĠĠ":3415,"Ġspecial":3416,"pret":3417,"rd":3418,"ĠAlthough":3419,"Ġeduc":3420,"ends":3421,"bibcode":3422,"Royal":3423,"like":3424,"ĠBlack":3425,"ership":3426,"tained":3427,"Ġrequired":3428,"ĠBooks":3429,"standing":3430,"Ġoffer":3431,"Ġbusiness":3432,"Ġsite":3433,"house":3434,"Ġavailable":3435,"unch":3436,"20120":3437,"stone":3438,"ws":3439,"ption":3440,"ini":3441,"eff":3442,"iser":3443,"Ġvol":3444,"Ġconduct":3445,"Ġfig":3446,"ded":3447,"Ġstates":3448,"start":3449,"fessional":3450,"Ġindic":3451,"Ġabove":3452,"Ġnovel":3453,"Citation":3454,"ki":3455,"Ġ1997":3456,"Ġaway":3457,"ĠParty":3458,"igned":3459,"ĠRepublic":3460,"1991":3461,"aniel":3462,"Ġpot":3463,"ER":3464,"Ġrecorded":3465,"ctor":3466,"Ġvauthors":3467,"Ġask":3468,"ĠMark":3469,"Ġfather":3470,"ĠGermany":3471,"ĠPlay":3472,"Ġcast":3473,"ĠGod":3474,"ĠMedia":3475,"syl":3476,"Ġsepar":3477,"ĠSome":3478,"Ġgave":3479,"AC":3480,"ĠGame":3481,"Ġinstead":3482,"BS":3483,"Mark":3484,"opt":3485,"ĠYou":3486,"Ġrespons":3487,"oston":3488,"Ġterms":3489,"ĠPort":3490,"ÃŃ":3491,"Ġ'''[[":3492,"Ġbar":3493,"efn":3494,"eech":3495,"chnology":3496,"IC":3497,"ĠUnion":3498,"chie":3499,"anning":3500,"Charles":3501,"Ġtask":3502,"Oxford":3503,"Ġcal":3504,"Ġmight":3505,"irit":3506,"ien":3507,"Ġremained":3508,"IN":3509,"shtml":3510,"uke":3511,"Sim":3512,"Per":3513,"Ġlittle":3514,"Ġstated":3515,"Comp":3516,"Gr":3517,"Paul":3518,"].":3519,"Ġtreat":3520,"century":3521,"oseph":3522,"cle":3523,"ĠAccording":3524,"Ġapplic":3525,"ĠMet":3526,"Ġsurv":3527,"Ġleast":3528,"''<":3529,"Ġ2023":3530,"Ġproduct":3531,"Ġknowledge":3532,"Ġsuccessful":3533,"Ġfav":3534,"Ġalt":3535,"Ġdiscuss":3536,"UK":3537,"]]}}</":3538,"Ġcomplex":3539,"ĠSmith":3540,"Ġmonths":3541,"Ġapproach":3542,"ĠPublic":3543,"Ġeff":3544,"Short":3545,"Ã³":3546,"otion":3547,"about":3548,"ĠCollege":3549,"cient":3550,"Ġten":3551,"Ġeffects":3552,"cm":3553,"Ġgroups":3554,"Ġliter":3555,"ĠGeorge":3556,"atform":3557,"umbers":3558,"ĠService":3559,"Ġconcern":3560,"dat":3561,"Ġactiv":3562,"lim":3563,"Ġproblem":3564,"Ġregard":3565,"Cal":3566,"ourse":3567,"\".{{":3568,"Ġtour":3569,"ademy":3570,"Ġoccur":3571,"exas":3572,"ustry":3573,"fm":3574,"Ġadded":3575,"ĠFilm":3576,"ingles":3577,"Ġaccount":3578,"500":3579,"230":3580,"raz":3581,"Ġconsist":3582,"Game":3583,"ĠInstitute":3584,"Ġvalue":3585,"Ġfeatures":3586,"velopment":3587,"atest":3588,"ĠMat":3589,"city":3590,"Ġhealth":3591,"DF":3592,"ustri":3593,"ressed":3594,"Ġfar":3595,"writ":3596,"North":3597,"ply":3598,"Ġmid":3599,"Music":3600,"nel":3601,"Use":3602,"Phil":3603,"}}.</":3604,"ĠÂ":3605,"Ġstructure":3606,"svg":3607,"nh":3608,"artist":3609,"Car":3610,"hilosophy":3611,"Ġhon":3612,"leship":3613,"covered":3614,"ilver":3615,"Main":3616,"ĠRichard":3617,"track":3618,"ĠRock":3619,"urity":3620,"Ġlack":3621,"ouis":3622,"Ġtoge":3623,"ĠAnn":3624,"icy":3625,"Ġtogether":3626,"Ġbox":3627,"ĠInc":3628,"oes":3629,"usical":3630,"ani":3631,"IT":3632,"Ġpaint":3633,"notes":3634,"osh":3635,"cd":3636,"sch":3637,"cr":3638,"Ġupon":3639,"ĠMichigan":3640,"Be":3641,"alle":3642,"Ġcertain":3643,"Ġeconom":3644,"Ġdates":3645,"ena":3646,"uting":3647,"Ġexperience":3648,"mir":3649,"lymp":3650,"Ġfollowed":3651,"Ġentire":3652,"Ġnor":3653,"entertainment":3654,"sylvan":3655,"Ġpoints":3656,"based":3657,"lorida":3658,"Ġgre":3659,"ĠBut":3660,"flict":3661,"Sw":3662,"via":3663,"!!":3664,"anish":3665,"ĠHow":3666,"ĠMichael":3667,"ĠFrom":3668,"Ġfund":3669,"onic":3670,"AT":3671,"Ġlet":3672,"imately":3673,"hest":3674,"bour":3675,"Ġflow":3676,"Ġchart":3677,"porary":3678,"Hol":3679,"Ġresults":3680,"merg":3681,"Ġmarri":3682,"lywood":3683,"Ġloss":3684,"ables":3685,"aging":3686,"ĠRobert":3687,"verse":3688,"ynam":3689,"Ġsubject":3690,"alo":3691,"Ġcomment":3692,"itable":3693,"Ġparty":3694,"osc":3695,"ĠPaul":3696,"aseball":3697,"ĠClub":3698,"Ġaver":3699,"Ġ<!--":3700,"amm":3701,"ĠBay":3702,"format":3703,"Ġwriting":3704,"Ġsection":3705,"Ġfac":3706,"istry":3707,"Ġ1995":3708,"file":3709,"Ġ40":3710,"ba":3711,"atives":3712,"ĠĠĠĠĠĠĠĠĠĠĠ":3713,"bu":3714,"Ġaddition":3715,"Ġaffect":3716,"vention":3717,"Ġsitu":3718,"Ġ1996":3719,"Ġhard":3720,"Ġcenter":3721,"ĠOxford":3722,"ocument":3723,"ĠEmpire":3724,"ĠCap":3725,"Ġrail":3726,"rief":3727,"ension":3728,"Ġwriter":3729,"sylvania":3730,"online":3731,"ĠGreat":3732,"ĠDis":3733,"ĠKent":3734,"Ġwid":3735,"uble":3736,"Ġbetter":3737,"ady":3738,"key":3739,"ĠRoman":3740,"Ġour":3741,"Alex":3742,"mediate":3743,"Sup":3744,"unity":3745,"Ġlikely":3746,"ining":3747,"ĠMad":3748,"anet":3749,"Ġx":3750,"ĠLife":3751,"Ġappe":3752,"Ġcaused":3753,"/?":3754,"aring":3755,"Ġcurrent":3756,"ustr":3757,"iley":3758,"102":3759,"It":3760,"ĠRel":3761,"Ġestim":3762,"Ġarchitect":3763,"olf":3764,"Ġpopulation":3765,"ties":3766,"Mon":3767,"Ġstri":3768,"Peter":3769,"Ġmiss":3770,"Ġrelated":3771,"Ġworking":3772,"Id":3773,"Bl":3774,"inct":3775,"Ġresponse":3776,"Ġissues":3777,"Ġpresident":3778,"Ġthroughout":3779,"ĠSun":3780,"Ġget":3781,"ributed":3782,"ĠIsland":3783,"Ġconstruction":3784,"ĠWhile":3785,"scription":3786,"''.<":3787,"airs":3788,"ucky":3789,"ientific":3790,"ĠIII":3791,"ĠGe":3792,"Ġemploy":3793,"Ġstre":3794,"mann":3795,"Ġgenerally":3796,"Ġkilled":3797,"ĠRob":3798,"Smith":3799,"agon":3800,"Ġarri":3801,"|}":3802,"known":3803,"oral":3804,"German":3805,"1988":3806,"Ġprovided":3807,"Ġfuture":3808,"ĠBrown":3809,"Inter":3810,"ongress":3811,"emocr":3812,"PG":3813,"ĠGuide":3814,"pin":3815,"Ġonce":3816,"20130":3817,"ĠVol":3818,"ennsylvania":3819,"ta":3820,"rast":3821,"Ġaward":3822,"ometimes":3823,"Ġclose":3824,"Ġassist":3825,"'')":3826,"Ġfem":3827,"jo":3828,"Ġtowards":3829,"Ġreached":3830,"Ġ1990":3831,"main":3832,"song":3833,"Ġwords":3834,"antry":3835,"Ġrock":3836,"import":3837,"ises":3838,"stant":3839,"ado":3840,"Ġbehind":3841,"ĠDef":3842,"ees":3843,"ĠTwo":3844,"After":3845,"ĠSen":3846,"ĠWork":3847,"La":3848,"ĠEuropean":3849,"iding":3850,"gypt":3851,"Ġcolor":3852,"ala":3853,"mo":3854,"gan":3855,"Ġpositive":3856,"ĠRoute":3857,"=''":3858,"Ġinvolved":3859,"ils":3860,"Ġcar":3861,"Ġtransl":3862,"App":3863,"source":3864,"Ġformed":3865,"legraph":3866,"Ġtraining":3867,"East":3868,"ened":3869,"rock":3870,"ĠForm":3871,"ively":3872,"She":3873,"Ġenvironment":3874,"Canad":3875,"plic":3876,"million":3877,"Ġspecific":3878,"Ġstar":3879,"alled":3880,"ĠJackson":3881,"life":3882,"ands":3883,"This":3884,"Ġwhether":3885,"anced":3886,"Ġbehavior":3887,"Ġadditional":3888,"ĠIndia":3889,"hr":3890,"]]:":3891,"By":3892,"rees":3893,"etic":3894,"Ġmechan":3895,"Ġnoted":3896,"Ġfrequ":3897,"enth":3898,"ĠChristian":3899,"Ġkeep":3900,",\"":3901,"20140":3902,"inary":3903,"AF":3904,"come":3905,"ĠGreen":3906,"130":3907,"Ġstage":3908,"ĠAngeles":3909,"Ġhum":3910,"ears":3911,"tertainment":3912,"Ġserved":3913,"ias":3914,"vis":3915,"Ġwin":3916,"Ġbelieved":3917,"UL":3918,"Ġsens":3919,"add":3920,"agg":3921,"Ġking":3922,"Ġitself":3923,"Ġassociated":3924,"Mac":3925,"20150":3926,"eds":3927,"VD":3928,"Ġhost":3929,"thur":3930,"{|":3931,"ndash":3932,"avis":3933,"Ġnorm":3934,"incip":3935,"fall":3936,"Ġinn":3937,"cal":3938,"Ġachie":3939,"ips":3940,"Ġcompleted":3941,"ĠVirginia":3942,"rich":3943,"aching":3944,"English":3945,"1986":3946,"Rob":3947,"kins":3948,"ĠAlbum":3949,"font":3950,"Ġnatural":3951,"Ġregion":3952,"Ġusually":3953,"Ġelection":3954,"oke":3955,"Ġappeared":3956,"Ġremov":3957,"ye":3958,"Ġâ":3959,"bell":3960,"ĠCouncil":3961,"arily":3962,"Ġseem":3963,"Ġword":3964,"How":3965,"merc":3966,"Ġbelow":3967,"anchester":3968,"ĠWales":3969,"Ġelements":3970,"heast":3971,"inese":3972,"ranch":3973,"ĠDay":3974,"ĠHill":3975,"Ġedition":3976,"Ġcaption":3977,"ulated":3978,"omer":3979,"Ġleading":3980,"PN":3981,"ĠOther":3982,"cgi":3983,"arliam":3984,"ĠSeries":3985,"Ġsequ":3986,"het":3987,"Ġprovide":3988,"Rec":3989,"ĠWestern":3990,"Ġmeasure":3991,"ersey":3992,"ĠThomas":3993,"Ġaccording":3994,"iation":3995,"Ġcycl":3996,"ictionary":3997,"Ass":3998,"science":3999,"ĠDist":4000,"ĠLeg":4001,"atre":4002,"Ġden":4003,"utch":4004,">''":4005,"ita":4006,"MD":4007,"]]''.":4008,"aven":4009,"Ġsize":4010,"mod":4011,"change":4012,"Start":4013,"ĠScott":4014,"EC":4015,"When":4016,"Ġcut":4017,"ĠHenry":4018,"Ġnight":4019,"ĠSec":4020,"Go":4021,"ĠSur":4022,"importance":4023,"=&":4024,"overnor":4025,"plement":4026,"Ġstrateg":4027,"owl":4028,"imal":4029,"ederal":4030,"{{'":4031,"arliament":4032,"stron":4033,"Ġlower":4034,"Ġpast":4035,"Ġsongs":4036,"Ġidea":4037,"Mat":4038,"enes":4039,"Ġappoint":4040,"high":4041,"ixed":4042,"cs":4043,"olic":4044,"1989":4045,"Par":4046,"ges":4047,"Ġcolla":4048,"isk":4049,"Ġalmost":4050,"Ġbrain":4051,"Ġinsp":4052,"reviews":4053,"Jack":4054,"rp":4055,"Ġorig":4056,"1987":4057,"Ġsaw":4058,"Ġfinished":4059,"Em":4060,"video":4061,"Ġtarg":4062,"Ġmember":4063,"aves":4064,"hold":4065,"ogue":4066,"beg":4067,"Ġdesigned":4068,"ols":4069,"ĠTown":4070,"Ġallowed":4071,"ĠBiography":4072,"Ġwidth":4073,"Ġfeel":4074,"ĠShip":4075,"Ġfilms":4076,"ĠWhite":4077,"sfnp":4078,"External":4079,"arks":4080,"Nor":4081,"International":4082,"Ġproposed":4083,"ĠBel":4084,"king":4085,"Ġinfluence":4086,"izing":4087,"Ġund":4088,"Ġ({{":4089,"ĠOb":4090,"Ġmeans":4091,"ried":4092,"Ġconsider":4093,"First":4094,"Ġenergy":4095,"Henry":4096,"Ġinte":4097,"volution":4098,"oz":4099,"data":4100,"ĠTra":4101,"Ġreve":4102,"elves":4103,"Ġperformed":4104,"ĠRed":4105,"family":4106,"Ġpur":4107,"Ġdecision":4108,"EN":4109,"104":4110,"files":4111,"Ġ#":4112,"people":4113,"ua":4114,"Ġannounced":4115,"isl":4116,"Åį":4117,"Ġhigher":4118,"ĠTime":4119,"dr":4120,"ĠTop":4121,"ĠCourt":4122,"ready":4123,"Ġ1994":4124,"ribune":4125,"Ã¤":4126,"ĠâĢ":4127,"ĠTV":4128,"rivate":4129,"illage":4130,"ĠSimpson":4131,"Ġmom":4132,"Ġincreased":4133,"iro":4134,"Ġcourt":4135,"Ġvisit":4136,"Ġhurricane":4137,"olumb":4138,"Ġsources":4139,"Ġesp":4140,"ĠNetwork":4141,"pop":4142,"Ġfall":4143,"ona":4144,"Ġability":4145,"Ġdamage":4146,"ON":4147,"ĠJohnson":4148,"ĠLab":4149,"Ġguns":4150,"ota":4151,"Ġcreat":4152,"Ġfocus":4153,"ĠChicago":4154,"Ġcann":4155,"ĠRail":4156,"Ġpersonal":4157,"ueen":4158,"ĠGrand":4159,"jp":4160,"anner":4161,"today":4162,"tar":4163,"150":4164,"Ġkey":4165,"Time":4166,"blockquote":4167,"anguages":4168,"lement":4169,"Ġinj":4170,"bank":4171,"ĠBi":4172,"ĠOffice":4173,"ictoria":4174,"fficial":4175,"Ġsch":4176,"intend":4177,"ken":4178,"Ġoffice":4179,"ya":4180,"ĠWeek":4181,"gar":4182,"pped":4183,"Ġmeaning":4184,"ibl":4185,"tra":4186,"cyclopedia":4187,"1985":4188,"ĠBatt":4189,"dec":4190,"Ġunits":4191,"ĠPacific":4192,"ecutive":4193,"adium":4194,"ĠReport":4195,"IA":4196,"ĠCharles":4197,"aches":4198,"Ġproblems":4199,"103":4200,"Ġche":4201,"Ġmanagement":4202,"ĠSan":4203,"Ġthreat":4204,"true":4205,"IGN":4206,"ulf":4207,"Black":4208,"obile":4209,"ras":4210,"Ġdeg":4211,"Ġren":4212,"Ġplaced":4213,"onna":4214,"Ġcentral":4215,"Ġsubsequ":4216,"Ġseven":4217,"ĠSquadron":4218,"oron":4219,"Image":4220,"ĠĠĠĠĠĠĠĠĠĠĠĠ":4221,"active":4222,"Ġnecess":4223,"Ġrow":4224,"ada":4225,"itude":4226,".''":4227,"Ġattention":4228,"mond":4229,"]]),":4230,"ealand":4231,"jstor":4232,"Ġ1993":4233,"Ġmovement":4234,"Ġeventually":4235,"PS":4236,"ĠFootball":4237,"Me":4238,"Ġstandard":4239,"Ġ1980":4240,"Ġtechnology":4241,"anned":4242,"Ġnature":4243,"ĠLa":4244,"Ġassum":4245,"ĠThat":4246,"ĠIndian":4247,"ountain":4248,"ĠNY":4249,"law":4250,"Ġuses":4251,"Ġcoast":4252,"ĠOlymp":4253,"Ġshown":4254,"=[":4255,"final":4256,"cean":4257,"Ġrank":4258,"Ġearlier":4259,"105":4260,"isions":4261,"Ġdecided":4262,"Ġquick":4263,"ember":4264,"ecially":4265,"ĠZealand":4266,"Ġever":4267,"check":4268,"ĠPsychology":4269,"ĠPat":4270,"ĠEv":4271,"amples":4272,"hood":4273,"za":4274,"ĠGold":4275,"Cont":4276,"ĠHurricane":4277,"CC":4278,"from":4279,"ctions":4280,"Gold":4281,"Ġabs":4282,"po":4283,"uation":4284,"ĠCons":4285,"ĠCast":4286,"ela":4287,"ĠPresident":4288,"Ġstarted":4289,"Ġaff":4290,"ĠRecords":4291,"Ġprop":4292,"rish":4293,"Ġesc":4294,"EE":4295,"Ġfelt":4296,"107":4297,"Chicago":4298,"Wil":4299,"ĠStone":4300,"Ġwhose":4301,"):":4302,"ipedia":4303,"ĠMy":4304,"108":4305,"Ġacqu":4306,"Ġviol":4307,"Ġthus":4308,"ĠCross":4309,"estival":4310,"ican":4311,"Ġbrought":4312,"Ġdon":4313,"Ġregular":4314,"Ġge":4315,"ocal":4316,"}{":4317,"Ġarmy":4318,"ĠInf":4319,"show":4320,"even":4321,"Ġsuggested":4322,"ura":4323,"ĠTran":4324,"Ġnotes":4325,"night":4326,"ores":4327,"Cambridge":4328,"Ġbomb":4329,"Ġdri":4330,"bout":4331,"Ġintelligence":4332,"Ġhom":4333,"Ġround":4334,"ror":4335,"ski":4336,"109":4337,"ĠAlex":4338,"Pol":4339,"Ġculture":4340,"Ġrelative":4341,"perial":4342,"Ġshows":4343,"20170":4344,"Ġquestion":4345,"ully":4346,";<":4347,"ĠGo":4348,"Ġrace":4349,"106":4350,"Ġaverage":4351,"Ġtroops":4352,"ĠClass":4353,"Ġoutside":4354,"Green":4355,"unction":4356,"Ġmother":4357,"inosaur":4358,"ĠSocial":4359,"alse":4360,"112":4361,"Ġcontract":4362,"Int":4363,"Ġstudents":4364,"Ġsometimes":4365,"Ġpra":4366,"Ġneur":4367,"Ġconstruct":4368,"ĠCarol":4369,"ORT":4370,"itar":4371,"ountry":4372,"aled":4373,"entry":4374,"Play":4375,"lb":4376,"adel":4377,"wa":4378,"rav":4379,"irection":4380,"viet":4381,"ĠBen":4382,"ĠFrancis":4383,"var":4384,"ishop":4385,"imens":4386,"asket":4387,"adio":4388,"Ġpay":4389,"rence":4390,"ĠMass":4391,"don":4392,"Ġruns":4393,"erve":4394,"Ġedit":4395,"ĠOper":4396,"ĠFlorida":4397,"ĠStr":4398,"Ġworked":4399,"Ġcomputer":4400,"Ġenough":4401,"Ben":4402,"ato":4403,"Ġwife":4404,"ĠChina":4405,"arent":4406,"Ġborn":4407,"Ġprior":4408,"anna":4409,"Ġparts":4410,"Ġmodels":4411,"omers":4412,"espite":4413,"Ġconv":4414,"ĠFinal":4415,"exp":4416,"=#":4417,"cons":4418,"ĠBook":4419,"rics":4420,"ĠSong":4421,"guardian":4422,"1007":4423,"Ġpref":4424,"axim":4425,"ĠFore":4426,"Ġvia":4427,"OC":4428,"ĠPeter":4429,"roid":4430,"iat":4431,"Ġreplaced":4432,"mselves":4433,"ĠIll":4434,"So":4435,"Ġcomplete":4436,"pha":4437,"ĠInformation":4438,"cat":4439,"phy":4440,"ĠDon":4441,"reflist":4442,"My":4443,"indows":4444,"Ġadapt":4445,"Webarchive":4446,"1980":4447,"Ġroute":4448,"Bar":4449,"Ġinvestig":4450,"star":4451,"ĠTour":4452,"Ġparticularly":4453,"mathbf":4454,"Ġcommunity":4455,"Ġoriginally":4456,"Ġopened":4457,"irm":4458,"lied":4459,"?|":4460,"DA":4461,"size":4462,"Ġcategory":4463,"ĠLibrary":4464,"charts":4465,"rice":4466,"ĠAfrica":4467,"set":4468,"'''''":4469,"Ġ1992":4470,"ĠStar":4471,"unic":4472,"cher":4473,"polit":4474,"ĠGames":4475,"Ġspeed":4476,"Ġindividuals":4477,"itage":4478,"Ġespecially":4479,"Ġthemselves":4480,"Ġexperiment":4481,"Ġbreak":4482,"Ġphysical":4483,"Ġinternational":4484,"tx":4485,"Ġgive":4486,"Ġbase":4487,"Ġcrew":4488,"Ġepisodes":4489,"amin":4490,"force":4491,"iece":4492,"Ge":4493,"onom":4494,"Ġgrad":4495,"Ġdirector":4496,"Ġcome":4497,"Mary":4498,"irds":4499,"Ġopt":4500,"regon":4501,"Ġsuper":4502,"acc":4503,"ĠDaily":4504,"ĠMcC":4505,"abeth":4506,"Ġalready":4507,"Ġscene":4508,"Hel":4509,"Ġsoon":4510,"ST":4511,"Ġlay":4512,"Ġasked":4513,"Ġbackground":4514,"ecial":4515,"Ġunit":4516,"bed":4517,"kin":4518,"een":4519,"ĠMagazine":4520,"Ġdemon":4521,"ĠÐ":4522,"ĠBer":4523,"Ġ1970":4524,"Ġcreate":4525,"idents":4526,"Ġsimple":4527,"Ġimmediate":4528,"lat":4529,"fe":4530,"Ġlocated":4531,"ients":4532,"covery":4533,"Red":4534,"Ġamount":4535,"Star":4536,"Final":4537,"osph":4538,"aters":4539,"Ġben":4540,"bar":4541,"Ġsense":4542,"AAF":4543,"ificial":4544,"Ġborder":4545,"ĠMore":4546,"short":4547,"hav":4548,"Japan":4549,"Frank":4550,"PC":4551,"anes":4552,"Ġheavy":4553,"elebr":4554,"plete":4555,"ĠEgypt":4556,"Ġstatus":4557,"Ġstreng":4558,"hic":4559,"250":4560,"alion":4561,"Ġplaying":4562,"ĠEarth":4563,"Ġsurface":4564,"Ġpractice":4565,"alter":4566,"item":4567,"lav":4568,"Ġextra":4569,"Ġinterpret":4570,"Che":4571,"Ġsm":4572,"ighest":4573,"ULTS":4574,"media":4575,"uous":4576,"OT":4577,"ĠOver":4578,"sing":4579,"ĠFantasy":4580,"Ġwr":4581,"gl":4582,"Ġgoal":4583,"ternative":4584,"itor":4585,"Ġdefin":4586,"begin":4587,"Ġmodified":4588,"emy":4589,"Ġblock":4590,"water":4591,"Ġlarger":4592,"town":4593,"uten":4594,"Min":4595,"Tom":4596,"encyclopedia":4597,"aug":4598,"actions":4599,"Ġtaking":4600,"reme":4601,"och":4602,"aga":4603,"Ġdraw":4604,"ĠCongress":4605,"Ġlanguages":4606,"Ġir":4607,"Ġlines":4608,"ignal":4609,"Russ":4610,"Ġintroduced":4611,"Ġcivil":4612,"Ġpotential":4613,"exico":4614,"utt":4615,"ĠUp":4616,"Ġste":4617,"phys":4618,"get":4619,"room":4620,"annel":4621,"image":4622,"9780":4623,"uts":4624,"Ð°":4625,"Ġnumbers":4626,";...":4627,">,":4628,"noaa":4629,"Ġreading":4630,"ĠTrans":4631,"sex":4632,"ĠStudies":4633,"eta":4634,"owers":4635,"ĠCambridge":4636,"display":4637,"Talk":4638,"eman":4639,"udd":4640,"ĠHot":4641,"Ġactivity":4642,"ritic":4643,"1981":4644,"*[":4645,"DEFA":4646,"Ġdesp":4647,"archives":4648,"eller":4649,"ĠAre":4650,"Ġbooks":4651,"stitution":4652,"Ġlimited":4653,"ULTSORT":4654,"real":4655,"ĠAcademy":4656,"Ġconditions":4657,"DEFAULTSORT":4658,"illy":4659,"hematics":4660,"otland":4661,"Ġscore":4662,"Ġvictory":4663,"Ġtax":4664,"ĠLin":4665,"113":4666,"Ġpsych":4667,"AM":4668,"Ġalg":4669,"Her":4670,"Ġflo":4671,"harv":4672,"struction":4673,"scious":4674,"}</":4675,"ĠCr":4676,"histor":4677,"Ġdistribution":4678,"Ġface":4679,"Ġtrue":4680,"ĠConference":4681,"Ġoccup":4682,"SS":4683,"ola":4684,"note":4685,"Ġgl":4686,"asketball":4687,"Ġcred":4688,"sky":4689,"Ġincrease":4690,"Mor":4691,"intendo":4692,"odd":4693,"CD":4694,"ests":4695,"usc":4696,"ĠMo":4697,"119":4698,"anger":4699,"azette":4700,"utions":4701,"clus":4702,"ĠCommission":4703,"Ġimpact":4704,"War":4705,"adj":4706,"ĠBattle":4707,"{{'}}":4708,"awards":4709,"scope":4710,"anded":4711,"ĠMal":4712,"Ġdone":4713,"stream":4714,"ewis":4715,"Ġscored":4716,"ollowing":4717,"Cy":4718,"Ġcricket":4719,"}};":4720,"oto":4721,"Ġestablish":4722,"asion":4723,"ancy":4724,"none":4725,"wikitable":4726,"|'''":4727,"uclear":4728,"Ġmoney":4729,"iew":4730,"Ġpark":4731,"ĠWood":4732,"Air":4733,"Cent":4734,"mercial":4735,"Ġexternal":4736,"Mad":4737,"eld":4738,"ministration":4739,"Ġnomin":4740,"ĠEduc":4741,"inem":4742,"rovers":4743,"Ġpassed":4744,"Ġhit":4745,"orning":4746,"Ġmultiple":4747,"Ġvisual":4748,"Ġordered":4749,"ĠFound":4750,"yal":4751,"athan":4752,"Ġjoined":4753,"Ġstop":4754,"San":4755,"Ġhyp":4756,"Bo":4757,"ĠSee":4758,"spond":4759,"sm":4760,"Ġslow":4761,"script":4762,"|<":4763,"Stephen":4764,"Ang":4765,"uthority":4766,"inner":4767,"General":4768,"Ġchall":4769,"Ġincludes":4770,"anta":4771,"iring":4772,"izabeth":4773,"worth":4774,"Ġincreasing":4775,"efore":4776,"Ġprevent":4777,"AAJ":4778,"ĠPet":4779,"Ġtropical":4780,"arrow":4781,"ĠWilliams":4782,"Ġcompan":4783,"ĠMur":4784,"rid":4785,"Ġapprox":4786,"Ġdeal":4787,"]]\",":4788,"Ġwoman":4789,"Ġtold":4790,"Ġoperations":4791,"big":4792,"]]''.<":4793,"ĠWeb":4794,"Ġcontent":4795,"Ġsouthern":4796,"Ġmoment":4797,"Ġsem":4798,"Ġlonger":4799,"flagicon":4800,"Ġ1991":4801,"ĠEngine":4802,"Ġinitially":4803,"miss":4804,"Ġcontext":4805,"earing":4806,"ĠMartin":4807,"ĠGl":4808,"ĠMost":4809,"disc":4810,"rupt":4811,"Ġisland":4812,"Ġinterview":4813,"lections":4814,"1982":4815,"123":4816,"ĠSecond":4817,"black":4818,"green":4819,"ologist":4820,"1111":4821,"Ġconflict":4822,"ĠPennsylvania":4823,"ĠFrank":4824,"anda":4825,"nes":4826,"Ġshot":4827,"newspapers":4828,"Med":4829,"Ġfoot":4830,"poration":4831,"struct":4832,"rain":4833,"rait":4834,"Ġnewspaper":4835,"Rock":4836,"andid":4837,"iest":4838,"Ġnames":4839,"Ġforms":4840,"ĠOf":4841,"Ġpattern":4842,"]</":4843,"Ġeducation":4844,"wick":4845,"olis":4846,"atholic":4847,"ebra":4848,"ĠOut":4849,"ervation":4850,"Ġdisp":4851,"uted":4852,"Ġdeep":4853,"ĠNot":4854,"Ġsurround":4855,"osen":4856,"Good":4857,"Ġ(\"":4858,"mission":4859,"ĠGuardian":4860,"Ġstaff":4861,"pool":4862,"Ġimprove":4863,"Washington":4864,"ĠEdward":4865,"WE":4866,"anford":4867,"ĠÂ£":4868,"}\\":4869,"orman":4870,"oration":4871,"Ac":4872,"rie":4873,"Ġdepict":4874,"Ġpoor":4875,">}}":4876,"Ġwanted":4877,"term":4878,"Ġyour":4879,"iant":4880,"years":4881,"Ġcompon":4882,"Ġclear":4883,"cn":4884,"140":4885,"itting":4886,"Ġbelief":4887,"Ġalways":4888,"aud":4889,"Ġi":4890,"unn":4891,"Ġrate":4892,"Ð¾":4893,"115":4894,"div":4895,"soft":4896,"Ġens":4897,"Ġ60":4898,"see":4899,"Ġweeks":4900,"One":4901,"fa":4902,"week":4903,"Ġcit":4904,"Ġdiss":4905,"lee":4906,"ega":4907,"wide":4908,"isation":4909,"Ġcause":4910,"ĠDec":4911,"chart":4912,"ession":4913,"Ġdiv":4914,"ĠOpen":4915,"cb":4916,"iversal":4917,"Ġeth":4918,"Sam":4919,"Ġrat":4920,"yan":4921,"ĠIts":4922,"report":4923,"ĠTexas":4924,"ensus":4925,"how":4926,"Ġerr":4927,"nl":4928,"ordin":4929,"Ġwhom":4930,"after":4931,"lab":4932,"122":4933,"sl":4934,"Ġbeginning":4935,"Ġrequire":4936,"Ġlove":4937,"Ġcommunication":4938,"AL":4939,"1984":4940,"Ġpresented":4941,"ruce":4942,"117":4943,"Ġcamp":4944,"Ġmakes":4945,"single":4946,"ĠUnder":4947,"reland":4948,"Ġcases":4949,"Ġmess":4950,"uan":4951,"Ġess":4952,"hl":4953,"ĠWomen":4954,"Ġdocument":4955,"ĠBul":4956,"etts":4957,"Ġservices":4958,"Ġpreviously":4959,"allery":4960,"rn":4961,"Ġgold":4962,"Ġlevels":4963,"Ġcolspan":4964,"Ġcountries":4965,"Ġsymbol":4966,"Ġplatform":4967,"Edward":4968,"CO":4969,"Ġmind":4970,"Ã¨":4971,"Ġstim":4972,"ulations":4973,"sey":4974,"Ġsus":4975,"Pat":4976,"118":4977,"ĠTom":4978,"Ġchurch":4979,"ima":4980,"Ġfood":4981,"ĠJust":4982,"Ġofficer":4983,"Martin":4984,"mil":4985,"ora":4986,"FL":4987,"III":4988,"ariety":4989,"Ġtypes":4990,"Ġbur":4991,"otional":4992,"bin":4993,"aming":4994,"pmc":4995,"ifth":4996,"Ġcompared":4997,"host":4998,"rael":4999,"ĠDevelopment":5000,"Ġsupported":5001,"Ġended":5002,"ĠTech":5003,"mas":5004,"mile":5005,"Roman":5006,"Ġforced":5007,"map":5008,"ademic":5009,"ĠSea":5010,"There":5011,"Ġquant":5012,"Ġattract":5013,"iance":5014,"awa":5015,"ennis":5016,"ĠHistorical":5017,"mit":5018,"Ġ</":5019,"Ġant":5020,"mouth":5021,"features":5022,"stm":5023,"ĠAge":5024,"Ġhours":5025,"Ġcust":5026,"ĠDirect":5027,"Ġhere":5028,"124":5029,"ĠHuman":5030,"team":5031,"ĠCommittee":5032,"Australia":5033,"rese":5034,"ĠVolume":5035,"Ġemerg":5036,"Ġturned":5037,"ĠHighway":5038,"----":5039,"Ġtit":5040,"Ġremains":5041,"billboard":5042,"Ġbgcolor":5043,"oge":5044,"ening":5045,"Ġminutes":5046,"Ġobjects":5047,"eorgia":5048,"that":5049,"ections":5050,"Ġnote":5051,"ottom":5052,"offic":5053,"lit":5054,"Ġsearch":5055,"ĠAtlantic":5056,"power":5057,"Ġ:":5058,"Ġcapital":5059,"Ġball":5060,"inners":5061,"Ġ1960":5062,"MI":5063,"Ġtry":5064,"ĠLong":5065,"Ġfourth":5066,"aft":5067,"ĠSpr":5068,"French":5069,"sim":5070,"quest":5071,".\"{{":5072,"ĠProject":5073,"hard":5074,"Ġ...":5075,"Ġshowing":5076,"iverse":5077,"point":5078,"Ġpath":5079,"mitted":5080,"Ð¸":5081,"ano":5082,"114":5083,"1983":5084,"Ġintended":5085,"ĠMen":5086,"Ġdefined":5087,"Ġclaimed":5088,"rft":5089,"ĠField":5090,"illed":5091,"number":5092,"illing":5093,"Ġopening":5094,"gs":5095,"Ġ!!":5096,"Ġexpl":5097,"Ġnegative":5098,"ho":5099,"position":5100,"inet":5101,"(\\":5102,"ĠVan":5103,"Ġequip":5104,",\\":5105,"ately":5106,"Ġsays":5107,"Ġ/>{{":5108,"adelph":5109,"Ġsociety":5110,"ĠCivil":5111,"ĠBu":5112,"Ġcourse":5113,"Ġnorthern":5114,"espn":5115,"Europe":5116,"Ġcle":5117,"Ġcommission":5118,"Ġsomething":5119,"To":5120,"Ġver":5121,"Ġmethods":5122,"Ġbridge":5123,"Ġappearance":5124,"Ġdaught":5125,"ĠCare":5126,"rize":5127,"116":5128,"movies":5129,"ĠCorps":5130,"Ġquickly":5131,"olumbia":5132,"ĠSer":5133,"Ġearn":5134,"Ġcur":5135,"Ġfleet":5136,"Dr":5137,"Ġorganization":5138,"Ġgoing":5139,"Ġdespite":5140,"ni":5141,"fort":5142,"Los":5143,"Ġinitial":5144,"Ġfailed":5145,"Ġflag":5146,"125":5147,"^{":5148,"ĠSam":5149,"Can":5150,"ĠSal":5151,"ĠStat":5152,"Ġcontem":5153,"theguardian":5154,"Ġrights":5155,"eline":5156,"va":5157,"High":5158,"imin":5159,"ria":5160,"phil":5161,"Ġrap":5162,"ographic":5163,"iments":5164,"Ġarrang":5165,"Ġreferred":5166,"Ġprobably":5167,"Ġmachine":5168,"pot":5169,"uglas":5170,"gate":5171,"]]-":5172,"andom":5173,"Art":5174,"Ġspent":5175,"400":5176,"library":5177,"orpor":5178,"PR":5179,"Ġbattleship":5180,"ĠRevolution":5181,"arc":5182,"docs":5183,"pton":5184,"Ġ1950":5185,"Mal":5186,"enty":5187,"ician":5188,"hat":5189,"Ġdark":5190,"ĠLove":5191,"Ġbound":5192,"Ġlatter":5193,"ĠLand":5194,"Ġprint":5195,"iques":5196,"Rel":5197,"Ġletter":5198,"ĠSk":5199,"Ġfeatured":5200,"ummary":5201,"ropped":5202,"ewish":5203,"AD":5204,"ping":5205,"ĠBC":5206,"Ann":5207,"best":5208,"ares":5209,"Van":5210,"Ġbow":5211,"Ġnone":5212,"Ġonline":5213,"overs":5214,"Ġmer":5215,"hematical":5216,"burgh":5217,"ynast":5218,"Ġmar":5219,"adelphia":5220,"Ġtable":5221,"Ġmag":5222,"ceedings":5223,"Ġ1989":5224,"Ġprec":5225,"thes":5226,"iot":5227,"venue":5228,"Ġprocessing":5229,"ĠAfrican":5230,"Ġnumer":5231,"mes":5232,"ĠKentucky":5233,"Ġstep":5234,"cricket":5235,"ĠBur":5236,"Ġdirectly":5237,"Ġcannot":5238,"Tim":5239,"Ġstudio":5240,"car":5241,"orph":5242,"Ġspeech":5243,"kes":5244,"emp":5245,"Ġautom":5246,"razil":5247,"oronto":5248,"ĠPop":5249,"/~":5250,"peror":5251,"atis":5252,"Ġexc":5253,"ĠHealth":5254,"ĠBrad":5255,"storm":5256,"reference":5257,"long":5258,"Ġwhole":5259,"ache":5260,"Ġpredict":5261,"ĠCricket":5262,"ading":5263,"teen":5264,"iled":5265,"Ġtarget":5266,"ĠHaw":5267,"Ġ.":5268,"Ġlargest":5269,"sfnRef":5270,"ĠĠĠĠĠĠĠĠĠĠĠĠĠĠĠĠ":5271,"ĠSound":5272,"sid":5273,"Ġremoved":5274,"ĠOnline":5275,"living":5276,"uries":5277,"Ġadopt":5278,"iar":5279,"ĠJones":5280,"run":5281,"ĠDel":5282,"ongo":5283,"ilding":5284,"Ġconclud":5285,"Ġthings":5286,"eated":5287,"research":5288,"anga":5289,"pose":5290,"izations":5291,"iec":5292,"Ġappears":5293,"Low":5294,"Ġhighest":5295,"registration":5296,"Ġliving":5297,"test":5298,"Ġ1988":5299,"Ġcell":5300,"ancial":5301,"Ġdiscovered":5302,"evin":5303,"Ġpolice":5304,"ĠMont":5305,"20180":5306,"zer":5307,"Ġwinds":5308,"miral":5309,"Ag":5310,"ker":5311,"afety":5312,"Ġdom":5313,"Ġterrit":5314,"Ġquestions":5315,"Ġcondition":5316,"dl":5317,"ĠEncyclopedia":5318,"ĠExper":5319,"ĠPre":5320,"raham":5321,"ologies":5322,"Ġlabel":5323,"101":5324,"ĠLouis":5325,".}}":5326,"Ġcritical":5327,"Ġproducer":5328,"ova":5329,"Ġsoldiers":5330,"elect":5331,"Ġaspect":5332,"nam":5333,"Ġdmy":5334,"Ġcarried":5335,"Ġoverall":5336,"ifying":5337,"Ġsaying":5338,"Ġprivate":5339,"Ġdirection":5340,"Ġ1986":5341,"People":5342,"Ġframe":5343,"Ġbrief":5344,"1080":5345,"Ġofficers":5346,"Ġtraditional":5347,"Ġsail":5348,"ieuten":5349,"subscription":5350,"ĠExternal":5351,"reedom":5352,"ector":5353,"ilot":5354,"lyn":5355,"203":5356,"ĠSte":5357,"Ġroom":5358,"Ġradio":5359,"QBAJ":5360,"ĠCanadian":5361,"Ġ1940":5362,"Ġreference":5363,"iano":5364,"Ġarrived":5365,"icine":5366,"computer":5367,"program":5368,"mem":5369,"Ġpressure":5370,"rical":5371,"icture":5372,"asa":5373,"|\"":5374,"webarchive":5375,"Ġcognitive":5376,"Ġremaining":5377,"ĠDesign":5378,"Ġmention":5379,"Ġpeak":5380,"rat":5381,"wan":5382,"]]&":5383,"Ġyet":5384,"Ġdefeat":5385,"ĠTer":5386,"ymp":5387,"iner":5388,"Ġ\"[":5389,"ansion":5390,"Ġsmaller":5391,"ĠCentral":5392,"uters":5393,"inois":5394,"ĠBoy":5395,"ĠTro":5396,"Ġchapter":5397,"ste":5398,"watch":5399,"Cap":5400,"ĠLine":5401,"Ġdemonstr":5402,"ĠPhys":5403,"Ġchanged":5404,"Ġ1942":5405,"cap":5406,"ĠNHL":5407,"Ġfellow":5408,"Ġdoll":5409,"igade":5410,"Ġreligious":5411,"hand":5412,"Ġmale":5413,"CA":5414,"etting":5415,"Ġbenef":5416,"Ġcru":5417,"Ġgreater":5418,"Ġweap":5419,"Ġtakes":5420,"ĠGreek":5421,"sportation":5422,"ĠSystems":5423,"ĠNaval":5424,"arden":5425,"ga":5426,"RL":5427,"lines":5428,"ĠChinese":5429,"Ġwide":5430,"ĠJersey":5431,"Dis":5432,"Ġer":5433,"found":5434,"ieval":5435,"Spr":5436,"andy":5437,"âĢĿ":5438,"ustrated":5439,"='":5440,"ĠDemocr":5441,"Ġcanc":5442,"ensity":5443,"Ġbrother":5444,"inus":5445,"Top":5446,"accessdate":5447,"ĠBro":5448,"Reg":5449,"rowhead":5450,"ĠTeam":5451,"Ġfemale":5452,"Ġ1987":5453,"aver":5454,"here":5455,"Ġmarket":5456,"Ġrowspan":5457,"Ġwood":5458,"indu":5459,"Äģ":5460,"Ġcritics":5461,"this":5462,"iah":5463,"ospital":5464,"oma":5465,");":5466,"Ġorigin":5467,"isms":5468,"Ġmatter":5469,"Ġsea":5470,"ĠPolit":5471,"Ġtherefore":5472,"ĠWill":5473,"Ġminor":5474,"othes":5475,"Ġ1944":5476,"ĠStorm":5477,"just":5478,"reder":5479,"Ġwind":5480,"Ġang":5481,"ydney":5482,"mag":5483,"leton":5484,"ĠVer":5485,"160":5486,"Ġleader":5487,"cfm":5488,"Ġmusical":5489,"Ġinstruct":5490,"rev":5491,"Wik":5492,"ieutenant":5493,"loss":5494,"Form":5495,"Ġcoup":5496,"Ġindustry":5497,"Ġign":5498,"ban":5499,"Ġcompar":5500,"ĠCarolina":5501,"ĠPsych":5502,"Ġrespective":5503,"Ġcorrespond":5504,"128":5505,"ĠJr":5506,"ĠSub":5507,"Ġagreed":5508,"Ġforward":5509,"Ġfeature":5510,"Ġappointed":5511,"Ġartist":5512,"Ġequation":5513,"Ġprimary":5514,".}}</":5515,"ĠTri":5516,"Ġgoals":5517,"ĠStand":5518,"bound":5519,"full":5520,"lett":5521,"Ġrecords":5522,"ĠMemorial":5523,"ĠAlbums":5524,"Ġstories":5525,"Ġimplement":5526,"ĠBridge":5527,"cv":5528,"ously":5529,"Ġactive":5530,"etro":5531,"Ġcontrast":5532,"IV":5533,"undred":5534,"riz":5535,"JPG":5536,"ĠAb":5537,"ĠGre":5538,"lore":5539,"ME":5540,"ishing":5541,"Ġscreen":5542,"achus":5543,"Ġpercent":5544,"ognition":5545,"MA":5546,"ĠSummer":5547,"ĠTheir":5548,"Artic":5549,"ims":5550,"Ġtransform":5551,"ĠLake":5552,"iform":5553,"ĠKore":5554,"digital":5555,"ume":5556,"Brown":5557,"retary":5558,"ĠRegiment":5559,"wich":5560,"Ġsigned":5561,"olid":5562,"rance":5563,"ged":5564,"Ġestimated":5565,"Ġrepe":5566,"Ġcollection":5567,"Ġconducted":5568,"Ġrain":5569,"inch":5570,"Ab":5571,"nz":5572,"Ġjob":5573,"205":5574,"direct":5575,"anley":5576,"ĠGovernment":5577,"ao":5578,"ĠCorporation":5579,"yg":5580,"Ġcounter":5581,"enge":5582,"Ġactions":5583,"Ġcarry":5584,"person":5585,"roduction":5586,"Ġavoid":5587,"Ġfamil":5588,"riving":5589,"ĠOld":5590,"ĠTheory":5591,"Ġboard":5592,"joy":5593,"ĠInfantry":5594,"rep":5595,"Notes":5596,"What":5597,"Ġprofessional":5598,"Res":5599,"ĠTaylor":5600,"1979":5601,"/>{{":5602,"print":5603,"=}}":5604,"asure":5605,"ĠHo":5606,"Ġqual":5607,"ĠMany":5608,"ĠHel":5609,"Ġhous":5610,"opher":5611,"td":5612,"prise":5613,"ĠSciences":5614,"ributions":5615,"ibly":5616,"una":5617,"unched":5618,"aby":5619,"rolling":5620,"rave":5621,"ava":5622,"Ġrecording":5623,"Ġly":5624,"}})":5625,"etter":5626,"record":5627,"Christian":5628,"wer":5629,"White":5630,"hab":5631,"elly":5632,"ĠEntertainment":5633,"mph":5634,"Ðµ":5635,"Ġflight":5636,"Ġ1945":5637,"Ġrule":5638,"Ġmount":5639,"ĠDi":5640,"business":5641,"nold":5642,"lan":5643,"Chris":5644,"ĠRecord":5645,"ĠRussian":5646,"Ġproduce":5647,"\"<":5648,"uty":5649,"iritual":5650,"ĠVictoria":5651,"FC":5652,"ĠSimpsons":5653,"Ġtemper":5654,"Ġsignal":5655,"Ġfiction":5656,"Western":5657,"Tropical":5658,"Ġinstr":5659,"har":5660,"azon":5661,"Ġsort":5662,"129":5663,"Ġgraph":5664,"Ġnine":5665,"Aut":5666,"ĠTechnology":5667,"Ġobserved":5668,"Ġcalc":5669,"Ġsexual":5670,"Ġprocesses":5671,"Ġarchitecture":5672,"may":5673,"ĠItal":5674,"Ġdomin":5675,"stro":5676,"henomen":5677,"Ġvon":5678,"Pal":5679,"iated":5680,"ĠDespite":5681,"ĠGal":5682,"Ġrunning":5683,"pass":5684,"Ġbuildings":5685,"Ġdirected":5686,"AAAAI":5687,"Arthur":5688,"Daniel":5689,"Ġdistinct":5690,"Best":5691,"nt":5692,"Ġexpected":5693,"Jon":5694,"Ġcode":5695,"flation":5696,"HMS":5697,"Ġpurch":5698,"sound":5699,"akers":5700,"209":5701,"Added":5702,"pisode":5703,"Ġbal":5704,"Ġaccur":5705,"rs":5706,"190":5707,"Ġ1941":5708,"mode":5709,"Ġvehic":5710,"ulus":5711,"Ġ180":5712,"ricinfo":5713,"esus":5714,"ĠMilitary":5715,"utation":5716,"Ġdise":5717,"ĠMiss":5718,"ĠPan":5719,"ĠBusiness":5720,"Ġteams":5721,"zy":5722,"rama":5723,"BM":5724,"Second":5725,"Ġhop":5726,"Ġsing":5727,"Ġpaper":5728,"Ġprincip":5729,"Ġsituation":5730,"Rol":5731,"ĠMaryland":5732,"}}|":5733,"fect":5734,"''{{'}}":5735,"Ġshowed":5736,"Ġther":5737,"icrosoft":5738,"di":5739,"Ġupper":5740,"posed":5741,"good":5742,"osaurus":5743,"Ġmatches":5744,"ĠCreek":5745,"achusetts":5746,"ko":5747,"Ġhighway":5748,"Ġbehavi":5749,"Ġimm":5750,"orith":5751,"earning":5752,"180":5753,"ĠNeur":5754,"ĠCamp":5755,"ĠWilson":5756,"Mel":5757,"Ġ35":5758,"Ġmeet":5759,"ĠVideo":5760,"Ġnecessary":5761,"ĠPers":5762,"Ġexhib":5763,"product":5764,"204":5765,"207":5766,"sec":5767,"Ġmis":5768,"istical":5769,"acity":5770,"Ġcelebr":5771,"hilosoph":5772,"ED":5773,"Ġanimals":5774,"arters":5775,"''',":5776,"Ġcyclone":5777,"Canadian":5778,"abase":5779,"ĠProgram":5780,"Ġaddress":5781,"Ġanti":5782,"Sal":5783,"ĠAnal":5784,"Ġleaving":5785,"Ġdivision":5786,"inking":5787,"Jones":5788,"Ġexpla":5789,"ribute":5790,"phas":5791,"Ġcontains":5792,"network":5793,"oir":5794,"ĠFour":5795,"Ġriver":5796,"Ġrecon":5797,"db":5798,"Ġtreatment":5799,"From":5800,"Ġbring":5801,"Ġquality":5802,"Ġoperation":5803,"Ġhelped":5804,"orter":5805,"uls":5806,"bourne":5807,"Ġlegal":5808,"Ġmiddle":5809,"Ġdefeated":5810,"rolled":5811,"127":5812,"ĠWars":5813,"Ġprison":5814,"acement":5815,"ĠTem":5816,"olumn":5817,"odies":5818,"Ġ1914":5819,"\">[[":5820,"bes":5821,"Ġcompanies":5822,"atur":5823,"axon":5824,"wen":5825,"Mod":5826,"know":5827,"Ġ70":5828,"ompson":5829,"eur":5830,"sur":5831,"ĠHam":5832,"ordon":5833,"mult":5834,"ĠFl":5835,"rove":5836,"ĠRem":5837,"RA":5838,"mill":5839,"Ġvalues":5840,"iverpool":5841,"equ":5842,"Ġcandid":5843,"ĠStory":5844,"Ġscript":5845,"2023":5846,"iger":5847,"Ġrecomm":5848,"jsp":5849,"vin":5850,"hio":5851,"ustrial":5852,"Scott":5853,"135":5854,"bon":5855,"ulate":5856,"Hurricane":5857,"velo":5858,"Ġep":5859,"Ġ80":5860,"ects":5861,"listas":5862,"blogs":5863,"Leg":5864,"ĠOregon":5865,"Ġcoin":5866,"ying":5867,"throp":5868,"GB":5869,"pub":5870,"reation":5871,"Ġdistance":5872,"Ġtheore":5873,"Ġsl":5874,"Ġevolution":5875,"Ġ1985":5876,"ĠDistrict":5877,"Ġhighly":5878,"Ġnearly":5879,"Ġrul":5880,"Ġindependent":5881,"Ġcaptured":5882,"Ġmission":5883,"Ġfunctions":5884,"Ro":5885,"Ġpen":5886,">.":5887,"Ġparam":5888,"Ġmur":5889,"ĠEarly":5890,"215":5891,"gn":5892,"Ġwithd":5893,"Ġsuggests":5894,"Class":5895,"208":5896,"Ġbasis":5897,"Ġdetail":5898,"Ġcommander":5899,"ĠBig":5900,"ĠIreland":5901,"player":5902,"415":5903,"ecause":5904,"Ġlogic":5905,"ĠMil":5906,"1978":5907,"Ġhumans":5908,"ali":5909,"Oper":5910,"Ġbecoming":5911,"146":5912,"Ġrequest":5913,"Ġtypically":5914,"Ġmeeting":5915,"anim":5916,"Ġ32":5917,"Ġseparate":5918,"capt":5919,"Ġbroadcast":5920,"ĠAI":5921,"ĠTim":5922,"ET":5923,"vauthors":5924,"Joseph":5925,"Andrew":5926,"Ġliterature":5927,"Ġfactors":5928,"fare":5929,"Ġplans":5930,"Ġrespond":5931,"Ġtend":5932,"Ġbroad":5933,"izes":5934,"Ġult":5935,"where":5936,"Ġcommercial":5937,"Ġcollect":5938,"ĪĴ":5939,"ĠMexico":5940,"Ġ1939":5941,"ĠPower":5942,"Ġbre":5943,"Def":5944,"126":5945,"itness":5946,"Ġjudg":5947,"Ġideas":5948,"Ġwestern":5949,"ĠEducation":5950,"111":5951,"Ġdestroyed":5952,"Ġstars":5953,"MC":5954,"ĠManchester":5955,"Ġplant":5956,"Ġmanager":5957,"Ġrisk":5958,"Ġtrave":5959,"Ġcolon":5960,"Ġoperating":5961,"Ġtradition":5962,"acts":5963,"Ġflood":5964,"ĠOrgan":5965,"dd":5966,"bat":5967,"inf":5968,"ĠWik":5969,"ĠData":5970,"Ġprogramming":5971,"Ġimag":5972,"Ġcontrovers":5973,"ynasty":5974,"ĠEnd":5975,"ĠCrit":5976,"Ġvariety":5977,"Bill":5978,"hot":5979,"mad":5980,"rele":5981,"Ġhypothes":5982,"born":5983,"aped":5984,".)":5985,"Ġsal":5986,"ĠParis":5987,"]]]]":5988,"Ġimmediately":5989,"inity":5990,"Ġpolicy":5991,"ĠHerald":5992,"Ġfigure":5993,"elled":5994,"Ġfavor":5995,"ĠâĢľ":5996,"imer":5997,"Ġawarded":5998,"Ġeas":5999,"value":6000,"related":6001,"Ġargued":6002,">(":6003,"newsbank":6004,"Ber":6005,"Ġplanned":6006,"Ġdaughter":6007,"Ġproperty":6008,"Ġdigital":6009,"acob":6010,"white":6011,"burn":6012,"Ġmaintain":6013,"Donald":6014,"Dec":6015,"ĠToday":6016,">[[#":6017,"emon":6018,"Ġactivities":6019,"Wood":6020,"ci":6021,"ĠCle":6022,"Ġidentified":6023,"Ġassess":6024,"ĠYoung":6025,"ĠMarsh":6026,"ĠHome":6027,"ĠHon":6028,"Ġexam":6029,"Ġkind":6030,"Ġoffered":6031,"ĠScotland":6032,"Ġwant":6033,"Ġextended":6034,"Ġguitar":6035,"Ġeastern":6036,"fred":6037,"irk":6038,"otal":6039,"Ġlegisl":6040,"ĠSoviet":6041,"ĠAnother":6042,"ads":6043,"otor":6044,"ĠValley":6045,"Ġeffort":6046,"Video":6047,"Taylor":6048,"home":6049,"145":6050,"206":6051,"ceived":6052,"ogether":6053,"Bur":6054,"Ġprogress":6055,"ĠDictionary":6056,"reck":6057,"refn":6058,"ĠSir":6059,"Ġvan":6060,"isa":6061,"awn":6062,"PL":6063,"Ġdivid":6064,"ĠSpanish":6065,"ĠReferences":6066,"Ġstrength":6067,"eton":6068,"Ġraised":6069,"Ġmajority":6070,"Ken":6071,"vement":6072,"ji":6073,"items":6074,"Ġbad":6075,"Ġengineering":6076,"Ġdepart":6077,"Ġmarried":6078,"Cr":6079,"Early":6080,"inent":6081,"ĠMel":6082,"ĠSeason":6083,"arp":6084,"ader":6085,"Open":6086,"Ġinform":6087,"plate":6088,"orig":6089,"Ġ1930":6090,"clusion":6091,"amilton":6092,"Rev":6093,"ĠConf":6094,"Ġmaxim":6095,"OL":6096,"Ġexpress":6097,"ĠTw":6098,"Ġentered":6099,"lah":6100,"nor":6101,"ĠGood":6102,"ĠĠĠĠĠĠĠĠĠĠĠĠĠĠ":6103,"Ġaccepted":6104,"Jeff":6105,"cert":6106,"Ġ90":6107,"Mo":6108,"Ġwriters":6109,"ĠItaly":6110,"level":6111,"147":6112,"Ġice":6113,"1975":6114,"ĠBas":6115,"1974":6116,"ĠChild":6117,"Science":6118,"ĠFa":6119,"Ġissued":6120,"look":6121,"=|":6122,"Ġ/>[[":6123,"Ġshoot":6124,"she":6125,"Ġactually":6126,"1976":6127,"Ġreduced":6128,"ĠWrit":6129,"ĠMer":6130,"170":6131,"cor":6132,"interview":6133,"yard":6134,"eler":6135,"Ġgirl":6136,"European":6137,"Pop":6138,"Histor":6139,"ĠLos":6140,"Ġstructures":6141,"abs":6142,"rease":6143,"Sir":6144,"Old":6145,"ĠĠĠĠĠĠĠĠĠĠĠĠĠ":6146,"1970":6147,"Ġsen":6148,"agency":6149,"system":6150,"uses":6151,"cles":6152,"bgcolor":6153,"release":6154,"Ġtrial":6155,"Ġteach":6156,"Ġclosed":6157,"coming":6158,"appen":6159,"Ġreviews":6160,"uration":6161,"Ġcultural":6162,"Ġpresence":6163,"Law":6164,"Ġdecla":6165,"allel":6166,"NB":6167,"ĠBoston":6168,"spe":6169,"143":6170,"Ġscale":6171,"Ġbecomes":6172,"Ġdifferences":6173,"Ġattacks":6174,"Ġleave":6175,"stract":6176,"Ġran":6177,"Ġwidely":6178,"\")":6179,"ĠLo":6180,"ourney":6181,"Ġut":6182,"Ġsum":6183,"Ġlic":6184,"You":6185,"stud":6186,"Gl":6187,"Portal":6188,"uster":6189,"Ġmostly":6190,"ĠCommand":6191,"Ġpeace":6192,"break":6193,"Ġvoice":6194,"cel":6195,"ĠGlo":6196,"arents":6197,"ilbert":6198,"Ġmeant":6199,"chest":6200,"ĠManagement":6201,"Ġnaval":6202,"Ġconference":6203,"Ġtrade":6204,"Ġelement":6205,"Report":6206,"Ġopin":6207,"Ġstay":6208,"ĠEconom":6209,"iler":6210,"}}.<":6211,"rett":6212,"Jul":6213,"Ġapproximately":6214,"Bel":6215,"ĠAut":6216,"139":6217,"Ġcult":6218,"Mur":6219,"hor":6220,"xiv":6221,"ĠJoseph":6222,"Ġhistorian":6223,"Lin":6224,"Ġ1943":6225,"Ġweight":6226,"andon":6227,"ĠPeople":6228,"cos":6229,"anufact":6230,"Ġexpos":6231,"Ġsolid":6232,"ĠTre":6233,"olec":6234,"ĠDisc":6235,"ĠAnt":6236,"PT":6237,"CN":6238,"aret":6239,"ĠElect":6240,"ĠRos":6241,"Ġselected":6242,"itter":6243,"apolis":6244,"Ġexcept":6245,"server":6246,"oger":6247,"ĠClark":6248,"hu":6249,"ione":6250,"Ġ--":6251,"ĠGen":6252,"Jim":6253,"thony":6254,"icks":6255,"USA":6256,"Ġ1917":6257,"asual":6258,"Ġimages":6259,"ĠSenate":6260,"Ġleague":6261,"sig":6262,"Ġheav":6263,"Ġprovides":6264,"human":6265,"lar":6266,"ĠWay":6267,"exit":6268,"gam":6269,"pat":6270,"version":6271,"Ã¡n":6272,"ĠChar":6273,"thew":6274,"ĠSport":6275,"aka":6276,"Ġrecent":6277,"ustin":6278,"Ġshell":6279,"Ġopport":6280,"ĠFoundation":6281,"wp":6282,"ependence":6283,"Ġblue":6284,"yer":6285,"Ġunknown":6286,"''[[":6287,"Ġattempted":6288,"cvt":6289,"Ġpraised":6290,"coln":6291,"Authority":6292,"ĠRom":6293,"Mem":6294,"agan":6295,"Ġ1920":6296,"Ġapplied":6297,"Ġslight":6298,"Ġvs":6299,"illery":6300,"Ġcombat":6301,"Ev":6302,"Ġreject":6303,"CH":6304,"loyd":6305,"ĠOl":6306,"=...":6307,"ĠDev":6308,"Ġcorrect":6309,"ĠArts":6310,"nowiki":6311,"Ġquarter":6312,"During":6313,"oles":6314,"ĠIslands":6315,"Station":6316,"ĠChe":6317,"134":6318,"Ġfriends":6319,"Alexander":6320,"ĠDie":6321,"360":6322,"ĠSing":6323,"Ġunable":6324,"Ġsex":6325,"igation":6326,"mu":6327,"148":6328,"ĠMag":6329,"144":6330,"ieces":6331,"ĠBoth":6332,"Ġsummer":6333,"aded":6334,"137":6335,"tech":6336,"Ġ1918":6337,"\"]":6338,"Ġresources":6339,"iling":6340,"Ġreach":6341,"Ġsuffered":6342,"Ġrapid":6343,"sfnm":6344,"ĠBattalion":6345,"icated":6346,"Ġfort":6347,"ĠChart":6348,"Commons":6349,"gers":6350,"ĠCla":6351,"ĠRussia":6352,"wall":6353,"ĠDen":6354,"Ġtransport":6355,"Ġefforts":6356,"ĠYears":6357,"Ġtravel":6358,"azz":6359,"jct":6360,"State":6361,"orped":6362,"ienced":6363,"li":6364,"sq":6365,"oster":6366,"hon":6367,"Ġvert":6368,"ĠSince":6369,"orner":6370,"Ġlargely":6371,"Ġhockey":6372,"Ġdeliver":6373,"xi":6374,"Ġbelieve":6375,"embly":6376,"Ġtoday":6377,"Greg":6378,"plicit":6379,"Ġresulting":6380,"133":6381,"Ġinstit":6382,"unes":6383,"ĠTy":6384,"Ġcaptain":6385,"everal":6386,"CR":6387,"results":6388,"Ġpositions":6389,"ronicle":6390,"Cor":6391,"unication":6392,"195":6393,"ĠEarl":6394,"acks":6395,"Ġapplications":6396,"ĠPoint":6397,"iamond":6398,"Ġunderstanding":6399,"east":6400,"venture":6401,"then":6402,"ML":6403,"sem":6404,"Ġwound":6405,"Ġways":6406,"ĠOcean":6407,"udge":6408,"Ġallows":6409,"ĠWhat":6410,"uzz":6411,"ements":6412,"lew":6413,"Ġlisted":6414,"amous":6415,"Ġaudience":6416,"Ġdegree":6417,"ichol":6418,"omerset":6419,"reement":6420,"ĠAsia":6421,"mdy":6422,"Ġmoving":6423,"à¦":6424,"Ġemphas":6425,"Ġvoc":6426,"length":6427,"Ġoccurred":6428,"1945":6429,"SR":6430,"ĠPo":6431,"ĠOrder":6432,"yo":6433,"136":6434,"tical":6435,"leep":6436,"ait":6437,"etal":6438,"Ġtrain":6439,"ĠBeat":6440,"155":6441,"Ġlaunched":6442,"Ġrules":6443,"pective":6444,"igen":6445,"ĠWall":6446,"ĠWeekly":6447,"ĠItalian":6448,"enny":6449,"imb":6450,"havior":6451,"fc":6452,"ĠHand":6453,"Ġ1984":6454,"iw":6455,"ĠCatholic":6456,"138":6457,"enger":6458,"Sub":6459,"ĠModern":6460,"Ġserious":6461,"ĠParliament":6462,"ĠDavis":6463,"Äĩ":6464,"ĠCoast":6465,"ĠTur":6466,"craft":6467,"ĠCy":6468,"Ġapplication":6469,"ivan":6470,"culture":6471,"ĠSports":6472,"Ġresponsible":6473,"lt":6474,"sites":6475,"oting":6476,"With":6477,"icient":6478,"Ġprep":6479,"writer":6480,"del":6481,"''|":6482,"Ġhistorical":6483,"Ġwalk":6484,"157":6485,"210":6486,"apore":6487,"153":6488,"bro":6489,"Ġroyal":6490,"Ġitems":6491,"Ġvillage":6492,"Jo":6493,"Ġreally":6494,"Ġuns":6495,"Ġrefer":6496,"1973":6497,"Ġeconomic":6498,"otic":6499,"ĠHockey":6500,"ĠFre":6501,"Ġrecognition":6502,"club":6503,"gent":6504,"Ġpair":6505,"ĠFurther":6506,"istance":6507,"ĠHard":6508,"ĠLee":6509,"mosph":6510,"Ġ1981":6511,"Ġpoem":6512,"Ġrespectively":6513,"Japanese":6514,"wise":6515,"175":6516,"1977":6517,"Ġfell":6518,"20060":6519,"Ġolder":6520,"Ġwhy":6521,"Ġdepend":6522,"ami":6523,"Mike":6524,"elson":6525,"Ġheight":6526,"rank":6527,"2307":6528,"ĠLater":6529,"Ġwor":6530,"olars":6531,"elta":6532,"ĠInternet":6533,"Ġforest":6534,"LC":6535,"Â°":6536,"Ġpiece":6537,"orses":6538,"pers":6539,"Ġrein":6540,"Great":6541,"tran":6542,"ĠCentury":6543,"iversary":6544,"ĠSuper":6545,"Ġreligion":6546,"ĠEll":6547,"ifer":6548,"240":6549,"rm":6550,"Ġwarn":6551,"260":6552,"rell":6553,"Ġnormal":6554,"Ġadvance":6555,"Ġtoward":6556,"Ġcontinue":6557,"fig":6558,"Ġsched":6559,"sum":6560,"uer":6561,"ucks":6562,"Ġsimply":6563,"ira":6564,"Ġconstant":6565,"ĠRailway":6566,"Ġtheories":6567,"ĠIV":6568,"Ġbias":6569,"haps":6570,"Ġadvant":6571,"Ġimpress":6572,"certain":6573,"rum":6574,"anch":6575,"rawn":6576,"Ġcomposed":6577,"ÑĢ":6578,"loads":6579,"rent":6580,"uing":6581,"Ġcoach":6582,"iac":6583,"iable":6584,"ĠStephen":6585,"Ġformation":6586,"Ġnumerous":6587,"Ġdraft":6588,"Ġparticipants":6589,"ĠOlympics":6590,"Ġ500":6591,"Ġgot":6592,"rederick":6593,"omic":6594,"acre":6595,"aste":6596,"Ġformal":6597,"ĠFrancisco":6598,"1971":6599,"nic":6600,"ĠMiddle":6601,"ĠStaff":6602,"who":6603,"Ġdamaged":6604,"149":6605,"Ġscientific":6606,"Ġclaims":6607,"bre":6608,"Ġgiving":6609,"yond":6610,"ipl":6611,"hal":6612,"ĠLight":6613,"ĠQueen":6614,"ĠFestival":6615,"Ġrefused":6616,"ĠEnt":6617,"AAAAIBAJ":6618,"cup":6619,"Ġdu":6620,"riff":6621,"Clark":6622,"Ġrare":6623,"à¤":6624,"McC":6625,"Ġassigned":6626,"Some":6627,"erd":6628,"Ke":6629,"Val":6630,"Ġgrowth":6631,"Ġcollabor":6632,"zen":6633,"Ġsla":6634,"Ġgovern":6635,"Ital":6636,"onym":6637,"gold":6638,"Ġfigures":6639,"ĠNatural":6640,"ancing":6641,"AAQBAJ":6642,"vant":6643,"stead":6644,"fire":6645,"iology":6646,"ĠFleet":6647,"Ġcompetition":6648,"Ġwick":6649,"ĠAndrew":6650,"veloper":6651,"Ho":6652,"ĠLord":6653,"Ġ36":6654,"chi":6655,"istr":6656,"Ġstruck":6657,"ĠSouthern":6658,"Brad":6659,"amber":6660,"apy":6661,"Elect":6662,"Ġgives":6663,"Ġhor":6664,"Ġallowing":6665,"Ġdebut":6666,"baseball":6667,"Ġbeyond":6668,"001":6669,"alpha":6670,"Ġmetal":6671,"Bob":6672,"osis":6673,"ĠBoard":6674,"transl":6675,"Ġshare":6676,"'']]":6677,"ĠAlbert":6678,"Ġpan":6679,"aling":6680,"Ġcho":6681,"Ġrelatively":6682,"Ġstone":6683,"ulpt":6684,"Post":6685,"irmed":6686,"ĠDuke":6687,"ASA":6688,"Ġvirt":6689,"hemical":6690,"ĠList":6691,"ĠAmericans":6692,"stories":6693,"ifest":6694,"iffer":6695,"306":6696,"Ġexpressed":6697,"Computer":6698,"pet":6699,"Ġlived":6700,"unday":6701,"Ġpmc":6702,"ĠGazette":6703,"Ġancient":6704,"Pet":6705,"Ġaccomp":6706,"south":6707,"Ġrevealed":6708,"atters":6709,"PDF":6710,"alker":6711,"Ġuser":6712,"Ġmental":6713,"ĠArm":6714,"225":6715,"Ġscient":6716,"Mont":6717,"dep":6718,"ĠGirl":6719,"Ð½":6720,"ĠDam":6721,"Ġ1983":6722,"ĠLiter":6723,"Ġconsequ":6724,"Ġ38":6725,"ĠStation":6726,"aria":6727,"Ġbreed":6728,"USS":6729,"House":6730,"ĠMajor":6731,"159":6732,"Ġfactor":6733,"__":6734,"Ġcamer":6735,"Super":6736,"ocuments":6737,"ati":6738,"ennedy":6739,"Ġsusp":6740,"]]).":6741,"ĠTribune":6742,"ruit":6743,"Not":6744,"telegraph":6745,"Ġidentity":6746,"Ġsales":6747,"Ġid":6748,"Ġeffective":6749,"Ġtre":6750,"Ġblood":6751,"Rout":6752,"rowspan":6753,"owa":6754,"which":6755,"Ġcapacity":6756,"olved":6757,"ĠThree":6758,"Long":6759,"nowrap":6760,"Act":6761,"ĠLind":6762,"Ġabandon":6763,"actor":6764,"Ġdescribes":6765,"Ġlett":6766,"158":6767,"Ġgrand":6768,"encies":6769,"caption":6770,"Ġbibcode":6771,"ĠMov":6772,"agle":6773,"ĠRadio":6774,"ivalent":6775,"ĠDVD":6776,"Ġcharg":6777,"Ġresulted":6778,"Ġcovered":6779,"Ġtree":6780,"Ġphenomen":6781,"Ġexplo":6782,"Public":6783,"303":6784,"sn":6785,"307":6786,"Ol":6787,"Ġattend":6788,"thology":6789,"Ġ45":6790,"ĠShow":6791,"Ġinnings":6792,"Ġbig":6793,"Sk":6794,"Other":6795,"Ġeval":6796,"eway":6797,"Ġsuit":6798,"chem":6799,"Back":6800,"Ġplease":6801,"ĠAdd":6802,"Ġdefinition":6803,"Ġ1968":6804,"ashion":6805,"Ġemb":6806,"cricinfo":6807,"Ġprem":6808,"ĠTechn":6809,"Ġencour":6810,"Ġdepression":6811,"ĠBet":6812,"Ġequipment":6813,"Ġrailway":6814,"Ġflu":6815,"Ġrefers":6816,"ĠÃĹ":6817,"Ġphilosophy":6818,"ili":6819,"Ġfans":6820,"Ġprofess":6821,"ĠPerson":6822,"Ġauthority":6823,"ĠMinister":6824,"pi":6825,"imental":6826,"ĠRh":6827,"Ġsequence":6828,"Fa":6829,"section":6830,"Ġpainting":6831,"Ġinside":6832,"Ġhot":6833,"Staff":6834,"rip":6835,"ĠAtt":6836,"York":6837,"Jean":6838,"Ġsu":6839,"ographical":6840,"isters":6841,"ĠWho":6842,"jamin":6843,"Ġwinning":6844,"ifically":6845,"Ġ1982":6846,"orough":6847,"Ġwave":6848,"Ġtur":6849,"Ġsuppl":6850,"orage":6851,"Ġunderstand":6852,"social":6853,"1037":6854,"ĠKnow":6855,"chen":6856,"Ġ33":6857,"Ġfinally":6858,"Ġdisease":6859,"ĠLatin":6860,"Ġpurs":6861,"region":6862,"rig":6863,"arvard":6864,"Ell":6865,"EF":6866,"uda":6867,"Ġbegin":6868,"CS":6869,"document":6870,"ĠOfficial":6871,"aks":6872,"Ġgreen":6873,"Ġdynam":6874,"AI":6875,"quarters":6876,"atisf":6877,"detail":6878,"Ġbank":6879,"Ġdifference":6880,"ructure":6881,"quir":6882,"Ġinternal":6883,"1093":6884,"Ġspect":6885,"304":6886,"ropri":6887,"308":6888,"Ġdistingu":6889,"Lo":6890,"Ġmix":6891,"Ġconcent":6892,"Mil":6893,"ĠOriginal":6894,"marine":6895,"218":6896,"lie":6897,"Ġplanet":6898,"ullivan":6899,"216":6900,"second":6901,"ĠMiller":6902,"ĠHor":6903,"ĠFort":6904,"Ġneeds":6905,"space":6906,"isden":6907,"Further":6908,"Ġfailure":6909,"orado":6910,"Ġlaws":6911,"Ġcommonly":6912,"Ġcopy":6913,"ĠAvenue":6914,"uge":6915,"ĠLog":6916,"Ġextensive":6917,"Times":6918,"ortheast":6919,"letin":6920,"Ġ1979":6921,"Ġrepresented":6922,"ĠBill":6923,"ĠFin":6924,"156":6925,"ĠWrestling":6926,"Ġcontemporary":6927,"pse":6928,"Stat":6929,"Social":6930,"1972":6931,"Ġded":6932,"Williams":6933,"Ray":6934,"Ġpoet":6935,"ĠEdition":6936,"iveness":6937,"Ġsubsequently":6938,"Ġaware":6939,"Ġ1967":6940,"urban":6941,"ĠFame":6942,"Ġconstructed":6943,"Char":6944,"rane":6945,"Trans":6946,"Big":6947,"put":6948,"Gal":6949,"131":6950,"Book":6951,"official":6952,"\"],":6953,"pa":6954,"Ġfully":6955,"ãĥ¼":6956,"ĠMain":6957,"ĠPhilosophy":6958,"death":6959,"Ġdrug":6960,"Ġfeed":6961,"Ġproperties":6962,"Ġexplain":6963,"Ġchoice":6964,"uate":6965,"Ġneigh":6966,"Ġdetails":6967,"iny":6968,"ĠTable":6969,"Ġportray":6970,"Ġwrite":6971,"eric":6972,"Ġcat":6973,"vo":6974,"Ġ1969":6975,"grad":6976,"ĠKe":6977,"\",<":6978,"rete":6979,"Ġdouble":6980,"idae":6981,"ĠFront":6982,"Ġmarriage":6983,"Military":6984,"ĠBroadcast":6985,"athy":6986,"ester":6987,"ESPN":6988,"Ġprimarily":6989,"Ġsuc":6990,"Ġvess":6991,"177":6992,"Ġhundred":6993,"Ġinfluenced":6994,"Ġtried":6995,"Ġlimit":6996,"'m":6997,"folk":6998,"ĠFox":6999,"txt":7000,"End":7001,"rod":7002,"Ġapparent":7003,"Ġtechniques":7004,"ella":7005,"Ġcontact":7006,"Ġvariable":7007,"aki":7008,"Ġpack":7009,"oscience":7010,"ounce":7011,"Ġinspired":7012,"nom":7013,"Ġsides":7014,"Ġprograms":7015,"local":7016,"ĠCard":7017,"Ġweather":7018,"ĠEven":7019,"Ġalbums":7020,"Ġ1916":7021,"eful":7022,"Ġattacked":7023,"305":7024,"Ġscenes":7025,"Ġcomes":7026,"ipe":7027,"onel":7028,"ĠGib":7029,"eor":7030,"Alan":7031,"Ġresearchers":7032,"GS":7033,"Ġera":7034,"Review":7035,"non":7036,"uin":7037,"Ġcrow":7038,"171":7039,"ĠWater":7040,"Ġcolour":7041,"185":7042,"England":7043,").</":7044,"DVD":7045,"obel":7046,"Ġcombined":7047,"ĠMassachusetts":7048,"Ġlyrics":7049,"ogs":7050,"rome":7051,"pc":7052,"rt":7053,"Ġ37":7054,"Ġstrategy":7055,"309":7056,"Ġsecurity":7057,"Ġvarian":7058,"formance":7059,"clear":7060,"tw":7061,"etime":7062,"Ġincorpor":7063,"Ġkept":7064,"tour":7065,"Ġschools":7066,"ĠEastern":7067,"1038":7068,"onder":7069,"ĠLearning":7070,"ãĢ":7071,"Ġcontain":7072,"Ġchalleng":7073,"\"}}":7074,"Ġconcluded":7075,"ĠSpace":7076,"Ġthinking":7077,"If":7078,"Ġperception":7079,"Ġselection":7080,"colspan":7081,"ĠComputer":7082,"ĠBrazil":7083,"154":7084,"Ġple":7085,"165":7086,"Ġwatch":7087,"ĠLiber":7088,"Ġhappen":7089,"urns":7090,"mic":7091,"132":7092,"Ġoccas":7093,"Ġspread":7094,"Ġattempts":7095,"ctx":7096,"epis":7097,"raight":7098,"izens":7099,"itory":7100,"1968":7101,"Ġreign":7102,"Ġcentre":7103,"Kent":7104,"onn":7105,"bow":7106,"Tran":7107,"Louis":7108,"ĠBow":7109,"enness":7110,"ĠBack":7111,"ĠBowl":7112,"ĠLittle":7113,"weight":7114,"Ġsingles":7115,"Cla":7116,"ĠWild":7117,"Ġartists":7118,"Ġtheme":7119,"Ġfollows":7120,"ĠDun":7121,"226":7122,"Official":7123,"Ġpowerful":7124,"ĠLim":7125,"Simon":7126,"Fort":7127,"Ġstatement":7128,"Ġannual":7129,"beat":7130,"Ġfinancial":7131,"Ġtracks":7132,"ĠGree":7133,"ingham":7134,"Ġdivided":7135,"167":7136,"Ġexact":7137,"ĠHead":7138,"award":7139,"ampion":7140,"!}}":7141,"ĠKn":7142,"dark":7143,"DD":7144,"Ġfast":7145,"Ġleaders":7146,"Digital":7147,"ĠAccess":7148,"ĠFollowing":7149,"Ġpersonnel":7150,"223":7151,"Ġmedical":7152,"rowheader":7153,"clip":7154,"Ġchief":7155,"resh":7156,"Str":7157,"utp":7158,"ĠId":7159,"ĠEth":7160,"zant":7161,"md":7162,"Ġthr":7163,"ĠJo":7164,"Ser":7165,"121":7166,"ĠHay":7167,"Ġrelationships":7168,"Ġanimal":7169,"Ġaspects":7170,"Page":7171,"inction":7172,"Ġsquadron":7173,"ĠJul":7174,"inciple":7175,"MT":7176,"ek":7177,"Ġfix":7178,"Ash":7179,"onia":7180,"Ġheart":7181,"Ġrestrict":7182,"ships":7183,"Ġdevices":7184,"ĠIrish":7185,"Ġpurpose":7186,"atabase":7187,"uston":7188,"Mer":7189,"Ġnearby":7190,"Ġsubsequent":7191,"Pre":7192,"daily":7193,"astic":7194,"his":7195,"Ġsought":7196,"ifications":7197,"ĠSus":7198,"Will":7199,"ĠSol":7200,"ordan":7201,"ansas":7202,"Ġ1971":7203,"nhc":7204,"urner":7205,"LT":7206,"ecting":7207,"Ġstarting":7208,"Ġgenre":7209,"ĠCD":7210,"ceeded":7211,"ĠArchive":7212,"Ġfrequently":7213,"washington":7214,"Ġalleg":7215,"Brian":7216,"Ġcharge":7217,"country":7218,"Ġparents":7219,"Ġenjoy":7220,"Ġattended":7221,"Life":7222,"PI":7223,"ĠStadium":7224,"521":7225,"ĠJesus":7226,"Ġmanufact":7227,"ĠMount":7228,"Ġconstit":7229,"rend":7230,"Ġemotional":7231,"214":7232,"igion":7233,"ĠLanguage":7234,"Ġwearing":7235,"ĠJeff":7236,"ĠSpain":7237,"was":7238,"igr":7239,"Ġcore":7240,"Ġnarr":7241,"orpedo":7242,"Steve":7243,"Ġversions":7244,"Ã§":7245,"argin":7246,"Ġap":7247,"Ġbasic":7248,"Cyber":7249,"Ġcompletely":7250,"ĨĴ":7251,"Ġconvert":7252,"Ġreflect":7253,"rog":7254,"ĠJewish":7255,"Ġreports":7256,"Film":7257,"Ġsilver":7258,"occer":7259,"Ġenemy":7260,"kg":7261,"uns":7262,"military":7263,"cest":7264,"Ġdeclared":7265,"Ty":7266,"Ġusers":7267,"Boston":7268,"wing":7269,"Ġcomponents":7270,"but":7271,"oen":7272,"ĠAff":7273,"Miller":7274,"Ġpieces":7275,"Ġproved":7276,"ĠConn":7277,"Ġintegr":7278,"....":7279,"uf":7280,"Ġdeaths":7281,"Ġhab":7282,"Ġopposed":7283,"independent":7284,"Ġ1972":7285,"Ġmicro":7286,"risis":7287,"Ġanaly":7288,"uver":7289,"remier":7290,"Ġcopies":7291,"BF":7292,"chell":7293,"=\"#":7294,"ictures":7295,"Ġplays":7296,"600":7297,"cology":7298,"hind":7299,"anti":7300,"guide":7301,"ĠTor":7302,"Ġ====":7303,"ĠGeorgia":7304,"RI":7305,"Ġ1966":7306,"wikt":7307,"Rolling":7308,"Ġinters":7309,"ĠMa":7310,"sea":7311,"ĠShort":7312,"ĠÎ":7313,"Camp":7314,"Ġhapp":7315,"ĠIllinois":7316,"Out":7317,"1918":7318,"Ġfields":7319,"inline":7320,"itecture":7321,"irty":7322,"Ġalgorith":7323,"ĠAbout":7324,"Ġdetermined":7325,"Google":7326,"Ġ34":7327,"idden":7328,"Ġhands":7329,"Ġoccurs":7330,"ĠCastle":7331,"altim":7332,"clusive":7333,"Ġcoins":7334,"]}}":7335,"Ñģ":7336,"event":7337,"Ġphotograph":7338,"Psych":7339,"Ġplot":7340,"lair":7341,"Ġ1915":7342,"Ġstrugg":7343,"pan":7344,"Ġfighting":7345,"Ġargument":7346,"avies":7347,">\"":7348,"Ġexamples":7349,"]]</":7350,"Hung":7351,"ĠTheatre":7352,"ĠAnalysis":7353,"ĠNight":7354,"Although":7355,"ivation":7356,"Ġcharacteristics":7357,"Ġmarked":7358,"yout":7359,"1966":7360,"Queen":7361,"Kingdom":7362,"Ġtesting":7363,"900":7364,"entially":7365,"ila":7366,"ĠPres":7367,"Ġcommunic":7368,"Ġelected":7369,"Ġalternative":7370,"Ġtrees":7371,"Ġ1948":7372,"special":7373,"circ":7374,"257":7375,"ĠPublications":7376,"''}}":7377,"Lord":7378,"greg":7379,"Ġsetting":7380,"Part":7381,"incess":7382,"Ġbot":7383,"Ġstudent":7384,"SA":7385,"ĠMD":7386,"Ġexistence":7387,"Ġfederal":7388,"ĠSm":7389,"owell":7390,"ĠModel":7391,"bio":7392,"Ġsets":7393,"lov":7394,";{{":7395,"Ġmorning":7396,"1000":7397,"Ġpublication":7398,"ĠKen":7399,"NE":7400,"ĠIntelligence":7401,"rif":7402,"Ġdevice":7403,"ĠMus":7404,"weet":7405,"Ġcoordin":7406,"ĠSwed":7407,"CB":7408,"cores":7409,"Ã±":7410,"Brit":7411,"Ġfa":7412,"ĠEnvironment":7413,"1969":7414,"Ġfounded":7415,"Associated":7416,"Ġserve":7417,"Ġeye":7418,"anging":7419,"works":7420,"erved":7421,"lu":7422,"Grand":7423,"ishes":7424,"ods":7425,"Ġdelay":7426,"ustria":7427,"rial":7428,"ĠChief":7429,"Ġslightly":7430,"label":7431,"Ġarms":7432,"Ġplanning":7433,"partial":7434,"inder":7435,"Ġforeign":7436,"checked":7437,"DY":7438,"ĠSpecial":7439,"brit":7440,"anksia":7441,"Ġansw":7442,"hemistry":7443,"227":7444,"Article":7445,"iced":7446,"Ġthous":7447,"Ġlaunch":7448,"Ġtransferred":7449,"Ġmaximum":7450,"Ġthick":7451,"Ġpaid":7452,"rail":7453,"Ġmemorial":7454,"Ġinvolving":7455,"173":7456,"Carl":7457,"ebr":7458,"elve":7459,"canad":7460,"Ġeffic":7461,"Ġtasks":7462,"Ġcreation":7463,"lik":7464,"Ġprobability":7465,"Title":7466,"Ġremember":7467,"ding":7468,"ĠMint":7469,"ugu":7470,"Two":7471,"Ġsolution":7472,"Ġskills":7473,"dq":7474,"Ġcells":7475,"issance":7476,"arah":7477,"ĠRAAF":7478,"ionally":7479,"oli":7480,"ĠProv":7481,"emor":7482,"Ġvariables":7483,"Ġequal":7484,"Ġletters":7485,"osa":7486,"ÑĤ":7487,"Ġbill":7488,"ĠRoss":7489,"About":7490,"Ġtools":7491,"ĠFree":7492,"Ġshape":7493,"viation":7494,"ĠTelevision":7495,"orders":7496,"Ġcateg":7497,"bul":7498,"Ġ1965":7499,"Ġ1975":7500,"Cast":7501,"Ġlooking":7502,"ĠDaniel":7503,"ĠNations":7504,"fit":7505,"Ġcorrel":7506,"Ġsn":7507,"idel":7508,"Bay":7509,"lib":7510,"agram":7511,"agues":7512,"Po":7513,"Ġcasual":7514,"ĠStudy":7515,"ewart":7516,"birth":7517,"Ġtourn":7518,"lake":7519,"rik":7520,"RE":7521,"Ġperformances":7522,"ĠRome":7523,"Human":7524,"dam":7525,"false":7526,"Ma":7527,"Ġpsychology":7528,"169":7529,"ĠComplete":7530,"ĠCat":7531,"20100":7532,"ĠCarey":7533,"Ġaffected":7534,"Ġexisting":7535,"Ġ1973":7536,"20210":7537,"ĠForest":7538,"Ġmotion":7539,"Dep":7540,"fs":7541,"Ġdial":7542,"ĠLtd":7543,"ĠOhio":7544,"211":7545,"isen":7546,"ureau":7547,"Ha":7548,"Phys":7549,"lk":7550,"ĠPlease":7551,"scape":7552,"Ġcreating":7553,"MTV":7554,"TA":7555,"Ġfifth":7556,"usband":7557,"Ġprominent":7558,"ugby":7559,"ogen":7560,"ĠâĨĴ":7561,"UN":7562,"Ġreform":7563,"ĠGrant":7564,"Ġcollege":7565,"league":7566,"Ġdoing":7567,"ĠBrigade":7568,"char":7569,"phoon":7570,"Ġadvantage":7571,"Ġcited":7572,"ĠElizabeth":7573,"ĠBrook":7574,"ĠFair":7575,"ĠTelegraph":7576,"Ġlin":7577,"ĠDigital":7578,"orton":7579,"netic":7580,"Daily":7581,"Mass":7582,"foot":7583,"ĠFr":7584,"Ġrough":7585,"CL":7586,"Cons":7587,"default":7588,"Ġtests":7589,"latimes":7590,"Ġhorse":7591,"itzer":7592,")#":7593,"280":7594,"Date":7595,"''</":7596,"Ġrandom":7597,"Ġtraffic":7598,"youtube":7599,"Score":7600,"ĠArab":7601,"Ġwall":7602,"strong":7603,"OM":7604,"Ġ1977":7605,"'re":7606,"1002":7607,"super":7608,"ĠRod":7609,"pollo":7610,"rh":7611,"ologists":7612,"ĠDar":7613,"radio":7614,"Ġmainly":7615,"ĠCentre":7616,"ĠLive":7617,"Reference":7618,"City":7619,"ĠRay":7620,"hens":7621,"Ġvalid":7622,"fre":7623,"istan":7624,"iped":7625,"fin":7626,"1960":7627,"tropical":7628,"gamespot":7629,"contin":7630,"rine":7631,"Ġfair":7632,"Ġtranslation":7633,"224":7634,"Ġregarded":7635,"Bi":7636,"ĠDes":7637,"Ġorient":7638,"dmy":7639,"Ġbegins":7640,"Ġpossibly":7641,"800":7642,"oberts":7643,"Ġdistrict":7644,"friend":7645,"Ġpick":7646,"unior":7647,"Ġ1976":7648,"Ġnative":7649,"ĠSingles":7650,"Ġnothing":7651,"According":7652,"plex":7653,"ĠEr":7654,"ortex":7655,"174":7656,"num":7657,"ubt":7658,"enna":7659,"Ġ1978":7660,"what":7661,"Ġrepeated":7662,"Ġinstructions":7663,"Ġhypothesis":7664,"Jan":7665,"ĠIsrael":7666,"Ġetc":7667,"publications":7668,"itan":7669,"ĠCulture":7670,"ĠBaron":7671,"Ġexperiences":7672,"Bern":7673,"ihongo":7674,"=%":7675,"ĠCommon":7676,"ĠAnderson":7677,"Eric":7678,"uart":7679,"Ġconscious":7680,"icht":7681,"Free":7682,"Ġaim":7683,"Fox":7684,"imming":7685,"cho":7686,"Ġmotor":7687,">'''":7688,"Ġ1946":7689,"235":7690,"Park":7691,"ĠBBC":7692,"Den":7693,"eneration":7694,"ĠHeritage":7695,"Spot":7696,"Ġviews":7697,"]]âĢĶ":7698,"Ġsil":7699,"ĠIndependent":7700,"anal":7701,"Ġ1919":7702,"Ġbelong":7703,"ĠLike":7704,"220":7705,"argaret":7706,"ĠCaptain":7707,"213":7708,"movie":7709,"Ġ300":7710,"Ġappropri":7711,"Ġparallel":7712,"Over":7713,"ĠFe":7714,"Ġglobal":7715,"Ġimportance":7716,"Southern":7717,"des":7718,"documents":7719,"Vol":7720,"Ã¸":7721,"loud":7722,"Ġshift":7723,"'ve":7724,"Major":7725,"Ġbodies":7726,"Ġ1964":7727,"hedral":7728,"WP":7729,"Ġformat":7730,"udget":7731,"ĠSurvey":7732,"ĠBroadcasting":7733,"Ġgreatest":7734,"mlb":7735,"spect":7736,"ĠHistoric":7737,"ito":7738,"ĠHa":7739,"176":7740,"Ġopinion":7741,"imm":7742,"166":7743,"arxiv":7744,"Ġmixed":7745,"Ġconcert":7746,"Ġconcepts":7747,":'''":7748,"ĠLuc":7749,"Ġshared":7750,"away":7751,"Ġgas":7752,"ls":7753,"Ġoutp":7754,"194":7755,"Ġ75":7756,"Ġinstrument":7757,"178":7758,"179":7759,"ĠKey":7760,"Ġreality":7761,"ĠBern":7762,"Ġsubjects":7763,"ĠViet":7764,"Ġnation":7765,"Ġpal":7766,"Ġplaces":7767,"Bul":7768,"jan":7769,"acle":7770,"ĠBarn":7771,"Del":7772,"Lewis":7773,"ĠBank":7774,"Ġchampionship":7775,"'|":7776,"Ġoil":7777,"cluding":7778,"Ġorganizations":7779,"1964":7780,"ixon":7781,"Ġactual":7782,"God":7783,"ĠDown":7784,"Ġ48":7785,"Ġseems":7786,"Ã³n":7787,"Ġweapons":7788,"py":7789,"ĠJon":7790,"Ġunique":7791,"ĠĠĠĠĠĠĠĠĠĠĠĠĠĠĠ":7792,"Ġchosen":7793,"isted":7794,"Manchester":7795,"Ġregions":7796,"Ġones":7797,"others":7798,"Ġofficials":7799,"ĠLabor":7800,">|":7801,"ĠTropical":7802,"Ġreaction":7803,"therlands":7804,"Ġarrest":7805,"john":7806,"Ġtouch":7807,"ĠAllen":7808,"Ġcard":7809,"rac":7810,"stats":7811,"Ġrot":7812,"ĠCirc":7813,"Ġportion":7814,"Dun":7815,"OD":7816,"196":7817,"163":7818,"Ð¾Ð":7819,"diff":7820,"Ġonto":7821,"Ġtrust":7822,"mtv":7823,"Ġ39":7824,"Ġclosely":7825,"adow":7826,"uli":7827,"ĠLast":7828,"ĠWinter":7829,"chester":7830,"acritic":7831,"uther":7832,"olitan":7833,"general":7834,"hilosophical":7835,"ben":7836,"Hall":7837,"Ġfarm":7838,"ĠBecause":7839,"ĠUs":7840,"\">[[#":7841,"Ġ42":7842,"Ġbul":7843,"ideos":7844,"Ġadmin":7845,"unte":7846,"Ġelev":7847,"ika":7848,"Ġdesigns":7849,"Ġpitch":7850,"etition":7851,"cht":7852,"cell":7853,"Ġenh":7854,"ĠNotes":7855,"Special":7856,"Sm":7857,"WWE":7858,"emony":7859,"164":7860,"ĠFar":7861,"ĠEach":7862,"Ġachieve":7863,"abc":7864,"Ġgenus":7865,"ĠAdv":7866,"Ġ1974":7867,"Hal":7868,"Ġexecut":7869,"Philip":7870,"iege":7871,"Ġrespect":7872,"Ġexpression":7873,"Ġawards":7874,"ador":7875,"1967":7876,"Sec":7877,"Ġsites":7878,"ĠSydney":7879,"Ġalone":7880,"cop":7881,"cohol":7882,"ĠMerc":7883,"Ġacting":7884,"Ġastron":7885,"ailed":7886,"ĠPrince":7887,"Nintendo":7888,"ĠAdmiral":7889,"uis":7890,"Ġring":7891,"Sur":7892,"wealth":7893,"Wilson":7894,"Dist":7895,"etroit":7896,"Pan":7897,"igious":7898,"ĠHal":7899,"emic":7900,"Ġheavily":7901,"|(":7902,"||{{":7903,"dist":7904,"you":7905,"237":7906,"uma":7907,"uct":7908,"itud":7909,"abilities":7910,"while":7911,"Ġ150":7912,"Ġerror":7913,"ÅĤ":7914,"educ":7915,"ĠAstron":7916,"scale":7917,"altimore":7918,"Ġcities":7919,"Ġprepar":7920,"Ġcauses":7921,"inceton":7922,"DP":7923,"park":7924,"ĠCa":7925,"Ġbatter":7926,"Ġdetermine":7927,"189":7928,"beta":7929,"Mult":7930,"Ġinstance":7931,"Ġadopted":7932,"Ob":7933,"atell":7934,"Ġactor":7935,"cing":7936,"Ġsister":7937,"Ġdropped":7938,"emin":7939,"247":7940,"WS":7941,"1950":7942,"Ġsust":7943,"Rad":7944,"Ġprojects":7945,"Ġexplained":7946,"Ġagent":7947,"Ġreferences":7948,"riest":7949,"omew":7950,"ĠChampionships":7951,"ellect":7952,"desc":7953,"193":7954,"Bas":7955,"thlet":7956,"care":7957,"iy":7958,"Ġwrestling":7959,"uro":7960,"Ġgained":7961,"images":7962,"ĠBal":7963,"ante":7964,"Ġgovernor":7965,"agu":7966,"Ġlabor":7967,"Ap":7968,"rint":7969,"information":7970,"onard":7971,"ĠNorthern":7972,"Ġnarrow":7973,"ĠSaint":7974,"innes":7975,"Work":7976,"ieg":7977,"ĠHarrison":7978,"Ġbranch":7979,"ĠImperial":7980,"Er":7981,"Media":7982,"ichel":7983,"score":7984,"187":7985,"inton":7986,"western":7987,"Up":7988,"layer":7989,"DC":7990,"inical":7991,"ĠSpe":7992,"Ġconnected":7993,"DYK":7994,"batt":7995,"ĠMir":7996,"ĠEngineering":7997,"brid":7998,"Republic":7999,"word":8000,"Ġroles":8001,"Canada":8002,"Ġcommittee":8003,"ĠThus":8004,"Ġfocused":8005,"142":8006,"zh":8007,"228":8008,"Ġproced":8009,"Variety":8010,"two":8011,"unter":8012,"Ġtwenty":8013,"Ġmentioned":8014,"omatic":8015,"inema":8016,"aku":8017,"Ġdeploy":8018,"Ġhonor":8019,"itors":8020,"Ġalter":8021,"olumns":8022,"Ġmanaged":8023,"porter":8024,"inding":8025,"141":8026,"Ġhy":8027,"Ġpromoted":8028,"ĠBlue":8029,"Matt":8030,"phi":8031,"atherine":8032,"Ġreasons":8033,"releases":8034,"DS":8035,"cessor":8036,"Ġselect":8037,"\"|{{":8038,"ĠAllied":8039,"Ġ44":8040,"Indian":8041,"osexual":8042,"Luc":8043,"ubb":8044,"Ġregarding":8045,"Ġrise":8046,"ĠChris":8047,"Ġpersonality":8048,"Entertainment":8049,"RS":8050,"die":8051,"ĠAv":8052,"1958":8053,"ĠMr":8054,"Ġvocals":8055,"uki":8056,"Ġbottom":8057,"Ġcontaining":8058,"icholas":8059,"Ġcoming":8060,"ĠBell":8061,"oding":8062,"Ġending":8063,"ascar":8064,"ĠNature":8065,"Ġexpansion":8066,"Ġproducts":8067,"Ġlives":8068,"Ġ1963":8069,"Ġlot":8070,"illips":8071,"former":8072,"Ġconsum":8073,"Ġdescribe":8074,"ĠAdams":8075,"rect":8076,"poss":8077,"Ġearned":8078,"407":8079,"Ġadvanced":8080,"engine":8081,"Hill":8082,"oured":8083,"152":8084,"mn":8085,"ĠAlso":8086,"âĢĶ[[":8087,"Ġsurrounding":8088,"Ġtim":8089,"ĠWin":8090,"Ġinvasion":8091,"Ġinjury":8092,"unications":8093,"Off":8094,"ĠColumbia":8095,"Ġinteg":8096,"Ġextr":8097,"Ġexpect":8098,"Cat":8099,"rollingstone":8100,"Ġcausing":8101,"tario":8102,"ĠRam":8103,"weg":8104,"Ġfeaturing":8105,"Ġstream":8106,"184":8107,"}^":8108,"Ġpain":8109,"ĠDutch":8110,"ĠThrough":8111,"tag":8112,"168":8113,"afe":8114,"augh":8115,"Ġvolcan":8116,"Os":8117,"Note":8118,"onent":8119,"ĠLes":8120,"Ġbirds":8121,"Ġhar":8122,"ĠPot":8123,"orge":8124,"helm":8125,"Ġadvert":8126,"FS":8127,"Gill":8128,"Naval":8129,"zo":8130,"otype":8131,"rows":8132,"arbon":8133,"eyon":8134,"233":8135,"Ġweak":8136,"iminal":8137,"ĠVen":8138,"Ġcalls":8139,"EL":8140,"Ġop":8141,"lers":8142,"angel":8143,"fac":8144,"Ġsafety":8145,"Ġthing":8146,"ernel":8147,"Ġstudied":8148,"ĠBaseball":8149,"Ġtruth":8150,"Far":8151,"AP":8152,"lined":8153,"CT":8154,"ĠSa":8155,"eral":8156,"ĠBob":8157,"Ġdefense":8158,"albums":8159,"ibliography":8160,"india":8161,"Central":8162,"ogy":8163,"anges":8164,"Ġeasily":8165,"itchell":8166,"Ġmessage":8167,"ĠPen":8168,"ĠBart":8169,"atson":8170,"uated":8171,"omical":8172,"design":8173,":{{":8174,"psych":8175,"Ġdynasty":8176,"mvar":8177,"246":8178,"Ġlearned":8179,"body":8180,"temporary":8181,"ielsen":8182,"Down":8183,"Ġsomeone":8184,"ographer":8185,"ĠAlexander":8186,"',":8187,"hist":8188,"estic":8189,"Ġ49":8190,"uj":8191,"Ġboy":8192,"ĠAust":8193,"Ġexplan":8194,"ĠDeb":8195,"papers":8196,"Ġcapture":8197,"Ġjoin":8198,"ertification":8199,"Ġultimately":8200,"ĠHamilton":8201,"Ġhair":8202,"ums":8203,"Ġprev":8204,"elle":8205,"Ġsecret":8206,"406":8207,"akespe":8208,"Ġburn":8209,"aya":8210,"Ġstorage":8211,"212":8212,"1962":8213,"Ham":8214,"Ġ64":8215,"Dan":8216,"Ġdismiss":8217,"featured":8218,"Ġcontinues":8219,"Ġpolitics":8220,"isers":8221,"urst":8222,"Ġperspective":8223,"mass":8224,"]]{{":8225,"1017":8226,"188":8227,"Kin":8228,"Ġarticles":8229,"river":8230,"Ġ}},":8231,"Ġacquired":8232,"Ġdollar":8233,"eless":8234,"BB":8235,"Haw":8236,"229":8237,"Ġcheck":8238,"ĠFight":8239,"678":8240,"ĠAgain":8241,"System":8242,"ige":8243,"ĠBarb":8244,"Lost":8245,"Number":8246,"mund":8247,"school":8248,"ocation":8249,"encing":8250,"Ġmeasures":8251,"Ã¼r":8252,"eria":8253,"Ġentry":8254,"loom":8255,"Ġstating":8256,"Ġcontained":8257,"ducing":8258,"Ian":8259,"andra":8260,"ogg":8261,"Ġ43":8262,"ederation":8263,"Hard":8264,"ĠQuarter":8265,"ĠTransportation":8266,"Ġtournament":8267,"Ġlif":8268,")]],":8269,"Ġconfirmed":8270,"Ġmurder":8271,"View":8272,"While":8273,"Ġstress":8274,"239":8275,"Ġplants":8276,"Ġsupply":8277,"rets":8278,"Ġdinosaur":8279,"Ġpresidential":8280,"borough":8281,"paper":8282,"249":8283,"borne":8284,"sal":8285,"Ġencyclopedia":8286,"ĠPrix":8287,"azi":8288,"uscript":8289,"Ġinteraction":8290,"ydro":8291,"Fre":8292,"Å¡":8293,"ĠSoftware":8294,"asters":8295,"aph":8296,"ĠLewis":8297,"ĠVis":8298,"ĠSym":8299,"Ġnegot":8300,"akespeare":8301,"Att":8302,"otten":8303,"etics":8304,"More":8305,"183":8306,"Ġconnection":8307,"Ġearth":8308,"1965":8309,"Ġdrive":8310,"grey":8311,"Ġsample":8312,"Stud":8313,"agen":8314,"ĠAdministration":8315,"Ġreceive":8316,"Gen":8317,"ĠMountain":8318,"Ġalongside":8319,"will":8320,"IL":8321,"ecution":8322,"ryst":8323,"Albert":8324,"party":8325,"bas":8326,"Ġtrying":8327,"Ġca":8328,"Ġdeveloping":8329,"Ġgrowing":8330,"Ġderived":8331,"ĠAD":8332,"Ġexperiments":8333,"313":8334,"Ġwinter":8335,"ĠChap":8336,"Ġleadership":8337,"Ġmaterials":8338,"ĠCro":8339,"Ġreduce":8340,"Ġfavour":8341,"ĠMart":8342,"Ġrecently":8343,"Ġexpedition":8344,"Ġdesignated":8345,"Ġvisited":8346,"ting":8347,"ĠGard":8348,"ĠSquare":8349,"flow":8350,"eeth":8351,"Ġholding":8352,"ridge":8353,"fork":8354,"ĠOs":8355,"ennett":8356,"ĠHollywood":8357,"ĠGlobal":8358,"ĠArea":8359,"Ġproof":8360,"ormal":8361,"annon":8362,"econom":8363,"Ġdiscussion":8364,"apes":8365,"rizona":8366,"Ġharm":8367,"Ġauthors":8368,"Ġcour":8369,"Ġmist":8370,"Ġhusband":8371,"Ġcommented":8372,"Ġmemories":8373,"machine":8374,"Ġneut":8375,"Ġuseful":8376,"yles":8377,"ilarly":8378,"ĠBon":8379,"186":8380,"Inflation":8381,"409":8382,"UR":8383,"Ġproviding":8384,"tim":8385,"ĠMedal":8386,"ĠSix":8387,"Ġappeal":8388,"234":8389,"Type":8390,"Ġ47":8391,"Ġmaintained":8392,"anton":8393,"nov":8394,"192":8395,"ĠNow":8396,"ĠMill":8397,"hall":8398,"Ġrom":8399,"ĠWhit":8400,"ĠMoon":8401,"Ġhouses":8402,"Di":8403,"ĠHan":8404,"Ġsurvey":8405,"eters":8406,"conf":8407,"politics":8408,"MP":8409,"ais":8410,"ĠFamily":8411,"ĠYour":8412,"253":8413,"Ġviewed":8414,"Ġshortly":8415,"Ġmuseum":8416,"ãģ®":8417,"atures":8418,"Ġspecifically":8419,"ĠPhiladelphia":8420,"innesota":8421,"species":8422,"Ron":8423,"olecular":8424,"museum":8425,"Ġfirm":8426,"ĠAsh":8427,"eyer":8428,"Ġexplos":8429,"Ġbit":8430,"ĠWal":8431,"Nature":8432,"Ġmdy":8433,"Ġbroke":8434,"Michigan":8435,"Ġstations":8436,"Ġsufficient":8437,"Ġconcerns":8438,"imensional":8439,"Ġgain":8440,"),<":8441,"border":8442,"003":8443,"ĠPeace":8444,"Apple":8445,"Lang":8446,"Ġ1936":8447,"ĠArthur":8448,"Fe":8449,"Four":8450,"ĠSeveral":8451,"Ġheard":8452,"408":8453,"Ġworkers":8454,"Ġquote":8455,"Springer":8456,"arrier":8457,"></":8458,"gre":8459,"rot":8460,"Ġimproved":8461,"Ġfish":8462,"Christopher":8463,"Ġmut":8464,"Ġstanding":8465,"ĠHart":8466,"Ġleaves":8467,"Ġaltogether":8468,"ori":8469,"Ġcandidate":8470,"esian":8471,"ebook":8472,"ĠGar":8473,"''':":8474,"nasa":8475,"Ġ1962":8476,"Ġuncertain":8477,"Coll":8478,"Ġpilot":8479,"Ġcombination":8480,"Ġvote":8481,"ui":8482,"neth":8483,"making":8484,"ryan":8485,"AB":8486,"north":8487,"ĠImp":8488,"Ġ41":8489,"Ġlocations":8490,"ails":8491,"ĠRepresent":8492,"Ġrepresentation":8493,"match":8494,"ushed":8495,"software":8496,"ossil":8497,"Ġresc":8498,"ĠPublishers":8499,"Mag":8500,"Ġelectric":8501,"ussion":8502,"=-":8503,"Ġtrib":8504,"user":8505,"Ġachieved":8506,"thly":8507,"Ġprinciple":8508,"Ġadministration":8509,"veland":8510,"Ġmoral":8511,"Barn":8512,"stable":8513,"Ġpartn":8514,"Hand":8515,"Ġperhaps":8516,"ĠControl":8517,"Ġahead":8518,"404":8519,"Li":8520,"hn":8521,"Ġmagn":8522,"256":8523,"Batt":8524,"ml":8525,"ĠHit":8526,"ĠForces":8527,"217":8528,"Ep":8529,"ucle":8530,"201107":8531,"Ġprote":8532,"1177":8533,"acqu":8534,"auto":8535,"station":8536,"Ġpublish":8537,"iants":8538,"comot":8539,"ĠColl":8540,"ĠRepublican":8541,"ounds":8542,"Ġaccident":8543,"Ġprompt":8544,"sa":8545,"Ġperforming":8546,"Eastern":8547,"Bank":8548,"athlete":8549,"uled":8550,"1959":8551,"Ġsculpt":8552,"owski":8553,"Little":8554,"ĠRad":8555,"ictional":8556,"cru":8557,"'':":8558,"509":8559,"Des":8560,"Ġphase":8561,"Ġencounter":8562,"unc":8563,"ĠStudios":8564,"Flag":8565,"ĠUr":8566,"england":8567,"Ġterritory":8568,"Ġpul":8569,"itled":8570,"ĠSupport":8571,"pal":8572,"Ġrob":8573,"Ġsignificantly":8574,"ĠDemocratic":8575,"orus":8576,"Ġsatisf":8577,"Ġintent":8578,"Ġwounded":8579,"Person":8580,"ĠJim":8581,"Ġintroduction":8582,"appro":8583,"Operation":8584,"Ġox":8585,"philosop":8586,"Ġtheatre":8587,"151":8588,"ropolitan":8589,"Ġincident":8590,"Ġconsists":8591,"HE":8592,"Ġmach":8593,"Ġ{{!}}":8594,"ĠThird":8595,"ĠJustice":8596,"inth":8597,"Ġpicture":8598,"utton":8599,"Ġvary":8600,"Ġseg":8601,"fix":8602,"ï¼":8603,"Ġagreement":8604,"Ġexperienced":8605,"Ġhospital":8606,"otions":8607,"etery":8608,"Ġsupporting":8609,"ĠMethod":8610,"Ġhorses":8611,"Ġuniform":8612,"Ġequivalent":8613,"Hy":8614,"york":8615,"ĠPage":8616,"1953":8617,"Ġranked":8618,"ĠCorn":8619,"Ġreviewing":8620,"Ġtemperature":8621,"1963":8622,"ĠDirector":8623,"Ġcenturies":8624,"ĠMarine":8625,"Ġsoci":8626,"California":8627,"Ġrejected":8628,"Ġscoring":8629,"252":8630,"ĠKorea":8631,"ĠMoore":8632,"PM":8633,"ĠAcc":8634,"Ġpassing":8635,"ĠSecretary":8636,"\"/>{{":8637,"Walter":8638,"ĠHere":8639,"ristol":8640,"Emp":8641,"Ġfloor":8642,"Ġcasualties":8643,"comes":8644,"Ġactors":8645,"amental":8646,"adal":8647,"Lee":8648,"Ġminim":8649,"cur":8650,"Kn":8651,"Ġwaters":8652,"Ġdebate":8653,"ugos":8654,"270":8655,"umin":8656,"aware":8657,"Ġcontrolled":8658,"blem":8659,"Under":8660,"ĠTen":8661,"omial":8662,"Ġvocal":8663,"Nic":8664,"ĠStein":8665,"anged":8666,"american":8667,"Ġfamous":8668,"Ġdefend":8669,"Ġmedal":8670,"405":8671,"Ġassoci":8672,"oken":8673,"urricanes":8674,"dir":8675,"508":8676,"Cle":8677,"cnn":8678,"Ġsports":8679,"iami":8680,"Ġvisible":8681,"Sus":8682,"osition":8683,"Ġjoint":8684,"Ġgeneration":8685,"aska":8686,"ĠNorway":8687,"ĠBad":8688,"ĠPoland":8689,"Ġsenior":8690,"Ġsinger":8691,"Ġclassical":8692,"colwidth":8693,"Jackson":8694,"uy":8695,"IPA":8696,"Ret":8697,"pm":8698,"}_":8699,"ebec":8700,"unting":8701,"ĠDouglas":8702,"si":8703,"Ġdanger":8704,"Ġven":8705,"Ġvir":8706,"ahn":8707,"ĠBefore":8708,"Ġ55":8709,"Ġfuel":8710,"acon":8711,"ctic":8712,"Ġmovie":8713,"deb":8714,"dot":8715,"Ġtill":8716,"oga":8717,"ĠMemory":8718,"abe":8719,"aved":8720,"alph":8721,"Ġrelation":8722,"Johnson":8723,"dev":8724,"Ġnuclear":8725,"Ġamb":8726,"Ġpossess":8727,"290":8728,"cus":8729,"opa":8730,"238":8731,"Ġanything":8732,"Ġfamilies":8733,"offs":8734,">]]":8735,"isher":8736,"Dead":8737,"Ġtact":8738,"raig":8739,"Ġnominated":8740,"SP":8741,"Ġgoes":8742,"ĠHung":8743,"nell":8744,"Ġterr":8745,"Ġchair":8746,"ĠFiction":8747,"ffff":8748,"orch":8749,"Ġcouncil":8750,"ahoo":8751,"chron":8752,"Ġmode":8753,"Ġscholars":8754,"Year":8755,"Ġentirely":8756,"fan":8757,"607":8758,"Adam":8759,"Tur":8760,"Ġcriticism":8761,"gg":8762,"ĠGreg":8763,"Ġexecutive":8764,"Ġspiritual":8765,"Å«":8766,"Information":8767,"Brook":8768,"Love":8769,"Ġearliest":8770,"ĠBand":8771,"Ġpreced":8772,"''),":8773,"ĠGovernor":8774,"ĠJane":8775,"507":8776,"Ġassistant":8777,"Ġrational":8778,"Ġexpanded":8779,"avalry":8780,"Ġelimin":8781,"Ġrecognized":8782,"ĠEmperor":8783,"gun":8784,"ĠPhilip":8785,"vd":8786,"erself":8787,"Ġorders":8788,"ĠBox":8789,"technology":8790,"Ġconcerned":8791,"Polit":8792,"Harry":8793,"Saint":8794,"learn":8795,"Ġrecall":8796,"Radio":8797,"sym":8798,"008":8799,"France":8800,"atalog":8801,"effic":8802,"ici":8803,"Ġprotection":8804,"Hello":8805,"berra":8806,"uv":8807,"ãĥ³":8808,"NC":8809,"ĠQuest":8810,"Ġago":8811,"umph":8812,"ĠBeach":8813,"itts":8814,"Ġsevent":8815,"ĠSongs":8816,"imation":8817,"Ġstraight":8818,"ĠEffect":8819,"Ġsevere":8820,"ĠTrust":8821,"Les":8822,"nc":8823,"atial":8824,"Ġassociation":8825,"ĠReviews":8826,"keley":8827,"PP":8828,"Ġexchange":8829,"Ġperman":8830,"nhl":8831,";\">":8832,"Ger":8833,"ipated":8834,"ĠLincoln":8835,"Ġ46":8836,"Russian":8837,"je":8838,"Ġnick":8839,"ĠBond":8840,"1930":8841,"ĠIndustry":8842,"Ġviolence":8843,"wegian":8844,"Ġcomposer":8845,"Ġaccessed":8846,"Ġreturning":8847,"Ġtechnique":8848,"Ġperceived":8849,"biology":8850,"ĠHoward":8851,"ĠCooper":8852,"Ġstandards":8853,"Ġclassification":8854,"itchfork":8855,"health":8856,"ĠMap":8857,"Ġextension":8858,"Sports":8859,"Ġmanner":8860,"Ġ1953":8861,"Ġapproaches":8862,"help":8863,"Ġcolumn":8864,"Ġretired":8865,"Ġseasons":8866,"219":8867,"fi":8868,"ĠCampaign":8869,"office":8870,"aii":8871,"Ġtransfer":8872,"Ġaccompan":8873,"aturn":8874,"Ġsquare":8875,"ĠToronto":8876,"Ġ1957":8877,"earl":8878,"ĠCharts":8879,"aux":8880,"Mid":8881,"Football":8882,"ĠDiego":8883,"ĠWel":8884,"Ġleads":8885,"Feat":8886,"Pers":8887,"Ter":8888,"sign":8889,"enews":8890,"edge":8891,"Ġinvent":8892,"hyth":8893,"going":8894,"Ġdiscip":8895,"ĠRegister":8896,"ospace":8897,"Tra":8898,"Ġisol":8899,"Song":8900,"|+":8901,"bian":8902,"Ġ1956":8903,"Ġfear":8904,"Ġsac":8905,"162":8906,"collection":8907,"Ġsubstant":8908,"Ġworth":8909,"dale":8910,"ĠStanley":8911,"Ġdemand":8912,"ĠLanc":8913,"Ġtwice":8914,"ĠSy":8915,"161":8916,"248":8917,"haw":8918,"ĠJer":8919,"Ġcitizens":8920,"007":8921,"asia":8922,"ĠMult":8923,"uba":8924,"atus":8925,"Ġterminus":8926,"Ġconsisted":8927,"Ġ1913":8928,"Ġrobot":8929,"403":8930,"orrow":8931,"iful":8932,"alg":8933,"ungi":8934,"RT":8935,"ĠDark":8936,"ĠChronicle":8937,"Elizabeth":8938,"ĠStatistics":8939,"Ġbehaviour":8940,"Ġnav":8941,"Ġsplit":8942,"Ġends":8943,"Rod":8944,"Ġacademic":8945,"complete":8946,"ĠProt":8947,"Ġtitled":8948,"Ġcircum":8949,"core":8950,"emetery":8951,"iders":8952,"ĠMid":8953,"Day":8954,"Jer":8955,"irming":8956,"archy":8957,"english":8958,"project":8959,"Ġpowers":8960,"Ġadvoc":8961,"Ġphr":8962,"Ġnetworks":8963,"Nick":8964,"utheast":8965,"Ġcapable":8966,"ĠLady":8967,"abel":8968,"base":8969,"erring":8970,"Ġpun":8971,"ĠJews":8972,"Tw":8973,"zi":8974,"phot":8975,"wikipedia":8976,";[[":8977,"Ġbasketball":8978,"ughes":8979,"Ġextrem":8980,"ois":8981,"eties":8982,"boy":8983,"Ġinterpretation":8984,"ĠUSA":8985,"Ġmatrix":8986,"SI":8987,"ĠVI":8988,"Ġrequires":8989,"Ġobtained":8990,"abinet":8991,"ABC":8992,"Ġhighlight":8993,"ocol":8994,"Francis":8995,"Routledge":8996,"Ġwild":8997,"odore":8998,"Steven":8999,"Ġmissing":9000,"Ġdedicated":9001,"Sort":9002,"hom":9003,"ueens":9004,"Ġnortheast":9005,"Ġcouple":9006,"236":9007,"Ġdisorder":9008,"255":9009,"Ġbeliefs":9010,"ĠGreece":9011,"Ġfalse":9012,"ĠHy":9013,"Ġchose":9014,"cut":9015,"Ġ52":9016,"Ġimpl":9017,"Ġopera":9018,"ĠConstant":9019,"Ġincreasingly":9020,"raq":9021,"Ġopposition":9022,"Bu":9023,"ĠFire":9024,"pper":9025,"ging":9026,"card":9027,"Ġcollected":9028,"len":9029,"ĠGra":9030,"Ġtemple":9031,"abb":9032,"mal":9033,"Ġ1952":9034,"Banksia":9035,"ĠEver":9036,"Ġabandoned":9037,"Win":9038,"Ġ1958":9039,"aneous":9040,"Douglas":9041,"court":9042,"506":9043,"707":9044,"ĠStrateg":9045,"Ġuniversity":9046,"SE":9047,"Ġpla":9048,"ĠSpec":9049,"Ġwrites":9050,"gal":9051,"Ġengaged":9052,"ervative":9053,"ĠEvolution":9054,"259":9055,"245":9056,"Ġlinear":9057,"Ġsun":9058,"couver":9059,"Ġtechnical":9060,"Ġtrials":9061,"biz":9062,"nce":9063,"Ġformula":9064,"ĠPlan":9065,"unnel":9066,"Ġcounty":9067,"Ġ1951":9068,"CE":9069,"}{\\":9070,"Ġtells":9071,"222":9072,"need":9073,"Ã©e":9074,"Ġcamera":9075,"Ġeyes":9076,"Ġbroken":9077,"Ros":9078,"Ġtool":9079,"Ġ1961":9080,"Ġcontinuous":9081,"Ġorganized":9082,"acher":9083,"'''<":9084,"258":9085,"President":9086,"Ġstrike":9087,"Ġfinding":9088,"ĠLy":9089,"Max":9090,"Ġopportunity":9091,"xis":9092,"ĠOnly":9093,"Ġreasoning":9094,"420":9095,"Ġprice":9096,"plan":9097,"Ġ1959":9098,"Ġcalling":9099,"ĠAmong":9100,"ĠEntry":9101,"]|":9102,"Ġroll":9103,"Ġequations":9104,"ĠBehavior":9105,"ometry":9106,"Sl":9107,"Ġbeat":9108,"Ġyounger":9109,"Ġlaid":9110,"ĠProcess":9111,"dest":9112,"uccessful":9113,"ĠPass":9114,"Ġstore":9115,"ĠEp":9116,"thel":9117,"Ġquite":9118,"Ġscholar":9119,"Fried":9120,"wig":9121,"leagues":9122,"Ġphysics":9123,"kh":9124,"olt":9125,"ĠBruce":9126,"Ġnotable":9127,"Ġtele":9128,"ĠWindows":9129,"ĠSeattle":9130,"ĠWorks":9131,"Wikipedia":9132,"]])</":9133,"taining":9134,"Ġnewly":9135,"AAAAM":9136,"Ġ1947":9137,"etters":9138,"fmt":9139,"EFA":9140,"Ġaid":9141,"Ġwitness":9142,"utational":9143,"Ġvision":9144,"Ġresidents":9145,"Ġassumed":9146,"Ġplain":9147,"Ġce":9148,"ĠCook":9149,"Ġ1938":9150,"Ġowner":9151,"Ġflying":9152,"atl":9153,"aron":9154,"aman":9155,"ĠHend":9156,"Ġlibrary":9157,"ĠMedicine":9158,"global":9159,"ĠBall":9160,"Ġfaced":9161,"stock":9162,"Ġrac":9163,"alymp":9164,"NR":9165,"Ġcart":9166,"Ġdrawn":9167,"Ġidentify":9168,"clone":9169,"Ġunus":9170,"Ġfrag":9171,"ulty":9172,"Ġprotect":9173,"anny":9174,"Ġ(''[[":9175,"Ġofficially":9176,"Ġ1954":9177,"ĠLi":9178,"common":9179,"350":9180,"plain":9181,"rated":9182,"Ġmill":9183,"erts":9184,"Joe":9185,"sis":9186,"Ġfil":9187,"refend":9188,"ĠAbb":9189,"Ġbus":9190,"Ġassault":9191,"nik":9192,"atched":9193,"Ġartillery":9194,"Ġappearances":9195,"usat":9196,"Roger":9197,"hibition":9198,"Sun":9199,"ĠVi":9200,"lications":9201,"bur":9202,"1939":9203,"ĠFive":9204,"Î±":9205,"ulating":9206,"Ġgrew":9207,"ensis":9208,"Ġcarrier":9209,"tl":9210,"Ġbug":9211,"''-":9212,"Ġtower":9213,"aurus":9214,"Ġpractices":9215,"physics":9216,"004":9217,"Square":9218,"Death":9219,"Ġemployed":9220,"GN":9221,"sun":9222,"Ġwing":9223,"ĠOlympic":9224,"Ġmyst":9225,"clc":9226,"atinum":9227,"ĠSingapore":9228,"Ġ51":9229,"Log":9230,"ĠTemple":9231,"([[":9232,"Episode":9233,"aine":9234,"uo":9235,"Ġfired":9236,"ucker":9237,"Jonathan":9238,"nla":9239,"Ġhall":9240,"ĠNever":9241,"apping":9242,"Ġstages":9243,"Common":9244,"Ġsuccessfully":9245,"(''":9246,"ĠExpress":9247,"ĠAccessed":9248,"ĠVers":9249,"Ġboat":9250,"Gre":9251,"cu":9252,"Ġdiscovery":9253,"neur":9254,"Ġovers":9255,"Ġ65":9256,"Ġreaching":9257,"Allen":9258,"Ġtempor":9259,"Ġmeasured":9260,"Ġgranted":9261,"UT":9262,"âĪĴ":9263,"icians":9264,"ĠSpring":9265,"Ġyellow":9266,"Ġattributed":9267,"Ġportrait":9268,"1914":9269,"Av":9270,"Miss":9271,"Ġcommissioned":9272,"Ġ\\\\":9273,"tenance":9274,"ĠDeath":9275,"ĠRun":9276,"leted":9277,"ĠEnergy":9278,"Ġlinked":9279,"Kevin":9280,"Ġ]]":9281,"ooker":9282,"Fl":9283,"Young":9284,"four":9285,"Ġdisapp":9286,"Dar":9287,"okyo":9288,"udson":9289,"ĠIndiana":9290,"theta":9291,"ĠBeatles":9292,"Ġchance":9293,"Gar":9294,"HD":9295,"Maryland":9296,"Ġpatterns":9297,"arked":9298,"AllMusic":9299,"Ġtitles":9300,"Bow":9301,"Ġcommunities":9302,"Ġwithdraw":9303,"SO":9304,"gb":9305,"child":9306,"Ġcomparison":9307,"Norman":9308,"unities":9309,"Ġoffensive":9310,"ĠSwift":9311,"ouri":9312,"ĠServices":9313,"Fore":9314,"using":9315,"Ġoclc":9316,"Ġ1955":9317,"Ġskull":9318,"Ġvehicles":9319,"ested":9320,"oca":9321,"wr":9322,"ĠSand":9323,"Ġ1910":9324,"Ġgenerated":9325,"fish":9326,"tah":9327,"ĠIce":9328,"spir":9329,"Ġentrance":9330,"syn":9331,"canal":9332,"Tem":9333,"Ġfile":9334,"609":9335,"275":9336,"ĠScient":9337,"Mah":9338,"theless":9339,"Ġprede":9340,"Ġsuccessor":9341,"Ġwhereas":9342,"Ġstatistics":9343,"ĠGordon":9344,"}(":9345,"Ġstreet":9346,"Ġweaken":9347,"gallery":9348,"etch":9349,"Davis":9350,"Ġfolk":9351,"ancer":9352,"pres":9353,"iast":9354,"Ġhero":9355,"Wall":9356,"Ġwrong":9357,"AV":9358,"bishop":9359,"Ġtravell":9360,"keep":9361,"thesis":9362,"Source":9363,"Ġtypical":9364,"Ġdie":9365,"centage":9366,"20190":9367,"Ġcriticized":9368,"abor":9369,"Ġcontributed":9370,"Ġdistributed":9371,"chestra":9372,"roc":9373,"ĠPC":9374,"ĠFA":9375,"Ġmeasurement":9376,"zantine":9377,"312":9378,"Ġpossibility":9379,"Ġpatients":9380,"Ġescape":9381,"Ġwa":9382,"Ġ1937":9383,"1961":9384,"Ġjourney":9385,"Ġinvolves":9386,"Of":9387,"Ġoperated":9388,"Ã¦":9389,"exper":9390,"ierre":9391,"ĠMean":9392,"ĠAthlet":9393,"ista":9394,"Rom":9395,"Ġroof":9396,"Ġotherwise":9397,"ĠAnnual":9398,"Ġ1921":9399,"Ġdeck":9400,"othy":9401,"Ġrival":9402,"Ver":9403,"mont":9404,"ĠMike":9405,"oda":9406,"708":9407,"Ġcomponent":9408,"oly":9409,"Ġsport":9410,"Ðº":9411,"atically":9412,"Ġ1922":9413,"oble":9414,"ometric":9415,"Key":9416,"hatt":9417,"\">[":9418,"mathematics":9419,"dated":9420,"319":9421,"Hart":9422,"astro":9423,"Ġmedium":9424,"Ġherself":9425,"Ġ\"''":9426,"ĠEvans":9427,"Ġappropriate":9428,"Fr":9429,"dn":9430,"onents":9431,"ĠPract":9432,"max":9433,"rehens":9434,"Home":9435,"refbegin":9436,"ĠSomerset":9437,"iden":9438,"enses":9439,"Ġlanding":9440,"Press":9441,"alism":9442,"Ġowned":9443,"onesia":9444,"ativity":9445,"ĠMah":9446,"Ġignore":9447,"Ġrelevant":9448,"heim":9449,"Ġ1949":9450,"rak":9451,"iph":9452,"Ġacid":9453,"Ly":9454,"Ġgender":9455,"Proceedings":9456,"Ġinvestigation":9457,"ĠNon":9458,"Ġneural":9459,"aeology":9460,"iability":9461,"Map":9462,"RAAF":9463,"miere":9464,"ĠCarl":9465,"Mill":9466,"front":9467,"Ġmovements":9468,"Ant":9469,"ĠHarris":9470,"Dev":9471,"ĠBureau":9472,"psychology":9473,"ĠAud":9474,")|''":9475,"feld":9476,"aro":9477,"ĠDan":9478,"Cheers":9479,"Ġwalls":9480,"ivor":9481,"ĠRobinson":9482,"ĠBuilding":9483,"igration":9484,"rah":9485,"Ġcastle":9486,"Tri":9487,"ayne":9488,"ĠGram":9489,"sha":9490,"Ġadults":9491,"reaty":9492,"357":9493,"variety":9494,"eenth":9495,"Ġconvent":9496,"Ġedge":9497,"Ġargues":9498,",''":9499,"Ġfreedom":9500,"Ġrating":9501,"idges":9502,"ĠCompan":9503,"Ġinher":9504,"706":9505,"ennon":9506,"Ġprinciples":9507,"Ġ53":9508,"ĠGoogle":9509,"Mir":9510,"182":9511,"Ġdesire":9512,"ĠAV":9513,"ĠDefence":9514,"Business":9515,"172":9516,"shows":9517,"ĠCountry":9518,"232":9519,"incent":9520,"ĠAssembly":9521,"ĠSunday":9522,"ĠChristmas":9523,"ogers":9524,"Madonna":9525,"wwe":9526,"ĠHomer":9527,"itime":9528,"ĠDream":9529,"axy":9530,"stood":9531,"teams":9532,"stances":9533,"Ġclasses":9534,"hill":9535,"OV":9536,"Ġfought":9537,"utter":9538,"Ġcomedy":9539,"igenous":9540,"allow":9541,"Data":9542,"HS":9543,"Ġatmosph":9544,"Ġreputation":9545,"Hay":9546,"ogamer":9547,"254":9548,"ĠCollection":9549,"ĠAgency":9550,"ellectual":9551,"lon":9552,"ĠGermans":9553,"flagathlete":9554,"ĠGlobe":9555,"Ġcommemor":9556,"Ġserving":9557,"Prince":9558,"Hon":9559,"Ġcoal":9560,"Ġcloud":9561,"Ġholds":9562,"washingtonpost":9563,"ĠVictor":9564,"Ġbom":9565,"agazines":9566,"Ġceremony":9567,"_\\":9568,"Ġmobile":9569,"ĠEss":9570,"Ġstrongly":9571,"Sa":9572,"iva":9573,"Ġpsychological":9574,"ellation":9575,"phony":9576,"Ġadding":9577,"Ġ400":9578,"screen":9579,"harvid":9580,"Dave":9581,"lad":9582,"uto":9583,"bad":9584,"Ka":9585,"Ġfif":9586,"Ġcosts":9587,"ecraft":9588,"Ġarmed":9589,"ĠSimon":9590,"Ġindicate":9591,"Ġfinds":9592,"Ġengineer":9593,"ĠBudd":9594,"ichmond":9595,"Ġsleep":9596,"elli":9597,"FM":9598,"hart":9599,"hdl":9600,"commons":9601,"ĠIss":9602,"feature":9603,"ĠTerrit":9604,"ĠWikiped":9605,"Ġframework":9606,"ĠChildren":9607,"case":9608,"Ġhabit":9609,"301":9610,"Ġprepared":9611,"Hans":9612,"ronze":9613,"poses":9614,"current":9615,"master":9616,"sil":9617,"ĠArchives":9618,"Qs":9619,"Ġbudget":9620,"Ġ[[#":9621,"191":9622,"Anthony":9623,"Ġdoct":9624,"amine":9625,"Ġforg":9626,"Ġtheorem":9627,"Ġrapidly":9628,"hockey":9629,"agascar":9630,"plications":9631,"Ġinnov":9632,"Bad":9633,"Crit":9634,"ĠFall":9635,"Ġalgebra":9636,"lig":9637,"Ġty":9638,"Ġcrowd":9639,"atomy":9640,"Ġworldwide":9641,"owder":9642,"phone":9643,"Ġlosing":9644,"Anime":9645,"Democr":9646,"Non":9647,"Ġcortex":9648,"jack":9649,"Ġsession":9650,"OK":9651,"ez":9652,"icity":9653,"Ġbright":9654,"chant":9655,"Arm":9656,"Ġdiagn":9657,"CM":9658,"cms":9659,"Ġliber":9660,"Chinese":9661,"Ġwickets":9662,".âĢĶ[[":9663,"002":9664,"county":9665,"ned":9666,"ĠBot":9667,"Ġstock":9668,"ĠWikipedians":9669,"Ġconclusion":9670,"006":9671,"ĠPrime":9672,"Ġeconomy":9673,"Gib":9674,"Ill":9675,"Ġinput":9676,"entin":9677,"'d":9678,"ĠStandard":9679,"Men":9680,"ĠLane":9681,"Ġdecisions":9682,"Bart":9683,"clade":9684,"Ġartificial":9685,"Ġtechnologies":9686,"ĠNic":9687,"orney":9688,"ĠBerlin":9689,"BI":9690,"Eur":9691,"Georg":9692,"nature":9693,"navy":9694,"rim":9695,"apa":9696,"ĠGro":9697,"Ġknew":9698,"usatoday":9699,"603":9700,"ĠMurray":9701,"wire":9702,"277":9703,"Tube":9704,"mur":9705,"rien":9706,"Atlantic":9707,"Ryan":9708,"Ġrevolution":9709,"Ġbeaut":9710,"okes":9711,"Matthew":9712,"606":9713,"244":9714,"ĠCount":9715,"Ġapproved":9716,"Ġmort":9717,"antics":9718,"sourcecheck":9719,"WW":9720,"natural":9721,"Ġdiscussed":9722,"sr":9723,"christ":9724,"Ġgrav":9725,"ĠIntroduction":9726,"ĠEpisode":9727,"Ġchallenge":9728,"ennessee":9729,"inburgh":9730,"Ġyouth":9731,"horse":9732,"race":9733,"ĠBrian":9734,"ulo":9735,"tha":9736,"ĠMorris":9737,"GM":9738,"aired":9739,"Ġscientists":9740,"Ġtail":9741,"ĠCart":9742,"cit":9743,"ĠSyn":9744,"Ġadult":9745,"ĠVII":9746,"Ġunion":9747,"ĠWalter":9748,"ĠAnton":9749,"ĠBa":9750,"Ġ1935":9751,"oxford":9752,"isch":9753,"ĠPolitics":9754,"-%":9755,"austral":9756,"'']":9757,"243":9758,"Texas":9759,"Ġmultip":9760,"Jacob":9761,"Ġ57":9762,"Ġwealth":9763,"Ġglass":9764,"Ġdemonstrated":9765,"Hor":9766,"stage":9767,"ĠURL":9768,"Bat":9769,"Card":9770,"inition":9771,"Ġdrop":9772,"PlayStation":9773,"prior":9774,"005":9775,",,":9776,"such":9777,"Ġtank":9778,"ĠMax":9779,"ĠNC":9780,"Ġdepth":9781,"ĠSullivan":9782,"ĠPolish":9783,"sel":9784,"Ġ54":9785,"Ġenvironmental":9786,"Ġpit":9787,"Ġmouth":9788,"1957":9789,"Ġaltern":9790,"Ġexerc":9791,")\\":9792,"Kim":9793,"gc":9794,"otyp":9795,"605":9796,"ĠJean":9797,"usa":9798,"267":9799,"Ġauthorities":9800,"ĠColorado":9801,"orer":9802,"ĠCre":9803,"brook":9804,"canada":9805,"acker":9806,"ĠAirport":9807,"stan":9808,"Ġlang":9809,"records":9810,"Ġdram":9811,"ĠInstead":9812,"exican":9813,"Ġdrama":9814,"cele":9815,"Ġmaster":9816,"709":9817,"ennial":9818,"ĠPolice":9819,"Ġaccounts":9820,"Ġvehicle":9821,"present":9822,"1920":9823,"pes":9824,"Ġconvers":9825,"Irish":9826,"aked":9827,"Ġhardware":9828,"lets":9829,"Ġpolic":9830,"ĠFormation":9831,"BL":9832,"Sil":9833,"ectic":9834,"sole":9835,"Ġexplicit":9836,"ĠAncient":9837,"295":9838,"Ġregistration":9839,"spective":9840,"ĠOrganization":9841,"505":9842,"ribed":9843,"Bro":9844,"abled":9845,"Pacific":9846,"Ãº":9847,"Ġlingu":9848,"omat":9849,"agner":9850,"ersh":9851,"ĠNumber":9852,"psed":9853,"ĠCommunication":9854,"Ġdidn":9855,"Read":9856,"pq":9857,"boat":9858,"ĠChapter":9859,"sons":9860,"Ġbriefly":9861,"HO":9862,"Ġperfect":9863,"ĠNev":9864,"Ġ1912":9865,"compl":9866,"Ġ1900":9867,"ĠOtt":9868,"Ġextent":9869,"omination":9870,"ĠSil":9871,"Rem":9872,"ĠSuch":9873,"221":9874,"iti":9875,"ĠPolitical":9876,"Sen":9877,"itative":9878,"Ġpil":9879,"itionally":9880,"ĠThompson":9881,"Ġresistance":9882,"Ġensure":9883,"ĠVietnam":9884,"atellite":9885,"chic":9886,"ĠNative":9887,"ifies":9888,"engers":9889,"Ġreceiving":9890,"Ġexperimental":9891,"ashed":9892,"oba":9893,"company":9894,"imary":9895,"imen":9896,"heme":9897,"ennifer":9898,"ĠAnglo":9899,"Ġcomposition":9900,"Robinson":9901,"Joh":9902,"ĠRow":9903,"Anderson":9904,"Ġ1933":9905,"1126":9906,"SM":9907,"1955":9908,"Ġstadium":9909,"uploads":9910,"705":9911,"uties":9912,"Ġviewers":9913,"Ġparameter":9914,"ede":9915,"eyond":9916,"unicip":9917,"Middle":9918,"illo":9919,"ĠStanford":9920,"ĠPerformance":9921,"adalcanal":9922,"lap":9923,"Ġindustrial":9924,"gary":9925,"503":9926,"Silver":9927,"Ġbats":9928,"ĠPhysics":9929,"dp":9930,"ĠJan":9931,"Ġspring":9932,"has":9933,"608":9934,"det":9935,"portal":9936,"Ġtwelve":9937,"Following":9938,"Ġdecades":9939,"including":9940,"ĠMaster":9941,"1911":9942,"zech":9943,"Ġlosses":9944,"Ġkilling":9945,"ĠScottish":9946,"ĠWell":9947,"shop":9948,"Ġacts":9949,"ĠMadonna":9950,"Name":9951,"sco":9952,"Roy":9953,"SMS":9954,"Ġyards":9955,"Samuel":9956,"nick":9957,"ranean":9958,"Ġopposite":9959,"programming":9960,"XX":9961,"ĠUN":9962,"Ġcarrying":9963,"Boy":9964,"Tony":9965,"Ġfrequency":9966,"fb":9967,"Ġlogo":9968,"Ġlegend":9969,"Ġoptim":9970,"IR":9971,"hetic":9972,"opy":9973,"Ġcycle":9974,"Ġtanks":9975,"Ġaccompanied":9976,"Ir":9977,"uran":9978,"oldid":9979,"letter":9980,"Three":9981,"Church":9982,"HC":9983,"yt":9984,"Ġfit":9985,"Ġproposal":9986,"Ġdefence":9987,"lead":9988,"olo":9989,"Ġillustr":9990,"UP":9991,"Sing":9992,"rus":9993,"ario":9994,"Ġsections":9995,"Ġresponses":9996,"past":9997,"ivated":9998,"ĠCommunity":9999,"IP":10000,"Ġchannel":10001,"ilation":10002,"Virginia":10003,"Ġdocuments":10004,"Ġmor":10005,"333":10006,"ashi":10007,"lower":10008,"encer":10009,"Ġpasses":10010,"Ren":10011,"ĠBible":10012,"ĠPlayer":10013,"Ġliterary":10014,"yram":10015,"iffe":10016,"publication":10017,"EM":10018,"ĠLiverpool":10019,"Ġcolleagues":10020,"Ġsigns":10021,"Ġ58":10022,"Writ":10023,"gon":10024,"sters":10025,"Ġguard":10026,"ĠCampbell":10027,"cha":10028,"Ġgetting":10029,"Ġdiscover":10030,"rin":10031,"ĠBush":10032,"umble":10033,"rnest":10034,"Lu":10035,"Ġbat":10036,"erial":10037,"mentary":10038,"Ġhistorians":10039,"ÃŃa":10040,"dem":10041,"]]|[[":10042,"Ġfixed":10043,"Ġdated":10044,"ĠDer":10045,"Ġheadquarters":10046,"Ġdetailed":10047,"Microsoft":10048,"Ġislands":10049,"269":10050,"Ġlocomot":10051,"Ġgets":10052,"Ġsecondary":10053,"Modern":10054,"love":10055,"ĠOk":10056,"Ġbrothers":10057,"278":10058,"Thompson":10059,"Ġmechanism":10060,"dan":10061,"ĠSav":10062,"ĠRoy":10063,"Ġ1934":10064,"]],{{":10065,"181":10066,"Ġ66":10067,"EEE":10068,"possible":10069,"Wal":10070,"Ġcompris":10071,"Ġinstall":10072,"Philadelphia":10073,"Lind":10074,"hop":10075,"haus":10076,"Ġdance":10077,"ayer":10078,"Ġthemes":10079,"Ġheader":10080,"Ġfaith":10081,"attempt":10082,"Ġcomputing":10083,"annica":10084,"Ġarrival":10085,"ENG":10086,"dc":10087,"Ġrecept":10088,"ĠProm":10089,"umni":10090,"Ġacknow":10091,"deed":10092,"arner":10093,"Who":10094,"ĠChristianity":10095,"unit":10096,"adi":10097,"1946":10098,"apple":10099,"resents":10100,"ĠKennedy":10101,"cricketarchive":10102,"ĠSco":10103,"abil":10104,"antum":10105,"231":10106,"ushing":10107,"aceous":10108,"Chapter":10109,"legal":10110,"modern":10111,"itudes":10112,"Bet":10113,"hum":10114,"ĠMind":10115,"ĠRights":10116,"Ġvo":10117,"episode":10118,"aircraft":10119,"journals":10120,"uffalo":10121,"Ġguide":10122,"achment":10123,"Spanish":10124,"Mart":10125,"Ġsteam":10126,"]]\".<":10127,"Ġsoutheast":10128,"Ġmargin":10129,"Ġ56":10130,"velt":10131,"Ġcurrently":10132,"'ll":10133,"production":10134,"Ġintensity":10135,"ĠConstitution":10136,"Simpson":10137,"HA":10138,"Ġevac":10139,"Ġcharts":10140,"264":10141,"pectives":10142,"%;":10143,"ĠĠčĊ":10144,"1952":10145,"Ġincreases":10146,"elligent":10147,"Ġobservations":10148,"Ġburied":10149,"Barb":10150,"Ġparad":10151,"Ġrear":10152,"Ġrecalled":10153,"colm":10154,"Fred":10155,"262":10156,"286":10157,"Ġpopulations":10158,"Ġtemplate":10159,"Original":10160,"Ġmulti":10161,"ĠLawrence":10162,"ĠWhe":10163,"ĠSteven":10164,"Ġdescribing":10165,"Blue":10166,"Ġsomew":10167,"Ġmel":10168,"Ġsecure":10169,"Ġfeeling":10170,"eness":10171,"279":10172,"Ġfacilities":10173,"ynomial":10174,"Ġpurchased":10175,"807":10176,"-[[":10177,"Eth":10178,"Ġsole":10179,"gressive":10180,"Ġdriver":10181,"aco":10182,"ĠLate":10183,"ĠAppro":10184,"Gram":10185,"Ġsupplies":10186,"ĠLyn":10187,"907":10188,"espread":10189,"Hot":10190,"ĠGilbert":10191,"ĠResults":10192,"Ġsemi":10193,"NASA":10194,"Ġles":10195,"ĠBat":10196,"flight":10197,"Ġinfantry":10198,"fantasy":10199,"ĠCour":10200,"ĠDNA":10201,"ĠRussell":10202,"olph":10203,"Ġretire":10204,"ankees":10205,"Rh":10206,"Ġkick":10207,"ĠOntario":10208,"ĠAffairs":10209,"Georgia":10210,"Ġsituations":10211,"Northern":10212,"pping":10213,"eby":10214,"009":10215,"Ġarts":10216,"istem":10217,"Ġeverything":10218,"crit":10219,"Space":10220,"Ġsoundtrack":10221,").{{":10222,"CF":10223,"ĠThough":10224,"Ġattached":10225,"Ġfeet":10226,"Shell":10227,"Ġconvinc":10228,"Harvard":10229,"Ġdaily":10230,"Ġmilit":10231,"299":10232,"ĠMes":10233,"ĠHop":10234,"ĠDick":10235,"Ġ1911":10236,"angers":10237,"ĠBiology":10238,"\";":10239,"Ġmo":10240,"ensed":10241,"331":10242,"enguin":10243,"Ġindicated":10244,"Ġrainfall":10245,"service":10246,"Halo":10247,"Ġmus":10248,"allas":10249,"upiter":10250,"Ġeffectively":10251,"Ġtrip":10252,"Lat":10253,"Ġload":10254,"Ġroughly":10255,"ĠGer":10256,"bc":10257,"Ġplane":10258,"Ak":10259,"River":10260,"ĠInterview":10261,"iche":10262,"ĠWright":10263,"quer":10264,"Ġpiano":10265,"Ġagree":10266,"Ġneither":10267,"387":10268,"Ġstands":10269,"ĠGreatest":10270,"CBS":10271,"Liber":10272,"ĠPrize":10273,"1948":10274,"Ġdelivered":10275,"ĠMess":10276,"Ġproport":10277,"Ġcancer":10278,"chicag":10279,"Files":10280,"atra":10281,"Ġcoll":10282,"ĠIslam":10283,"Ġcontroversy":10284,"Ġ61":10285,"Ram":10286,"bach":10287,"Ġindependence":10288,"limited":10289,"Gary":10290,"1956":10291,"Ġreplace":10292,"mus":10293,"Ġtell":10294,"Ġpromotion":10295,"Ġgar":10296,"ĠFle":10297,"Ġ67":10298,"310":10299,"Games":10300,"MM":10301,"Ġbaseball":10302,"ĠShakespeare":10303,"Ġsixth":10304,"GameSpot":10305,"enesis":10306,"Ġdrawing":10307,"jun":10308,"rea":10309,"Ġmountain":10310,"ĠRon":10311,"806":10312,"linear":10313,"ĠPeters":10314,"also":10315,"lein":10316,"Ġsnow":10317,"1949":10318,"rices":10319,"Ġundert":10320,"Pa":10321,"teenth":10322,"Ġassert":10323,"Marsh":10324,"ĠMu":10325,"ĠRace":10326,"Ġphenomenon":10327,"opter":10328,"athers":10329,"Ġoutput":10330,"Just":10331,"Ġpoll":10332,"irmingham":10333,"Ġparties":10334,"Record":10335,"hang":10336,"Ġsqu":10337,"Ġfashion":10338,"Ġexists":10339,"908":10340,"Ġarranged":10341,"Ga":10342,"icide":10343,"ĠOur":10344,"Ġcars":10345,"Ġ85":10346,"Ġmanuscript":10347,"tri":10348,"fff":10349,"rapped":10350,"editer":10351,"blue":10352,"285":10353,"auer":10354,"Ġrenamed":10355,"umn":10356,"Ġrelief":10357,"ĠInteractive":10358,"Ba":10359,"268":10360,"insula":10361,"Ġroads":10362,"Fin":10363,"uity":10364,"itarian":10365,"ĠType":10366,"Ġerupt":10367,"Ġ87":10368,"Ġsuperior":10369,"604":10370,"Ġ}}.":10371,"Murray":10372,"wiki":10373,"Ġdecre":10374,"Ġrepresents":10375,"Bruce":10376,"ĠSons":10377,"ĠEle":10378,"ounces":10379,"Ġbird":10380,"316":10381,"Victor":10382,"uton":10383,"ĠBerg":10384,"Aud":10385,"Ġment":10386,"ĠHorse":10387,"Ġ>":10388,"Ġ1931":10389,"ĠPlanet":10390,"Ġ1905":10391,"358":10392,"ĠSupreme":10393,"Ġiron":10394,"ĠBetween":10395,"next":10396,"Ġdifficulty":10397,"Land":10398,"ĠJoe":10399,"ashville":10400,"Ð»":10401,"Ġbrown":10402,"istered":10403,"raf":10404,"Ancient":10405,"ignore":10406,"Ġsupposed":10407,"Ġmoder":10408,"Ġphoto":10409,"Ġstimuli":10410,"ĠMA":10411,"ĠEst":10412,"eception":10413,"Victoria":10414,"905":10415,"ĠAlan":10416,"editerranean":10417,".]":10418,"platform":10419,"Ġzero":10420,"Saxon":10421,"mind":10422,"Ġreception":10423,"ĠNetherlands":10424,"Ġorientation":10425,"ĠGarden":10426,"iameter":10427,"Ġmathematical":10428,"Ġmamm":10429,"ensor":10430,"urrency":10431,"Pennsylvania":10432,"Ġdig":10433,"rypt":10434,"ahl":10435,"Ġlicense":10436,"union":10437,"ĠFried":10438,"UC":10439,"ĠDem":10440,"query":10441,"Ġoccupied":10442,"raser":10443,"spot":10444,"302":10445,"Ġarmor":10446,"Ġspirit":10447,"mail":10448,"Ġtick":10449,"Ġretained":10450,"ugar":10451,"ĠExt":10452,"Ġpromote":10453,"Ġbowling":10454,"Ġ97":10455,"Ġdriving":10456,"NS":10457,"flo":10458,"Ġaired":10459,"Ġorbit":10460,"808":10461,"Soviet":10462,"owered":10463,"Campbell":10464,"Banner":10465,"rooms":10466,"Ġratio":10467,"gif":10468,"sect":10469,"Ġabilities":10470,"Germany":10471,"Ġdomain":10472,"337":10473,"Ġactress":10474,"ĠLead":10475,"great":10476,"579":10477,"Der":10478,"hit":10479,"Ġinstruction":10480,"EA":10481,"rant":10482,"ĠWeather":10483,"Ġextremely":10484,"Box":10485,"Ul":10486,"Ġ{":10487,"Ġpainted":10488,"agers":10489,"ributes":10490,"Afric":10491,"Ġneutral":10492,"EP":10493,"ania":10494,"805":10495,"millan":10496,"ĠMovie":10497,"ecticut":10498,"table":10499,"ĠLev":10500,"297":10501,"Han":10502,"inte":10503,"Ġtrains":10504,"Ġready":10505,"losed":10506,"Ġitem":10507,"relim":10508,"Ġelse":10509,"Ġpure":10510,"iko":10511,"809":10512,"ĠAdam":10513,"operat":10514,"CP":10515,"maps":10516,"Ġsave":10517,"ĠLieutenant":10518,"ĠGuard":10519,"Ġlands":10520,"ĠEvery":10521,"Ġmyth":10522,"ĠDepression":10523,"ĠSecurity":10524,"Harris":10525,"ynamics":10526,"emed":10527,"Ġ250":10528,"Ġinterested":10529,"ĠGuy":10530,"grade":10531,"Neur":10532,"504":10533,"Ġwins":10534,"Ġcaught":10535,"ĠFord":10536,"olls":10537,"WA":10538,"immer":10539,"ĠBelg":10540,"Ġresponsibility":10541,"Golden":10542,"ennium":10543,"Ġratings":10544,"ĠBuck":10545,"Ġinteractions":10546,"Ġdefensive":10547,"Ġsolutions":10548,"Ġbattleships":10549,"Captain":10550,"Ġrecommended":10551,"ĠMarshall":10552,"xx":10553,"ĠAustria":10554,"ĠGallery":10555,"::::":10556,"Ġpersu":10557,"Rockwell":10558,"Greek":10559,"arious":10560,"Columbia":10561,"later":10562,"Ġbed":10563,"Ġdress":10564,"Ġath":10565,"Ġrates":10566,"ofi":10567,"356":10568,"ĠâĪĴ":10569,"Hen":10570,"1940":10571,"deg":10572,"mathrm":10573,"ĠLow":10574,"265":10575,"Imperial":10576,"Ġwidespread":10577,"fight":10578,"276":10579,"ĠLiterature":10580,"attempted":10581,"Single":10582,"Ġconsecutive":10583,"Mu":10584,"atz":10585,"conscious":10586,"Spec":10587,"FFF":10588,"ĠObserv":10589,"!|":10590,"ĠIr":10591,"Ġdecor":10592,"Ġdispl":10593,"aeological":10594,"Ġposter":10595,"Certification":10596,"Ġ1926":10597,"1900":10598,"oking":10599,"ĠReal":10600,"Ġheads":10601,"Ġadministr":10602,"Ġuniverse":10603,"Ġfamiliar":10604,"Syn":10605,"Ġ59":10606,"Ġrecip":10607,"Ġchanging":10608,"Ġtorpedo":10609,"Ġdrew":10610,"anime":10611,"1947":10612,"ĠDean":10613,"Ġproducers":10614,"yrus":10615,"Ġprecip":10616,"director":10617,"Tor":10618,"ĠSection":10619,"Ġabsence":10620,"prison":10621,"Ġpopularity":10622,"cbignore":10623,"ĠCognitive":10624,"906":10625,"Ġoffers":10626,"ittsburgh":10627,"idal":10628,"ĠWis":10629,"]])<":10630,"iggest":10631,"onymous":10632,"Ġcruiser":10633,"Ġcorrelation":10634,"Ġdepos":10635,"Ġpassage":10636,"Ġbirths":10637,"Ġconverted":10638,"Research":10639,"ĠRecreation":10640,"itzerland":10641,"orname":10642,"Most":10643,"ĠMove":10644,"ĠWol":10645,"Ġparticipated":10646,"operatorname":10647,"amazon":10648,"Ġlists":10649,"Ġtexts":10650,"Ġcategories":10651,"ĠFuture":10652,"Ġturns":10653,"personal":10654,"su":10655,"ceptual":10656,"named":10657,"opin":10658,"antly":10659,"osevelt":10660,"iens":10661,"planet":10662,"Ġveloc":10663,"Ġgrounds":10664,"TM":10665,"req":10666,"coord":10667,"brain":10668,"Ġsimult":10669,"lotte":10670,"ĠImage":10671,"Ġbowl":10672,"ented":10673,"herald":10674,"Ġanniversary":10675,"Ġmounted":10676,"Direct":10677,"Family":10678,"Head":10679,"ĠCur":10680,"ĠMedical":10681,"names":10682,"Stand":10683,"ĠExpl":10684,"central":10685,"lamb":10686,"LE":10687,"aser":10688,"Ġhour":10689,"ems":10690,"Ġwarfare":10691,"Äį":10692,"ĠTrad":10693,"Ġfeelings":10694,"1912":10695,"imensions":10696,"335":10697,"242":10698,"ĠAnne":10699,"Ġsurvived":10700,"Ġunderstood":10701,"essions":10702,"Ġteaching":10703,"/#":10704,"ĠFrederick":10705,"statistics":10706,"Ġdepicted":10707,"NHL":10708,"conn":10709,"Ġcrossing":10710,"Ġindicates":10711,"Brand":10712,"Cro":10713,"Ġteeth":10714,"Ġminister":10715,"Ġguest":10716,"ĠTrail":10717,"ĠSteve":10718,"oenix":10719,"kinson":10720,"through":10721,"ĠCA":10722,"289":10723,"Ġdecline":10724,"Lev":10725,"fil":10726,"earson":10727,"Ġadaptation":10728,"Ġstopped":10729,"DB":10730,"241":10731,"Ġproducing":10732,"rends":10733,"266":10734,"girl":10735,"nas":10736,"roadway":10737,"Ġconsistent":10738,"Ġessential":10739,"RC":10740,"ĠCru":10741,"Ġboats":10742,"Ġinstalled":10743,"ĠExp":10744,"Ġoccupation":10745,"aac":10746,"orpe":10747,"-\\":10748,"Ġtransition":10749,"Ġsucceeded":10750,"ĠLimited":10751,"Lyn":10752,"itations":10753,"Ġclimate":10754,"month":10755,"Ġunsuccessful":10756,"Ġdog":10757,"Ġflat":10758,"vs":10759,"sform":10760,"Neil":10761,"priority":10762,"Ġ1928":10763,"early":10764,"Ġhomes":10765,"Vis":10766,"cred":10767,"ĠHeart":10768,"Berg":10769,"icate":10770,"izen":10771,"Conf":10772,"Field":10773,"fair":10774,"icism":10775,"uez":10776,"ĠProceedings":10777,"Ġrequirements":10778,"ĠGolden":10779,"Ġurg":10780,"ierce":10781,"IM":10782,"Ġcrown":10783,"mathcal":10784,"Ġfine":10785,"Ġgay":10786,"ĠStewart":10787,"Ġerrors":10788,"education":10789,"Ġduty":10790,"Bell":10791,"Ġexit":10792,"inals":10793,"Ġ77":10794,"cre":10795,"ĠBeg":10796,"umed":10797,"sigma":10798,"iper":10799,"|'''<":10800,"ĠCritics":10801,"abri":10802,"ĠArgent":10803,"273":10804,"Windows":10805,"Ġ1925":10806,"amps":10807,"Anton":10808,"aneously":10809,"Ġ95":10810,"Ġnarrative":10811,"Ġnom":10812,"Lead":10813,"OP":10814,"1954":10815,"Ġ1906":10816,"udden":10817,"eu":10818,"mun":10819,"ĠGeorg":10820,"Ġconvention":10821,"Ġinterchange":10822,"Encyclopedia":10823,"Ġ1927":10824,"ocene":10825,"ustration":10826,"ĠAtl":10827,"Ġaccuracy":10828,"Nielsen":10829,"frame":10830,"allmusic":10831,"Ġgreatly":10832,"ĠConservation":10833,"analysis":10834,"ictory":10835,"*''":10836,"mac":10837,"iga":10838,"Ġcompla":10839,"Ġ68":10840,"Ġstimulus":10841,"Ġgraphics":10842,"ĠKim":10843,"Ġfly":10844,"Ġpartner":10845,"Ġexpand":10846,"Ġconsiderable":10847,"ghost":10848,"amas":10849,"ĠNFL":10850,"Imp":10851,"dimensional":10852,"ĠMorgan":10853,"Ġcreative":10854,"Ġestate":10855,"metry":10856,"Ġinfluential":10857,"Ġcustom":10858,"Ford":10859,"orient":10860,"scar":10861,"weather":10862,"?}}":10863,"HM":10864,"alty":10865,"isition":10866,"ĠBre":10867,"ophys":10868,"lication":10869,"Ġsentence":10870,"ĠCultural":10871,"Ġvent":10872,"338":10873,"before":10874,"eland":10875,"ĠFlo":10876,"Ġmanip":10877,"hollywood":10878,"consin":10879,"Ġhoriz":10880,"317":10881,"army":10882,"Ġinner":10883,"uber":10884,"ellar":10885,"Ġsettlement":10886,"quiry":10887,"bird":10888,"oft":10889,"Ġsoul":10890,"Ġfan":10891,"ĠBrand":10892,"Cyberpower":10893,"into":10894,"apole":10895,"388":10896,"retaceous":10897,"Ġfacilit":10898,"GA":10899,"Ġ120":10900,"ourses":10901,"lose":10902,"Ġ1908":10903,"Ġdream":10904,"emble":10905,">''']]":10906,"prom":10907,"ĠAk":10908,"ugal":10909,"Ġ76":10910,"Online":10911,"Ġcommentary":10912,"Ġmechanisms":10913,"heimer":10914,"Ġsympt":10915,"Ross":10916,"ivery":10917,"Ġapart":10918,"Alfred":10919,"beam":10920,"Ġfinish":10921,"ranchise":10922,"ĠBulletin":10923,"nu":10924,"Ġ63":10925,"Ġprotected":10926,"prev":10927,"ĠFaQ":10928,"FaQs":10929,"cond":10930,"Ġcommit":10931,"Ġdeclined":10932,"Ġseat":10933,"Another":10934,"NBC":10935,"ulner":10936,"emale":10937,"1936":10938,"385":10939,"909":10940,"hattan":10941,"ĠKnight":10942,"296":10943,"lob":10944,"Why":10945,"Ġvessels":10946,"\"|[[":10947,"ĠMotor":10948,")]":10949,"Code":10950,"Women":10951,"ĠPremier":10952,"Ġ1932":10953,"ĠOS":10954,"ĠAges":10955,"ĠExperimental":10956,"\":":10957,"Ġ1909":10958,"oples":10959,"hyd":10960,"Ġ62":10961,"Ġweapon":10962,"TR":10963,"riculture":10964,"philosophy":10965,"GE":10966,"Now":10967,"ĠWing":10968,"obi":10969,"288":10970,"Ġkingdom":10971,"rate":10972,"263":10973,"287":10974,"ĠAlb":10975,"Ġelectron":10976,"/_":10977,"Latin":10978,"cling":10979,"Ġanyone":10980,"ĠAsian":10981,"pag":10982,"oker":10983,"ĠStories":10984,"Ġscheme":10985,"251":10986,"uller":10987,"Ġseconds":10988,"Ġmathematics":10989,"ĠDom":10990,"Ġdepending":10991,"...]":10992,"Ġmedieval":10993,"Ġfunding":10994,"monospace":10995,"Ġinhab":10996,"ĠOpp":10997,"Ġdemocr":10998,"Equ":10999,"ĠDu":11000,"erner":11001,"Lady":11002,"Su":11003,"effect":11004,"ĠLetters":11005,"oven":11006,"Ġdoor":11007,"iration":11008,"ĠMorning":11009,"acted":11010,"339":11011,"Toronto":11012,"Ġfresh":11013,"offrey":11014,"Ġsolo":11015,"VP":11016,"andal":11017,"ĠOnce":11018,"ĠIndies":11019,"Ġrepresenting":11020,"Lake":11021,"Ġaccompl":11022,"Jos":11023,"hus":11024,"ĠMachine":11025,"\">([[":11026,"darkgrey":11027,"ĠQuarterly":11028,"eus":11029,"Third":11030,"ĠIllustrated":11031,"Ġ72":11032,"Ġil":11033,"ĠSS":11034,"Ġanch":11035,"ipper":11036,"angle":11037,"Ġexplanation":11038,"Wel":11039,"ĠSky":11040,"Ġ1923":11041,"range":11042,"wart":11043,"Ġcooper":11044,"Ġdecade":11045,"ĠEgyptian":11046,"Sym":11047,"ĠMyst":11048,"ĠJacob":11049,"Ġpractical":11050,"aggreg":11051,"Ur":11052,"ÃĹ":11053,"Ġsure":11054,"Ġ1929":11055,"orne":11056,"Ġcorner":11057,"201210":11058,"Ġreplacement":11059,"yth":11060,"castle":11061,"Russell":11062,"animenews":11063,"Amazon":11064,"ĠSon":11065,"Ġec":11066,"auge":11067,"animenewsnetwork":11068,"acked":11069,"Ġyes":11070,"Ġreturns":11071,"Ġemployees":11072,"ĠDefense":11073,"WR":11074,"ĠSilver":11075,"ĠDC":11076,"298":11077,"Ġcrime":11078,"Ġadapted":11079,"Ġaccurate":11080,"cross":11081,"Äĥ":11082,"erx":11083,"ingly":11084,"ĠTalk":11085,"Ġneighbor":11086,"ĠEnvironmental":11087,"umi":11088,"Ġseek":11089,"Dutch":11090,"original":11091,"Ġhydro":11092,"ĠEqu":11093,"Ġconsult":11094,"writing":11095,"ĠLinux":11096,"315":11097,"omorph":11098,"Ġhired":11099,"ĠRacing":11100,"Ġinfluences":11101,"Ġvector":11102,"Ġsurrounded":11103,"ea":11104,"mg":11105,"Ġobtain":11106,"Ġmaintenance":11107,"Search":11108,"olia":11109,"Ġeasy":11110,"ders":11111,"Ġfract":11112,"ieth":11113,"colla":11114,"359":11115,"Sydney":11116,"uri":11117,"0022":11118,"ĠParker":11119,"Ġclubs":11120,"five":11121,"ĠHindu":11122,"inite":11123,"orce":11124,"landers":11125,"Ġzone":11126,"ĠBradman":11127,"Cre":11128,"liter":11129,"oa":11130,"Ġchildhood":11131,"Ġfunds":11132,"Cognitive":11133,"ĠGriff":11134,"457":11135,"Ġnovels":11136,"building":11137,"sj":11138,"olly":11139,"ĠShel":11140,"standard":11141,"bill":11142,"atlantic":11143,"1919":11144,"Ġgal":11145,"ĠStock":11146,"Ġdeleg":11147,"techn":11148,"Ġresponded":11149,"ĠEconomic":11150,"Ġbattery":11151,"ĠChannel":11152,"Track":11153,"baum":11154,"ĠClassic":11155,"inea":11156,"ibn":11157,"Ġspot":11158,"Bal":11159,"Ġconve":11160,"Ġbass":11161,"rowing":11162,"Ġyield":11163,"ĠOrig":11164,"Ġmerg":11165,"awm":11166,"Ġtermin":11167,"Ġsounds":11168,"itual":11169,"ĠNorman":11170,"Ġvac":11171,"keleton":11172,"dates":11173,"Ġconsisting":11174,"Foot":11175,"VI":11176,"grand":11177,"Ġcold":11178,"Ġbiological":11179,"Ġprisoners":11180,"ĠTower":11181,"Ġ1924":11182,"uerto":11183,">)":11184,"irical":11185,"lossary":11186,"ĠCollins":11187,"Oregon":11188,"Ġscores":11189,"ando":11190,"Ġpurposes":11191,"Ġdisag":11192,"Lex":11193,"three":11194,"ĠOffic":11195,"\"),":11196,"Ġdensity":11197,"Ġrevol":11198,"multiple":11199,")^":11200,"Ġtall":11201,"ĠGiants":11202,"Ġcomputers":11203,"built":11204,"Ġpermanent":11205,"318":11206,"apps":11207,"ĠThen":11208,"£o":11209,"enberg":11210,"istent":11211,"ĠIraq":11212,"Ã©n":11213,"ĠAustralians":11214,"Ġnorthwest":11215,"ĠSelf":11216,"usal":11217,"eling":11218,"events":11219,"Ġalgorithm":11220,"Cross":11221,"SL":11222,"Ġmaps":11223,"Ġassign":11224,"oses":11225,"ĠKh":11226,"Ġutil":11227,"Many":11228,"rup":11229,"Ġspecimen":11230,"Ġstrategic":11231,"Ġhits":11232,"ĠDatabase":11233,"ĠProduct":11234,"Films":11235,"ygen":11236,"ĠSign":11237,"issues":11238,"Ġfilming":11239,"ĠPolicy":11240,"Ġbenefit":11241,"Ġwinners":11242,"Ġ74":11243,"Ġinjured":11244,"laration":11245,"Italian":11246,"ĠSweden":11247,"anne":11248,"Ġcrisis":11249,"Ġhier":11250,"eber":11251,"Ġspons":11252,"Ġsell":11253,"Ġrecovered":11254,"Ġcomic":11255,"Ġsky":11256,"Howard":11257,"ĠLost":11258,"Ġengines":11259,"401":11260,"283":11261,"ĠView":11262,"estine":11263,"logen":11264,"Ġclean":11265,"ĠPast":11266,"ĠEur":11267,"Ġroots":11268,"Ġaccused":11269,"tre":11270,"'';":11271,"Ġaboard":11272,"Ġinterests":11273,"ĠGray":11274,"0001":11275,"Ġflooding":11276,"sqrt":11277,"Ġcatch":11278,"Carol":11279,"physical":11280,"Disc":11281,"ĠInvest":11282,"Ġchampion":11283,"ĠArizona":11284,"ĠWolf":11285,"deep":11286,"Ġ1890":11287,"Kal":11288,"Live":11289,"Ġcredited":11290,"Patrick":11291,"Ca":11292,"ĠBol":11293,"vironments":11294,"Od":11295,"cz":11296,"ĠYugos":11297,"Ġimpossible":11298,"ermin":11299,"arriage":11300,"restle":11301,"ĠOpera":11302,"ĠNintendo":11303,"annot":11304,"Ġaudio":11305,".),":11306,"Ott":11307,"1086":11308,"Ġchain":11309,"Ġlasted":11310,"ĠSearch":11311,"Ġhousehold":11312,"Ġprincipal":11313,"Ġinfer":11314,"355":11315,"ĠRelations":11316,"Josh":11317,"cdot":11318,"Ġthousands":11319,"=\\":11320,"Ġpron":11321,"Ġnucle":11322,"ĠMas":11323,"abin":11324,"804":11325,"Frederick":11326,"ĠSn":11327,"1917":11328,"ocks":11329,"Ġexpert":11330,"Ġtreated":11331,"ĠBase":11332,"only":11333,"ĠKings":11334,"Ġusage":11335,"Ġsteel":11336,"aphys":11337,"IF":11338,"Ġpriv":11339,"Ġ69":11340,"Ġgenetic":11341,"ĠKorean":11342,"cart":11343,"Ġ1907":11344,"shaped":11345,"ĠCommunications":11346,"Ġsailed":11347,"tit":11348,"openurl":11349,"Percentage":11350,"Ġarguments":11351,"historic":11352,"Yes":11353,"Ġduties":11354,"ĠGet":11355,"urches":11356,"Ġhope":11357,"Ġ73":11358,"commission":11359,"appy":11360,"Ġpurchase":11361,"Ġrequested":11362,"taylor":11363,"osm":11364,"Ġsubmarine":11365,"nought":11366,"ibraries":11367,"Florida":11368,"Ġvariation":11369,"Ġunusual":11370,"ĠNelson":11371,"seud":11372,"Moore":11373,"ĠEvent":11374,"states":11375,"outs":11376,"Ġassessment":11377,"Ġhappened":11378,"EB":11379,"Mount":11380,"kan":11381,"ĠKa":11382,"issipp":11383,"medium":11384,"Ġexecution":11385,"Ġcontribution":11386,"336":11387,"Sci":11388,"Background":11389,"Cas":11390,"Ġ''[":11391,"phant":11392,"matrix":11393,"Design":11394,"Ġdiagram":11395,"bass":11396,"urd":11397,"Ġreverse":11398,"Ġapproached":11399,"Ġsurviving":11400,"Ĩthel":11401,"Ġremove":11402,"Ġfilmed":11403,"bean":11404,"readnought":11405,"Democratic":11406,"resources":11407,"prot":11408,"Spring":11409,"aints":11410,"sche":11411,"ĠActress":11412,"svc":11413,"Week":11414,"Ġlock":11415,"ĠTal":11416,"ĠRyan":11417,"arlie":11418,"Ġ78":11419,"elaide":11420,"ĠLaboratory":11421,"ju":11422,"1910":11423,"ĠParalymp":11424,"Ġsat":11425,"ĠAuthority":11426,"Ġantic":11427,"ĠBrain":11428,"Ġideal":11429,"ĠPortland":11430,"ueensland":11431,"ĠDue":11432,"Ġresemb":11433,"Ġvertical":11434,"usch":11435,"Ġvice":11436,"ĠPalace":11437,"Ġlies":11438,"261":11439,"ernatural":11440,"Ġtopic":11441,"Ġplatforms":11442,"lane":11443,"Ġchemical":11444,"istant":11445,"Ġ360":11446,"ĠCommons":11447,"iop":11448,"Ġtal":11449,"Ġdry":11450,"Ġcool":11451,"Ġvolunte":11452,"Ġdegrees":11453,"Ot":11454,"Ġfilled":11455,"ĠMack":11456,"Ġroutes":11457,"ylan":11458,"Ġcharged":11459,"Serv":11460,"ocked":11461,"onal":11462,"ĠRa":11463,"Stanley":11464,"Ġalcohol":11465,"oyage":11466,"Season":11467,"Federal":11468,"ĠDet":11469,"Ã©s":11470,"Ġparameters":11471,"Ġscheduled":11472,"IFA":11473,"wind":11474,"Ġtrained":11475,"ĠWhy":11476,"thodox":11477,"BO":11478,"garia":11479,"Lawrence":11480,"Ġpredecessor":11481,"oor":11482,"Ġtube":11483,"294":11484,"Ġdistinction":11485,"mdash":11486,"iem":11487,"Ġmir":11488,"essment":11489,"704":11490,"lists":11491,"Order":11492,"enton":11493,"InfoWeb":11494,"Ġfunctional":11495,"Television":11496,"nbc":11497,"ynamic":11498,"Ġnomination":11499,"xiety":11500,"Ġpoetry":11501,"cÃ©":11502,"1922":11503,"ĠFederation":11504,"profile":11505,"Ġ82":11506,"Ġsteps":11507,"League":11508,"Ġgradually":11509,"ĠMelbourne":11510,"Self":11511,"god":11512,"ĠCE":11513,"ellor":11514,"iency":11515,"parks":11516,"iang":11517,"Ġassistance":11518,"Ġconsciousness":11519,"urer":11520,"Ġplate":11521,"listed":11522,"Ġexercise":11523,"smith":11524,"á»":11525,"inian":11526,"Ġlatest":11527,"ĠMun":11528,"ĠRose":11529,"ĠMinnesota":11530,"Ġvar":11531,"Ġoutcome":11532,"olymp":11533,"ĠHen":11534,"Ġassemb":11535,"Ġcert":11536,"olumes":11537,"Ġlayer":11538,"bedded":11539,"Ġenjoyed":11540,"Ġconstitution":11541,"omson":11542,"ucl":11543,"Ġintens":11544,"India":11545,"Ġseparated":11546,"Ġclearly":11547,"aggregated":11548,"faces":11549,"Ġminute":11550,"Ġskin":11551,"epler":11552,"Ġheat":11553,"Newspapers":11554,"ubs":11555,"ĠHospital":11556,"terbury":11557,"ensen":11558,"ĠTrade":11559,"ĠWalker":11560,"ĠEric":11561,"Ġcontest":11562,"Show":11563,"Ġthreatened":11564,"idi":11565,"iman":11566,"ensions":11567,"Ġevening":11568,"Ġmassive":11569,"':":11570,"bg":11571,"olute":11572,"ĠWiley":11573,"oshi":11574,"rake":11575,"ĠUsing":11576,"ĠPhilipp":11577,"ĠFund":11578,"Ġdepartment":11579,"Ġbehaviors":11580,"284":11581,"ĠColonel":11582,"Ġoperator":11583,"ĠChristopher":11584,"Ġbattalion":11585,"Dick":11586,"Ġarrangement":11587,"rust":11588,"itoring":11589,"ĠNorm":11590,"His":11591,"icial":11592,"Ġpapers":11593,"asi":11594,"1006":11595,"393":11596,"community":11597,"Ġlisting":11598,"Ġturning":11599,"Ġiniti":11600,"Ġobjective":11601,"Ġfundamental":11602,"BannerShell":11603,"basketball":11604,"Ġwarm":11605,"Ġclassified":11606,"Ġoperate":11607,"WikiProjectBannerShell":11608,"Burn":11609,"Jason":11610,"Ġovert":11611,"ĠPatt":11612,"Ġconnect":11613,"Ġcirculation":11614,"Ġlegislation":11615,"ĠFriend":11616,"Ġvoted":11617,"annes":11618,"lington":11619,"ĠIndians":11620,"Ġprinted":11621,"TD":11622,"Ãī":11623,"Ġmanga":11624,"ĠFederal":11625,"Ġ81":11626,"ĠScientific":11627,"Ġdesignation":11628,"Ġtemporary":11629,"ruption":11630,"ĠEdwards":11631,"Ġillness":11632,"ĠHandbook":11633,"1913":11634,"Ġstret":11635,"uced":11636,"ampshire":11637,"Ġagents":11638,"ĠTraining":11639,"unning":11640,"Ġcorresponding":11641,"Sol":11642,"ello":11643,"ĠFac":11644,"Ġreserve":11645,"issippi":11646,"1921":11647,"raits":11648,"Interview":11649,"Ġboundary":11650,"Ġshooting":11651,"nihongo":11652,"Ġwinner":11653,"ĠWard":11654,"345":11655,"Since":11656,"Ġsale":11657,"Ġdiameter":11658,"ĠDesc":11659,"Ġcloser":11660,"200709":11661,"Ġtranslated":11662,"Nov":11663,"ulu":11664,"ewhere":11665,"ĠBurn":11666,"ĠUniversal":11667,"904":11668,"Ġcommitted":11669,"arring":11670,"dvd":11671,"Dem":11672,"Knight":11673,"ĠTitle":11674,"ĠWells":11675,"Ġ99":11676,"Ġmoves":11677,"Ġregularly":11678,".'":11679,"brown":11680,"Ġinterior":11681,"ducer":11682,"ederate":11683,"Benjamin":11684,"Summary":11685,"]].]]":11686,"Anal":11687,"xbox":11688,"Ġtomb":11689,"geon":11690,"Ġneck":11691,"ĠPed":11692,"ĠLu":11693,"elesc":11694,"ulum":11695,"Ġtransformation":11696,"omo":11697,"ĠContin":11698,"Government":11699,"Mr":11700,"heart":11701,"Ġscen":11702,"272":11703,"roe":11704,"Ġstatue":11705,"Team":11706,"atalogue":11707,"igate":11708,"ĠDance":11709,"orted":11710,"Ġcultures":11711,"Rand":11712,"esse":11713,"emies":11714,"Ġsustained":11715,"Ġdipl":11716,"ĠHans":11717,"Ġmarketing":11718,"lovak":11719,"Ġoperational":11720,"Ġcompletion":11721,"Ġacknowled":11722,"311":11723,"ĠLook":11724,"ifts":11725,"Chief":11726,"anka":11727,"375":11728,"]]\".":11729,"Ġdoubt":11730,"rystal":11731,"Natural":11732,"dt":11733,"atche":11734,"utra":11735,"arius":11736,"Ġstatements":11737,"ĠMuslim":11738,"won":11739,"Ġtaught":11740,"Ġinvolvement":11741,"Ġoldest":11742,"Ġchoose":11743,"Ġphrase":11744,"onian":11745,"ĠSR":11746,"ĠBurg":11747,"Ġdollars":11748,"lahoma":11749,")\"":11750,"Gordon":11751,"Ġincome":11752,"lost":11753,"Ġvotes":11754,"Ġspecimens":11755,"Ġdisplayed":11756,"division":11757,"wAAQBAJ":11758,"1915":11759,"ambig":11760,"Ġpreferred":11761,"sigfig":11762,"Featured":11763,"Biography":11764,"Parks":11765,"Ġsons":11766,"Ġcomments":11767,"called":11768,"father":11769,"Ġsight":11770,"Ġstable":11771,"Ġrecommend":11772,"tty":11773,"ĠOd":11774,"ĠResources":11775,"Ġconvoy":11776,"Ġinterface":11777,"Ġbought":11778,"Ġ71":11779,"eseerx":11780,"SC":11781,"Ġtag":11782,"ĠAction":11783,"area":11784,"object":11785,"334":11786,"Ġbatting":11787,"Medal":11788,"british":11789,"dig":11790,"ĠHell":11791,"inks":11792,"aura":11793,"Paris":11794,"gom":11795,"Ġfestival":11796,"Ġdating":11797,"tense":11798,"Liverpool":11799,"kev":11800,"ĠRap":11801,"Ġ79":11802,"Ġvalley":11803,"ummit":11804,"zz":11805,"Ġadj":11806,"Ġregiment":11807,"Ġcircle":11808,"iott":11809,"rary":11810,"Swed":11811,"Cop":11812,"ĠHem":11813,"Ġprogramme":11814,"ĠHoly":11815,"Ġethics":11816,"staff":11817,"ĠCase":11818,"Ġmonument":11819,"ĠCommander":11820,"Ġsupporters":11821,"ĠPrint":11822,"ĠRoosevelt":11823,"314":11824,"Library":11825,"377":11826,"But":11827,"1951":11828,"endar":11829,"367":11830,"cdc":11831,"Americ":11832,"achel":11833,"pty":11834,"ĠTherefore":11835,"Ġbattles":11836,"Ġtargets":11837,"ĠMission":11838,"erves":11839,"Mariah":11840,"Fair":11841,"_{\\":11842,"nat":11843,"ubled":11844,"China":11845,"447":11846,"Ġtopics":11847,"Ġreinforce":11848,"Gro":11849,"Ġgod":11850,"Ġhearing":11851,"Ġspeaking":11852,"edding":11853,"ĠRain":11854,"Ġtested":11855,"Ġinstitutions":11856,"aton":11857,"lobe":11858,"ĠTrack":11859,"Ġatmosphere":11860,"ĠKelly":11861,"ĠAnthony":11862,"Ġquoted":11863,"Ġraise":11864,"Ġdeliber":11865,"ifferent":11866,"Ġlat":11867,"Ġ88":11868,"ĠTownship":11869,"fg":11870,"ĠEnix":11871,"NewsBank":11872,"located":11873,"ĠBenjamin":11874,"agger":11875,"aba":11876,"Ġprotest":11877,"mooth":11878,"Keith":11879,"anz":11880,"ĠSel":11881,"ĠGaga":11882,"Ġjudge":11883,"293":11884,"Water":11885,"ĠBeck":11886,"Quote":11887,"nps":11888,"1933":11889,"terprise":11890,"pri":11891,"tax":11892,"ĠFact":11893,"Ġabstract":11894,"Ġawareness":11895,"urance":11896,"1905":11897,"ĠRoberts":11898,"Ġaccomm":11899,"Ġcoeffic":11900,"incial":11901,"uum":11902,"ocus":11903,"Child":11904,"rastructure":11905,"Global":11906,"ä¸":11907,"ĠGa":11908,"Ġstrategies":11909,"Ġurban":11910,"ĠStars":11911,"uche":11912,"Ġdestruction":11913,"ĠOperations":11914,"Ġintegration":11915,"Ġorb":11916,"274":11917,"Software":11918,"estab":11919,"Ġsegment":11920,"idency":11921,"Î¿":11922,"Ġmob":11923,"television":11924,"izational":11925,"Story":11926,"Ġcontroversial":11927,"Gray":11928,"uable":11929,"aty":11930,"ĠChampions":11931,"fessor":11932,"ĠCer":11933,"pert":11934,"Album":11935,"ĠPruss":11936,"Ġcoordinates":11937,"esh":11938,"1923":11939,"Ġexposed":11940,"vy":11941,"ĠMusical":11942,"Ġgameplay":11943,"Ġbelt":11944,"specific":11945,"square":11946,"onial":11947,"Ġperiods":11948,"ocamp":11949,"reason":11950,"ethe":11951,"etta":11952,"oct":11953,"Slam":11954,"usters":11955,"402":11956,"icted":11957,"Wolf":11958,"ĠEight":11959,"Ġanswer":11960,"ĠCommonwealth":11961,"Ġsomewhat":11962,"international":11963,"1907":11964,"prov":11965,"Ġprofile":11966,".-":11967,"ĠFlying":11968,"nyt":11969,"ĠPA":11970,"Ġtowns":11971,"Ġincorporated":11972,"Kentucky":11973,"wy":11974,"Ġsignificance":11975,"Ġmechanics":11976,"Ġdelayed":11977,"010":11978,"Ġcovers":11979,"uris":11980,"collections":11981,"Ġwindow":11982,"sol":11983,"Ã¥":11984,"acent":11985,"ishment":11986,"actic":11987,"Rick":11988,"orb":11989,"itchen":11990,"Ġbiography":11991,"Ġroot":11992,"ĠPlant":11993,"Ġcircumstances":11994,"Pres":11995,"ivors":11996,"Ġhear":11997,"Ġfoundation":11998,"Ġobservation":11999,"ĠTrophy":12000,"Bre":12001,"ĠDor":12002,"legend":12003,"Ġfindings":12004,"Net":12005,"inces":12006,"Ġremainder":12007,"emen":12008,"Ġfacing":12009,"ĠBos":12010,"Ġlect":12011,"Ġspac":12012,"Ġextreme":12013,"ĠAnim":12014,"Ġouter":12015,"Ġsinging":12016,"rob":12017,"izer":12018,"Ġpatrol":12019,"ĠForeign":12020,"Test":12021,"ĠRAF":12022,"odo":12023,"486":12024,"Ġemotions":12025,"count":12026,"ĠCemetery":12027,"Ġrich":12028,"Ġversus":12029,"Ġbreaking":12030,"ĠIdent":12031,"cards":12032,"ners":12033,"adv":12034,"eps":12035,"]]||":12036,"Ġpolicies":12037,"Deb":12038,"BE":12039,"laimed":12040,"election":12041,"Ġfaces":12042,"Ġunivers":12043,"Ġpredicted":12044,"Ġimplementation":12045,"Bishop":12046,"ĠCode":12047,"1941":12048,"aze":12049,"Ġpointed":12050,"330":12051,"battle":12052,"Ġdeveloper":12053,"Union":12054,"ĠMedieval":12055,"Collins":12056,"illag":12057,"odge":12058,"evens":12059,"362":12060,"disp":12061,"Ġplanets":12062,"manack":12063,"Ġruled":12064,"tb":12065,"1908":12066,"ĠRen":12067,"ĠHorn":12068,"Ext":12069,"Ġeveryone":12070,"Ġsettled":12071,"oscow":12072,"ioneer":12073,"jhtml":12074,"Ġdim":12075,"ivism":12076,"Ġagency":12077,"ĠCathedral":12078,"Chen":12079,"Die":12080,"ĠDead":12081,"Introduction":12082,"Ġdivisions":12083,"Jun":12084,"ampton":12085,"ĠVIII":12086,"ĠBull":12087,"ustries":12088,"Ġbegun":12089,"Ġlooked":12090,"Ġpropag":12091,"Ġestablishment":12092,"ĠCop":12093,"ĠMaking":12094,"ĠKhan":12095,"render":12096,"|''[[":12097,"Ġspeak":12098,"Ġ*":12099,"''')":12100,"fox":12101,"Ġportrayed":12102,"Ġalleged":12103,"ocket":12104,"Ġexecuted":12105,"Sy":12106,"eda":12107,"Ġresolution":12108,"Ġnormally":12109,"Ġinstruments":12110,"why":12111,"ĠHarry":12112,"download":12113,"Kelly":12114,"igm":12115,"1944":12116,"Ġgiant":12117,"anyon":12118,"Dam":12119,"LS":12120,"stance":12121,"berry":12122,"computing":12123,"recap":12124,"Ġinformed":12125,"entle":12126,"etry":12127,"ĠStef":12128,"Ġ84":12129,"ceptions":12130,"inguished":12131,"Ġdismissed":12132,"Corn":12133,"Ġhosted":12134,"Ġexposure":12135,"Us":12136,"mb":12137,"292":12138,"songs":12139,"Ġemerged":12140,"ĠMach":12141,"ĠRepresentatives":12142,"/[[":12143,"gener":12144,"ricketer":12145,"Ġnations":12146,"Ġda":12147,"Ġacceler":12148,"hematic":12149,"Ġpaintings":12150,"ĠMadagascar":12151,"onomous":12152,"Ġattracted":12153,"ĠTrek":12154,"Ġpup":12155,"ĠNation":12156,"Conn":12157,"Ġpeaked":12158,"Ġselling":12159,"ĠAround":12160,"Anglo":12161,"Clarke":12162,"Ġapparently":12163,"Ġthrone":12164,"700":12165,"Bibliography":12166,"stanford":12167,"Ġsymp":12168,"ĠPicture":12169,"Ġrecordings":12170,"Ġefficient":12171,"Ġarrested":12172,"igs":12173,"ibbean":12174,"Ã¶n":12175,"323":12176,"ĠUnit":12177,"Convert":12178,"Ġsynd":12179,"Ġsymptoms":12180,"lies":12181,"Ã«":12182,"ĠComics":12183,"Ġ[...]":12184,"labama":12185,"Ġbond":12186,"Ġ155":12187,"ĠRight":12188,"365":12189,"320":12190,"OW":12191,"ĠRand":12192,"Event":12193,"ĠLam":12194,"Ġ96":12195,"Ġtherapy":12196,"ĠLang":12197,"282":12198,"Ġestimate":12199,"Ġexactly":12200,"},":12201,"ĠSmall":12202,"uality":12203,"symbol":12204,"TI":12205,"ricultural":12206,"448":12207,"Sand":12208,"wright":12209,"Ġ=[[":12210,"ĠFlight":12211,"Ġissn":12212,"players":12213,"Ġbelieves":12214,"ĠYankees":12215,"pedition":12216,"Ġconfig":12217,"1916":12218,"market":12219,"ãĥ¼ãĥ":12220,"Ġsend":12221,"Ġdimensions":12222,"ĠBird":12223,"Ġseemed":12224,"Ġspin":12225,"Ġcriminal":12226,"gomery":12227,"anche":12228,"avor":12229,"Ä«":12230,"virt":12231,"ĠMatt":12232,"ĠHills":12233,"Ġretreat":12234,"Ġsimpl":12235,"Ġhoped":12236,"Ġ'''''":12237,"aiwan":12238,"ĠAdditionally":12239,"ĠMercury":12240,"BR":12241,"Ġwear":12242,"ĠNixon":12243,"esty":12244,"aptic":12245,"ĠMorrison":12246,"ĠTennessee":12247,"musician":12248,"Ġprecipitation":12249,"|}}":12250,"ĠApollo":12251,"Ġ1903":12252,"aleont":12253,"ĠCapital":12254,"?\"":12255,"amma":12256,"asian":12257,"ĠJoh":12258,"Ġsortable":12259,"amount":12260,"ĠAp":12261,"Ġcharges":12262,"ĠAstro":12263,"Ġreward":12264,"phere":12265,"Ġdoesn":12266,"ĠRhodes":12267,"Ġvessel":12268,"ashire":12269,"ĠHero":12270,"hlist":12271,"lough":12272,"20121":12273,"aturday":12274,"ĠWikipedia":12275,"ĠBra":12276,"Ġinterpreted":12277,"ĠRick":12278,"Ġdiff":12279,"Ġgrant":12280,"ĠHotel":12281,"mtx":12282,"tz":12283,"Ġbones":12284,"ĠJud":12285,"endment":12286,"energy":12287,"ĠMaria":12288,"Interstate":12289,"ĠFalls":12290,"Ġbenefits":12291,"Ġencouraged":12292,"Ġfictional":12293,"nolds":12294,"Ġnotion":12295,"Department":12296,"lambda":12297,"ĠPersonality":12298,"Ġbrand":12299,"Ġtraits":12300,"Ġexplains":12301,"ĠURLs":12302,"Care":12303,"otton":12304,"ublin":12305,"ugo":12306,"developer":12307,"Angel":12308,"520":12309,"Despite":12310,"reston":12311,"Ġsuggesting":12312,"Ġmagnitude":12313,"Cook":12314,"Gi":12315,"nament":12316,"Ġcognition":12317,"Ġfossil":12318,"ĠKansas":12319,"Ġcolonial":12320,"Ã£o":12321,"Ġinhib":12322,"ĠText":12323,"ĠHold":12324,"mis":12325,"some":12326,"Ġindex":12327,"nav":12328,"ĠCond":12329,"erect":12330,"ĠConstruction":12331,"Ġrestored":12332,"ĠReference":12333,"Evans":12334,"Wisden":12335,"result":12336,"abstract":12337,"Ġedited":12338,"Ġpolitician":12339,"Seattle":12340,"Ġdifficulties":12341,"Ġmachines":12342,"ĠAld":12343,"Ġsuperv":12344,"ĠFranklin":12345,"tab":12346,"Î½":12347,"1937":12348,"control":12349,"Ġgoods":12350,"learning":12351,"Dor":12352,"Ġfaster":12353,"ĠBomb":12354,"Ġbear":12355,"Ġprime":12356,"Ġdesigner":12357,"Ġshore":12358,"Ġ83":12359,"Ġprovince":12360,"Ġidentification":12361,"Ġprofessor":12362,"ĠHunt":12363,"express":12364,"Ġformally":12365,"professional":12366,"ĠPlace":12367,"ĠDarwin":12368,"bet":12369,"Ġbillion":12370,"ĠPresent":12371,"iking":12372,"ĠTher":12373,"Ġattempting":12374,"Ġcommanded":12375,"Ġdenied":12376,"='''":12377,"sales":12378,"Ġfiring":12379,"Ġbes":12380,"Ġ1904":12381,"Ġpartially":12382,"ĠHarbor":12383,"Ġcomplexity":12384,"Ġsignals":12385,"Ġflex":12386,"1935":12387,"rena":12388,"Ġentitled":12389,"Ġeducational":12390,"Ġromantic":12391,"Ġblow":12392,"Ġrecru":12393,"Ġregression":12394,"Ġadvice":12395,"Ġ89":12396,"Ġseventh":12397,"Graham":12398,"Jane":12399,"nan":12400,"''&":12401,"ĠRest":12402,"Ġclassic":12403,"Ġseeing":12404,"fiction":12405,"ĠCrown":12406,"Ġ101":12407,"olished":12408,"Professional":12409,"Ġpolynomial":12410,"Ġchairman":12411,"annotated":12412,"Earth":12413,"ĠChen":12414,"stars":12415,"Ġfruit":12416,"1906":12417,"ĠDavies":12418,"Ġseeking":12419,"penter":12420,"etown":12421,"ĠNick":12422,"ĠMcN":12423,"Ġcoverage":12424,"ĠAgainst":12425,"ischer":12426,"Ġvictims":12427,":\"":12428,"TO":12429,"ĠGun":12430,"Ġ86":12431,"Empire":12432,"gau":12433,"icus":12434,"ilers":12435,"ĠTurner":12436,"Ġdeemed":12437,"Ġdownload":12438,"ĠDrive":12439,"Ġcrossed":12440,"Ġconsequences":12441,"had":12442,"ĠMars":12443,"ĠName":12444,"ĠCarter":12445,"urtis":12446,"Ġwarning":12447,"Karl":12448,"vision":12449,"Ġrenew":12450,"ĠVoice":12451,"ĠMitchell":12452,"Ġwilling":12453,"Ġvelocity":12454,"=<":12455,"IBM":12456,"Ġspaces":12457,"Ġspatial":12458,"iary":12459,"uits":12460,"ĠBaltimore":12461,"ĠOri":12462,"Ġadmitted":12463,"Chart":12464,"ĠShaw":12465,"Whit":12466,"Ġinvited":12467,"TW":12468,"ĠPaper":12469,"ouses":12470,"Ġloyal":12471,"]]).<":12472,"affe":12473,"Indiana":12474,"Ġsuffering":12475,"Ġneurons":12476,"duces":12477,"Ġmessages":12478,"forced":12479,"Sem":12480,"walk":12481,"Ġicon":12482,"Development":12483,"Ġslowly":12484,"dx":12485,"fly":12486,"tor":12487,"vier":12488,"ĠPatrick":12489,"ĠKnowledge":12490,"Ġmales":12491,"ĠRidge":12492,"ovich":12493,"Ġenvironments":12494,"pdfs":12495,"Ġconvinced":12496,"eign":12497,"psy":12498,"irms":12499,"ĠBath":12500,"ĠNov":12501,"ĠNeuroscience":12502,"indiat":12503,"370":12504,"Ġtot":12505,"Ġretain":12506,"ĠMand":12507,"Ġ1901":12508,"Anne":12509,"Oct":12510,"Ê¼":12511,"1909":12512,"Ġcontributions":12513,"ĠReligion":12514,"CNN":12515,"ĠBernard":12516,"Kinley":12517,"1942":12518,"Ġstarts":12519,"Catholic":12520,"Ġmac":12521,"ĠConvention":12522,"memory":12523,"ĠPsychological":12524,"ND":12525,"Ġstored":12526,"viÄĩ":12527,"Ġ91":12528,"attered":12529,"Ġmissions":12530,"Ġcredit":12531,"Linux":12532,"yramid":12533,"HR":12534,"nr":12535,"1938":12536,"ĠLock":12537,"Ġconcrete":12538,"Hop":12539,"ateur":12540,"Ġgone":12541,"illes":12542,"Ġdocumentary":12543,"Ġhundreds":12544,"ĠKong":12545,"ĠVillage":12546,"Ġevil":12547,"Ġequipped":12548,"ĠCompanion":12549,"Baseball":12550,"Ġstood":12551,"Ġunf":12552,"labber":12553,"Mus":12554,"Turner":12555,"mel":12556,"Ġ110":12557,"ĠPle":12558,"Ġshop":12559,"offman":12560,"Ġreveals":12561,"inations":12562,"ĠWind":12563,"earth":12564,"Ġsuppress":12565,"asant":12566,"ĠBaker":12567,"Ġnegoti":12568,"ĠLic":12569,"Ġspoke":12570,"Ġengage":12571,"Cooper":12572,"ĠUpon":12573,"Spe":12574,"Ġcircuit":12575,"Ġhonour":12576,"Historical":12577,"there":12578,"Ġgram":12579,"ftin":12580,"Ġquad":12581,"Ġstatistical":12582,"ĠSecret":12583,"Ġped":12584,"Organ":12585,"ĠMurphy":12586,"Ġbone":12587,"ĠPred":12588,"354":12589,"ĠSpect":12590,"ãĤ¹":12591,"Ġunderlying":12592,"Ġbringing":12593,"san":12594,"ĠCost":12595,"again":12596,"ĠRol":12597,"ĠGround":12598,"Ġdependent":12599,"Ġvirtual":12600,"unist":12601,"ĠIowa":12602,"arta":12603,"Ġstructural":12604,"AU":12605,"Pope":12606,"find":12607,"oni":12608,"Ġserial":12609,"eyoncÃ©":12610,"DNB":12611,"Meg":12612,"bels":12613,"ĠLennon":12614,"rews":12615,"Sound":12616,"ema":12617,"raphic":12618,"irtual":12619,"322":12620,"Ġinjuries":12621,"Ġimagery":12622,"Ġpanel":12623,"pur":12624,"merce":12625,"Ġ94":12626,"Ġsymbols":12627,"Ġdeparture":12628,"Delta":12629,"mw":12630,"arity":12631,"Ġsunk":12632,"Ġexcess":12633,"Ġreaders":12634,"Ġcrash":12635,"Ġlooks":12636,"Ġoccasionally":12637,"Hub":12638,"Ġparliament":12639,"olve":12640,"aceae":12641,"Ġadjust":12642,"Ġreliable":12643,"lady":12644,"These":12645,"ĠDisney":12646,"ulsion":12647,"ĠJay":12648,"spy":12649,"interviews":12650,"Ġpreserved":12651,"Ġgirls":12652,"labbermouth":12653,"Es":12654,"women":12655,"eding":12656,"Ġdies":12657,"ĠIan":12658,"ĠArnold":12659,"interpret":12660,"Ġbalance":12661,"Ġsand":12662,"ĠPep":12663,"Ġanime":12664,"Total":12665,"Ġ|[[":12666,"rium":12667,"Ġcontribut":12668,"Ġapply":12669,"prob":12670,"ontal":12671,"radi":12672,"Ġstring":12673,"Ġlake":12674,"Christianity":12675,"Ġrarely":12676,"ĠSem":12677,"Ġphone":12678,"Ġidentical":12679,"Ã¶r":12680,"ambers":12681,"rieval":12682,"ĠCanal":12683,"Ġteacher":12684,"iday":12685,"Ġeg":12686,"458":12687,"ĠMcG":12688,"Hend":12689,"jud":12690,"ĠSu":12691,"agh":12692,"eward":12693,"ĠWy":12694,"ampire":12695,"ĠTerritory":12696,"SD":12697,"459":12698,"Ġposted":12699,"Light":12700,"civil":12701,"column":12702,"six":12703,"avia":12704,"ĠPlaces":12705,"Ġdomestic":12706,"Jud":12707,"fast":12708,"Ġkernel":12709,"minster":12710,"ĠGeological":12711,"Ġturret":12712,"reens":12713,"Ġserves":12714,"umberland":12715,"ifestyle":12716,"omi":12717,"Ġuniversal":12718,"naval":12719,"atem":12720,"Ġgather":12721,"ifier":12722,"Ġannounce":12723,"politician":12724,"inv":12725,"itis":12726,"elist":12727,"ĠPla":12728,"Ġmonarch":12729,"ĠMechan":12730,"needhelp":12731,";&":12732,"third":12733,"istot":12734,"ĠJordan":12735,"ĠUse":12736,"ĠAlternative":12737,"Ġdefine":12738,"PH":12739,"mate":12740,"Ġshall":12741,"Ġforming":12742,"warf":12743,"Ġcollaboration":12744,"Jay":12745,"government":12746,"uary":12747,"onomy":12748,"Ġregional":12749,"Ġdescent":12750,"aja":12751,"Ġpoison":12752,"Ġpartnership":12753,"395":12754,"Ġentering":12755,"ĠMissouri":12756,"Ġmush":12757,"ĠSource":12758,"metacritic":12759,"--------":12760,"Ġdistinguished":12761,"abet":12762,"Stanford":12763,"Ġenemies":12764,"ihood":12765,"Ġethnic":12766,"inees":12767,"Ġ1870":12768,"Ġthoughts":12769,"CI":12770,"Know":12771,"yahoo":12772,"arma":12773,"Ġheaded":12774,"Ġinvolve":12775,"enda":12776,"Ġintellectual":12777,"selling":12778,"Ġproceed":12779,"ĠUlt":12780,"ĠReserve":12781,"Bernard":12782,"Stone":12783,"Ġrevised":12784,"Winter":12785,"Ġsudden":12786,"ĠSche":12787,"Ġtraditions":12788,"ĠDiscussion":12789,"Ġexplosion":12790,"acies":12791,"ĠMicro":12792,"lott":12793,"449":12794,"Ġconfront":12795,"ARIA":12796,"bollywood":12797,"comb":12798,"Ġrural":12799,"ĠAndroid":12800,"1109":12801,"Ġgrass":12802,"path":12803,"onz":12804,"Ġgap":12805,"Ġ1902":12806,"Ġsubstantial":12807,"Nelson":12808,"terior":12809,"Ġstere":12810,"Gard":12811,"Nicholas":12812,"TP":12813,"height":12814,"esley":12815,"athered":12816,"Ġnotice":12817,"Ġusual":12818,"ĠAntar":12819,"Arnold":12820,"Ġinspiration":12821,"rely":12822,"Universal":12823,"vens":12824,"ĠRey":12825,"Ġflank":12826,"Ġswitch":12827,"Ġsensory":12828,"ĠLegend":12829,"Ġwooden":12830,"tlx":12831,"Kir":12832,"itol":12833,"College":12834,"cropped":12835,"Ð²":12836,"ieu":12837,"Ġ1880":12838,"uka":12839,"Ġresident":12840,"Ġbuy":12841,"ĠWithin":12842,"Brazil":12843,"Educ":12844,"Pitchfork":12845,"Ra":12846,"ĠNBA":12847,"ĠJoy":12848,"271":12849,"IMD":12850,"omon":12851,"ĠVilla":12852,"Ġcharacterized":12853,"Ġchallenges":12854,";âĢĶ":12855,"reve":12856,"''.{{":12857,"igel":12858,"ĠBros":12859,"ups":12860,"Ġsurpr":12861,"McG":12862,"Apollo":12863,"281":12864,"Ġorigins":12865,"Ġsuitable":12866,"ĠWas":12867,"ĠWWE":12868,"ocking":12869,"Ġfreeway":12870,"enaissance":12871,"ĠNCAA":12872,"SF":12873,"ĠGay":12874,"Ġsupports":12875,"minute":12876,"Ġsurvival":12877,"ĠObserver":12878,"School":12879,"1926":12880,"361":12881,"ĠFurthermore":12882,"}}),":12883,"adier":12884,"ĠLad":12885,"444":12886,"Ġretirement":12887,"Ġmarch":12888,"college":12889,"456":12890,"iii":12891,"Ġestimates":12892,"Ġoption":12893,"ĠConc":12894,"Ġdisturb":12895,"Ok":12896,"uven":12897,"laws":12898,"ebo":12899,"ĠResp":12900,"Ġoutbreak":12901,"^{-":12902,"Ġintersection":12903,"environment":12904,"ĠSite":12905,"ĠYorkshire":12906,"ĠWilhelm":12907,"Academy":12908,"celebr":12909,"ĠSide":12910,"lem":12911,"Ġattitude":12912,"fully":12913,"ameron":12914,"Ġconnections":12915,"Ġathlet":12916,"Ġvideos":12917,"Ġpartly":12918,"Sign":12919,"Ġreduction":12920,"ĠArk":12921,"Ġnewspapers":12922,"557":12923,"*'''":12924,"325":12925,"Bol":12926,"NO":12927,"Ġforecast":12928,"Ġcoastal":12929,"YouTube":12930,"ĠHitler":12931,"half":12932,"ĠDonald":12933,"Lam":12934,"Pen":12935,"ĠMail":12936,"metric":12937,"Group":12938,"store":12939,"rann":12940,"being":12941,"greatest":12942,"piece":12943,"sd":12944,"ĠMexican":12945,"fford":12946,"ĠActor":12947,"Ġexisted":12948,"ĠAstronomical":12949,"Office":12950,"Ġtheoretical":12951,"ĠCritical":12952,"Ġban":12953,"ĠSingle":12954,"ĠDraft":12955,"ĠNext":12956,"Ġdepicting":12957,"Kar":12958,"bottom":12959,"gender":12960,"Ġcraft":12961,"ĠOp":12962,"astron":12963,"roller":12964,"Ġrose":12965,"Ġclothing":12966,"Ġmusicians":12967,"Mas":12968,"Ġwaves":12969,"nba":12970,"Ġmissed":12971,"ĠOperation":12972,"ĠSamuel":12973,"rehensive":12974,"County":12975,"Full":12976,"|-|":12977,"itsu":12978,"Ġretrieved":12979,"alia":12980,"Ġlose":12981,"Ġaged":12982,"Ġ93":12983,"omed":12984,"apel":12985,"rike":12986,"istemology":12987,"Cur":12988,"Jordan":12989,"sortname":12990,"ĠJos":12991,"Ġsees":12992,"Ġbrigade":12993,"ĠMatthew":12994,"dict":12995,"lass":12996,"ĠFeat":12997,"00000":12998,"Clear":12999,"Hugh":13000,"larg":13001,"ĠRoger":13002,"ffield":13003,"Ġdisaster":13004,"Ġfrequent":13005,"hindu":13006,"arus":13007,"Ġaw":13008,"irates":13009,"process":13010,"Walker":13011,"Ġintense":13012,"intro":13013,"446":13014,"Ġmerely":13015,"ĠHonor":13016,"tu":13017,"yards":13018,"Ġplast":13019,"otaku":13020,"Ġprove":13021,"Contributions":13022,"ĠHawaii":13023,"Articles":13024,"ĠCleveland":13025,"ture":13026,"ĠGraham":13027,"Ġdepends":13028,"appa":13029,"Ġpatient":13030,"ĠHouston":13031,"category":13032,"esa":13033,"455":13034,"ĠRelease":13035,"Ġdispute":13036,"Ġtow":13037,"ĠChall":13038,"Ġquantum":13039,"340":13040,"ugs":13041,"publish":13042,"ĠPur":13043,"ĠDays":13044,"enders":13045,"them":13046,"Ġ1896":13047,"Dennis":13048,"Ele":13049,"Row":13050,"Ġerect":13051,"Ġturb":13052,"vell":13053,"ĠHarvey":13054,"eorological":13055,"uguese":13056,"dun":13057,"made":13058,"reports":13059,"ĠTag":13060,"Ġplus":13061,"insky":13062,"Ġobvious":13063,"Andy":13064,"Ġveter":13065,"Ġrestricted":13066,"gets":13067,"Ã¢":13068,"ĠCape":13069,"ĠHarvard":13070,"ĠGate":13071,"Ġjournalist":13072,"Ġinteract":13073,"Ġconfidence":13074,"Ġarmament":13075,"comics":13076,"Ġritual":13077,"projects":13078,"Ġengagement":13079,"Ġcitations":13080,"Cass":13081,"Da":13082,"sclass":13083,"ĠWoman":13084,"ĠWatson":13085,"ĠLore":13086,"ĠMaya":13087,"Ġconstitu":13088,"ĠMonte":13089,"ĠIron":13090,"Ġfacts":13091,"rc":13092,"ĠCam":13093,"368":13094,"Ġ98":13095,"Ġdetect":13096,"Kenneth":13097,"ĠConnecticut":13098,";''":13099,"eno":13100,"ĠCall":13101,"ĠNeg":13102,"ING":13103,"Ġdinosaurs":13104,"ĠOct":13105,"369":13106,"Melbourne":13107,"Ġintegrated":13108,"Ġ00":13109,"Ġfitted":13110,"ivals":13111,"GBT":13112,"mitt":13113,"ilty":13114,"unar":13115,"Ġvisitors":13116,"Ġminimum":13117,"Ġmine":13118,"Ġimplemented":13119,"Ġdeployed":13120,"lax":13121,"ÏĦ":13122,"flat":13123,"Ġ92":13124,"Ġbreeding":13125,"entinel":13126,"Ġstyles":13127,"otted":13128,"Ġcharacteristic":13129,"Ġhelps":13130,"Psychological":13131,"ĠProvince":13132,"Ġenhance":13133,"Ever":13134,"erk":13135,"Ġwel":13136,"opod":13137,"ĠChange":13138,"Android":13139,"Ġtied":13140,"enkins":13141,"Ġfalls":13142,"Ġrepresentative":13143,"Ġisolated":13144,"orf":13145,"roft":13146,"united":13147,"nbs":13148,"ikh":13149,"support":13150,"Ġpassengers":13151,"ĠArchitecture":13152,"Ġclock":13153,"Ġloop":13154,"ĠNewton":13155,"ĠProduction":13156,"Neill":13157,"})":13158,"opic":13159,"ĠWarren":13160,"Ġencountered":13161,"Raw":13162,"Ġrib":13163,"insp":13164,"Ġcavalry":13165,"ttl":13166,"Ġpremier":13167,"ĠSolar":13168,"utur":13169,"ints":13170,"200710":13171,"ĠRailroad":13172,"Olymp":13173,"Ġ111":13174,"ieve":13175,"376":13176,"elsewhere":13177,"Ġrepair":13178,"Ġclaiming":13179,"ospel":13180,"marks":13181,"Ġindicating":13182,"novel":13183,"president":13184,"Ġstead":13185,"artificial":13186,"Pot":13187,"atas":13188,"Ġfranchise":13189,"ĠCole":13190,"SW":13191,"kish":13192,"refname":13193,"ĠGeneration":13194,"Ġcaps":13195,"oeing":13196,"Ġlimits":13197,"Ġderiv":13198,"oirs":13199,"hythm":13200,"Cultural":13201,"ĠUtah":13202,"Ġincor":13203,"Ġtransmission":13204,"Ġpatron":13205,"Ġhappy":13206,"Ġinch":13207,"Ġdf":13208,"eye":13209,"orset":13210,"iquid":13211,"Strateg":13212,"Republican":13213,"ĠMovement":13214,"oward":13215,"ucc":13216,"Ġfounder":13217,"Ġcorpor":13218,"senal":13219,"Ġasc":13220,"cyclop":13221,",'":13222,"moon":13223,"ĠBou":13224,"Ġskill":13225,"Ġparticipate":13226,"LA":13227,"ĠCretaceous":13228,"1927":13229,"ocent":13230,"etary":13231,"1932":13232,"332":13233,"bold":13234,"Ġterritories":13235,"Ġcontrols":13236,"akistan":13237,"obe":13238,"Ġreleases":13239,"Ġblind":13240,"ĠSenator":13241,"Ġschedule":13242,"unicipal":13243,"lavia":13244,"appe":13245,"><!--":13246,"Ġraid":13247,"Harper":13248,"Ġdominant":13249,"390":13250,"ABS":13251,"ĠRing":13252,"altic":13253,"rupted":13254,"gression":13255,"ĠMos":13256,"Ġevolved":13257,"Ġtransp":13258,"Sarah":13259,"days":13260,"krain":13261,"enstein":13262,"ĠNevertheless":13263,"Ġham":13264,"ĠMargaret":13265,"Ġdisappoint":13266,"ĠPractice":13267,"nfl":13268,"turn":13269,"Ġwindows":13270,"Ġdriven":13271,"Ġblocks":13272,"ĠMeanwhile":13273,"GR":13274,"ĠMeg":13275,"ĠRole":13276,"ibilities":13277,"expected":13278,"Warren":13279,"Ġtouchdown":13280,"IX":13281,"Language":13282,"Ġstem":13283,"Ġexception":13284,"ilyn":13285,"Electronic":13286,"Ġdynamics":13287,"likely":13288,"Duke":13289,"soccer":13290,"Army":13291,"Ġfalling":13292,"Griff":13293,"Ġmast":13294,"ĠSeven":13295,"umps":13296,"quin":13297,"Ġclim":13298,"ĠSher":13299,"Ġpersons":13300,"Ġsurvive":13301,"ĠClarke":13302,"Ġinstitution":13303,"Civil":13304,"Michel":13305,"Text":13306,"mor":13307,"Ġskeleton":13308,"Ġgate":13309,"ĠGill":13310,"Ġpartial":13311,"Ġtheor":13312,"phib":13313,"imedia":13314,"apr":13315,"ĠByzantine":13316,"Ġsequences":13317,"Ġaffairs":13318,"Ale":13319,"ĠSet":13320,"ĠSant":13321,"ĠUnlike":13322,"hylogen":13323,"378":13324,"Tro":13325,"VA":13326,"Ġprevented":13327,"Cricket":13328,"omys":13329,"idney":13330,"Ġcollapse":13331,"*''[[":13332,"Prom":13333,"1934":13334,"ĠVisual":13335,"japan":13336,"sher":13337,"atts":13338,"ervous":13339,"sworth":13340,"Ġelder":13341,"ĠBarnes":13342,"African":13343,"ĠLat":13344,"'',<":13345,"Ġboys":13346,"playing":13347,"Ġrestoration":13348,"Ġhomosexual":13349,"Ġ01":13350,"aran":13351,"1943":13352,"ĠHeavy":13353,"379":13354,"ĠParks":13355,"relyear":13356,"Nik":13357,"nation":13358,"ĠIde":13359,"Ġunless":13360,"Ġjustice":13361,"Volume":13362,"ĠÅ":13363,"ĠFal":13364,"Ġresign":13365,"Ġoffices":13366,"uzzle":13367,"major":13368,"ĠBarry":13369,"Ġhistoric":13370,"Ġ}":13371,"Ġinaug":13372,"ĠTa":13373,"apters":13374,"Princeton":13375,"entieth":13376,"Ġstrict":13377,"ĠOak":13378,"ĠContemporary":13379,"ĠRecording":13380,"iodiversity":13381,"NYT":13382,"Ġfighter":13383,"Ġpoems":13384,"Handbook":13385,"david":13386,"ĠFig":13387,"mans":13388,"Ġcomplement":13389,"Ġapproval":13390,"ĠâĢĺ":13391,"Ġemphasis":13392,"winners":13393,"ĠDiv":13394,"Ġsecured":13395,"ĠLogic":13396,"Ġsimultaneously":13397,"Ġ&#":13398,"Ġnecessarily":13399,"ĠSl":13400,"1928":13401,"ribe":13402,"Ġsouthwest":13403,"Ġappointment":13404,"Kennedy":13405,"cade":13406,"Ġelsewhere":13407,"Ġcrop":13408,"Ġbon":13409,"route":13410,"uni":13411,"Ġlift":13412,"ĠWelsh":13413,"|âĢĵ":13414,"owitz":13415,"Ġradar":13416,"Perry":13417,"Roberts":13418,"Ġancest":13419,"Ġdoctor":13420,"=''[[":13421,"thropology":13422,"ĠBor":13423,"spring":13424,"453":13425,"454":13426,"atsu":13427,"Hamilton":13428,"ographies":13429,"build":13430,"Ġdeparted":13431,"Ġthousand":13432,"Ġsessions":13433,"Ġreflected":13434,"ariance":13435,"iggs":13436,"Ġmeasurements":13437,"Ġvenue":13438,"NME":13439,"hp":13440,"oters":13441,"outheast":13442,"hammad":13443,"ĠGuadalcanal":13444,"Ġkeeping":13445,"Power":13446,"Ġoutcomes":13447,"Ġargue":13448,"Ġworst":13449,"WM":13450,"eban":13451,"annah":13452,"366":13453,"Ġgenerate":13454,"Ġcommunications":13455,"LP":13456,"dts":13457,"hm":13458,"Ġrecovery":13459,"ĠPictures":13460,"istence":13461,"Ġprof":13462,"acket":13463,"353":13464,"Ã¨re":13465,"Jewish":13466,"hurst":13467,"ĠHD":13468,"Ã©t":13469,"Phillips":13470,"Every":13471,"GC":13472,"micro":13473,"elihood":13474,"labor":13475,"Ġdescript":13476,"Ġownership":13477,"ĠCas":13478,"502":13479,"Ġmedicine":13480,"Ġangle":13481,"BD":13482,"letcher":13483,"Ġpresentation":13484,"Ġrailroad":13485,"Ġvariance":13486,"columns":13487,"Ġrecover":13488,"ichi":13489,"ĠReform":13490,"Hu":13491,"Ven":13492,"Ġsector":13493,"Ġrebell":13494,"imp":13495,"ebel":13496,"Ġpremiere":13497,"ĠPrincip":13498,"oddess":13499,"rage":13500,"ĠMot":13501,"Ġamounts":13502,"Ġstayed":13503,"success":13504,"erse":13505,"ĠLess":13506,"Ġexpensive":13507,"Ġstoryline":13508,"=;":13509,"Ġ[[:":13510,"okies":13511,"ĠMediterranean":13512,"ulates":13513,"erne":13514,"footballer":13515,"igor":13516,"ĠDetroit":13517,"oked":13518,"arrington":13519,"Ice":13520,"pred":13521,"uating":13522,"Ġvulner":13523,"Ġdevelopers":13524,"ĠApplications":13525,"ygon":13526,"Ġconventional":13527,"hurricane":13528,"Ġtherm":13529,"Spin":13530,"ËĪ":13531,"inz":13532,"aca":13533,"Ġtries":13534,"Harold":13535,"Ġthesis":13536,"Ġbases":13537,"Ġinference":13538,"rost":13539,"Ġrooms":13540,"ghostarchive":13541,"bia":13542,"ĠFitz":13543,"ĠWW":13544,"backs":13545,"Ġprocedure":13546,"Acc":13547,"earn":13548,"ashing":13549,"noon":13550,"ĠExpedition":13551,"Ġbands":13552,")''":13553,"Sep":13554,"ranches":13555,"ronology":13556,"rowheaders":13557,"Ġhyper":13558,"Cam":13559,"ĠJava":13560,"ĠJupiter":13561,"ĠInn":13562,"ĠKat":13563,"neapolis":13564,"Ġcandidates":13565,"Ġelevation":13566,"europe":13567,"hour":13568,"ĠSaturn":13569,"acking":13570,"ĠKevin":13571,"Inf":13572,"Ġadm":13573,"Ġpublicly":13574,"Bon":13575,"uler":13576,"ĠDomin":13577,"Ġalien":13578,"394":13579,"your":13580,"igger":13581,"blood":13582,"reporter":13583,"ĠRub":13584,"Ġelectronic":13585,"ĠLegisl":13586,"asurement":13587,"ĠJonathan":13588,"){{":13589,"camp":13590,"lia":13591,"wins":13592,"asm":13593,"Ġowners":13594,"ln":13595,"Ġrevers":13596,"Ġcontrad":13597,"Ġintervention":13598,"Ġlogical":13599,"Sport":13600,"static":13601,"develop":13602,"Ġho":13603,"timesmachine":13604,"Ġfilter":13605,"Let":13606,"Ġinduct":13607,"ellers":13608,"Ġhelping":13609,"ku":13610,"Ġmiles":13611,"obiography":13612,"Ġassass":13613,"Ġmagic":13614,"tc":13615,"chus":13616,"ĠBla":13617,"501":13618,"Dean":13619,"ĠPerry":13620,"haust":13621,"chicagot":13622,"Wright":13623,"nuclear":13624,"20200":13625,"ĠLou":13626,"astings":13627,"Ġsolving":13628,"++":13629,"Desc":13630,"Justin":13631,"hou":13632,"Ġnob":13633,"elman":13634,"ĠStuart":13635,"Ġapprec":13636,"Ġmining":13637,"Ġpassenger":13638,"NFL":13639,"Ġelabor":13640,"cultural":13641,"cognitive":13642,"ĠMS":13643,"ĠFred":13644,"photo":13645,"aurice":13646,"Ġdynamic":13647,"Details":13648,"ipher":13649,"development":13650,"cepts":13651,"Ġflows":13652,"Ġplainrowheaders":13653,"ĠSoci":13654,"ĠBaby":13655,"ĠChamber":13656,"374":13657,"Ġpossession":13658,"Ġexhibition":13659,"UEFA":13660,"enburg":13661,"oded":13662,"ughter":13663,"Ġstrengthen":13664,"Ġweakened":13665,"ominations":13666,"347":13667,"Brien":13668,"qual":13669,"386":13670,"Ġburial":13671,"Ġpercentage":13672,"dictionary":13673,"Ġresigned":13674,"ĠMathematical":13675,"Econom":13676,"ĠCit":13677,"classic":13678,"Ġsquad":13679,"Ġcontinuing":13680,"ĠCanterbury":13681,"Tour":13682,"every":13683,"rive":13684,"Ġpool":13685,"ĠVirgin":13686,"Ġpublications":13687,"itivity":13688,"Ġhuge":13689,"Ġenthus":13690,"Ġdelivery":13691,"ippocamp":13692,"unctional":13693,"Natur":13694,"ĠTan":13695,"Ġgene":13696,"Health":13697,"Israel":13698,"ĠPeninsula":13699,"Ġmagazines":13700,"Ġlap":13701,"Ġstreets":13702,"ĠAbbey":13703,"ershire":13704,"Ġhill":13705,"Leonard":13706,"cult":13707,"held":13708,"topic":13709,"ĠCanucks":13710,"gamma":13711,"ĠSega":13712,"Ġcapabilities":13713,"incinn":13714,"Atl":13715,"Doctor":13716,"Ġprotein":13717,"ulous":13718,"Ps":13719,"bie":13720,"stub":13721,"Ġhat":13722,"Ġ('''":13723,"Ġabuse":13724,"ĠChurchill":13725,"Ġfacility":13726,"chicagotribune":13727,"ĠYellow":13728,"Ġemotion":13729,"Ġcurve":13730,"amy":13731,"atever":13732,"ĠTurn":13733,"odic":13734,"opes":13735,"nals":13736,"ĠInte":13737,"authorlink":13738,"Hell":13739,"Î¼":13740,"ĠHob":13741,"ĠFarm":13742,"ustic":13743,"innip":13744,"ĠComputing":13745,"Hunt":13746,"ĠTak":13747,"ostic":13748,"arthy":13749,"Ġcruc":13750,"IMDb":13751,"Get":13752,"Ġtone":13753,"laston":13754,"Ġrum":13755,"Ġsurrender":13756,"ĠMicrosoft":13757,"emo":13758,"Ġtrail":13759,"ĠPopular":13760,"icz":13761,"Ġthirty":13762,"ĠEmerg":13763,"Ġproc":13764,"Ġpeoples":13765,"ademia":13766,"Ġprofession":13767,"instein":13768,"Ġmatters":13769,"ãĤ¤":13770,"ĠMarket":13771,"ĠEthics":13772,"Ġod":13773,"Ġfate":13774,"---":13775,"352":13776,"Ġintention":13777,"restrial":13778,"indsor":13779,"**[[":13780,"/.":13781,"kar":13782,"chat":13783,"archived":13784,"Ġ160":13785,"ĠFil":13786,"ĠOcc":13787,"ĠArmstrong":13788,"ĠVice":13789,"uchi":13790,"399":13791,"That":13792,"Adv":13793,"Adams":13794,"Ġfemales":13795,"atemala":13796,"Nihongo":13797,"Whe":13798,"}}]]":13799,"Ġnotably":13800,"Ġimprovements":13801,"abi":13802,"verted":13803,"351":13804,"ihanna":13805,"idelines":13806,"Ġaimed":13807,"Hz":13808,"dream":13809,"hev":13810,"asury":13811,"vet":13812,"ĠNorfolk":13813,"breaking":13814,"ĠTokyo":13815,"imo":13816,"ĠLet":13817,"Ġconversion":13818,"ĠZone":13819,"dyk":13820,"Quest":13821,"Cold":13822,"LB":13823,"Ġocean":13824,"ĠWagner":13825,"ishops":13826,"Ġvast":13827,"Ġvolumes":13828,"restler":13829,"Ġbusinesses":13830,"Ġnoting":13831,"arget":13832,"ventures":13833,"written":13834,"Astron":13835,"Cer":13836,"Kh":13837,"OH":13838,"nj":13839,"Ġgrey":13840,"Ġconj":13841,"Ġfewer":13842,"Ġpraise":13843,"testant":13844,"ĠEvening":13845,"Ġwatched":13846,"Ġdatabase":13847,"Ġsciences":13848,"Ġclinical":13849,"rift":13850,"Ġspir":13851,"471":13852,"Ġsoldier":13853,"Ġdebuted":13854,"Ġcolumns":13855,"Ġfiles":13856,"ĠMinistry":13857,"Governor":13858,"slam":13859,"ĠStill":13860,"Na":13861,"iguel":13862,"ĠYe":13863,"Ġsimilarly":13864,"historian":13865,"Line":13866,"cf":13867,"stop":13868,"ĠFish":13869,"ĠLocal":13870,"ifford":13871,"ĠStevens":13872,"ptions":13873,"Ġrout":13874,"Ġsignature":13875,"amaica":13876,"ĠTestament":13877,"iblical":13878,"349":13879,"Future":13880,"ĠRegion":13881,"Artificial":13882,"Memory":13883,"Margaret":13884,"YC":13885,"Ġargu":13886,"Ġexcav":13887,"411":13888,"Fall":13889,"ĠInit":13890,"ĠBarbara":13891,"snd":13892,"auf":13893,"ĠDenmark":13894,"ambiguation":13895,".;":13896,"Ġpush":13897,"Ġupgrad":13898,"hero":13899,"Front":13900,"Tax":13901,"hew":13902,"Ġcul":13903,"ersen":13904,"Ġlanded":13905,"Metacritic":13906,"Ġanalyz":13907,"voice":13908,"Ġfur":13909,"ĠHas":13910,"ĠAlfred":13911,"arbour":13912,"ĠBan":13913,"Ġlandfall":13914,"Ġdiscipline":13915,"Current":13916,"Earl":13917,"pure":13918,"ĠCrow":13919,"ipation":13920,"Ġcarriers":13921,"Gil":13922,"far":13923,"ĠTree":13924,"ĠMend":13925,"ĠGrey":13926,"association":13927,"Ġpermission":13928,"ĠGuinea":13929,"faq":13930,"Master":13931,"draft":13932,"Ġ1893":13933,"flip":13934,"Ġpictures":13935,"ĠDur":13936,"Ġafterwards":13937,"espncricinfo":13938,"oriented":13939,"Ġsan":13940,"ucr":13941,"ĠPrincess":13942,"agonist":13943,"Ġdominated":13944,"ĠParalympics":13945,"Like":13946,"1931":13947,"ailing":13948,"Ġ}}{{":13949,"ĠCyclone":13950,"Lisa":13951,"ĠBlood":13952,"ovsky":13953,"Ġimperial":13954,"ĠDeep":13955,"riday":13956,"Ġtendency":13957,"EW":13958,"Flight":13959,"Later":13960,"Ïģ":13961,"ĠAM":13962,"ĠAuthor":13963,"Ġraces":13964,"onesian":13965,"ĠAR":13966,"ĠDa":13967,"Hungarian":13968,"Cour":13969,"azing":13970,"Ġresource":13971,"political":13972,"Ġopportunities":13973,"igers":13974,"ĠFolk":13975,"Ġemperor":13976,"america":13977,"Ġevaluation":13978,"wild":13979,"ĠMuch":13980,"Ġgross":13981,"ĠFloyd":13982,"Ġracing":13983,"Ġartistic":13984,"ĠDoctor":13985,"Portland":13986,"Grant":13987,"ÏĤ":13988,"ĠRank":13989,"Ġchronic":13990,"umping":13991,"Ġhotel":13992,"Ġdrugs":13993,"Small":13994,"Ġindeed":13995,"ĠRogers":13996,"armac":13997,"adding":13998,"Even":13999,"Ġflew":14000,"Ġdub":14001,"opatra":14002,"ubles":14003,"ĠStart":14004,"swift":14005,"Cape":14006,"Lieutenant":14007,"onso":14008,"Ġdeter":14009,"arded":14010,"Ġunlike":14011,"ãĥ«":14012,"Edwards":14013,"Ġalignment":14014,"Ġveget":14015,"Blo":14016,"Bio":14017,"Lab":14018,"Last":14019,"films":14020,"zel":14021,"oned":14022,"Ġwider":14023,"ĠStre":14024,"Ġ105":14025,"ĠWarner":14026,"364":14027,"674":14028,"ĠEc":14029,"mania":14030,"Ġmeets":14031,"Real":14032,"Ġcovering":14033,"Ġdialogue":14034,"Ġpublishing":14035,"Ġhidden":14036,"cession":14037,"ĠApplied":14038,"ĠPlayers":14039,"Ġmechanical":14040,"Egypt":14041,"803":14042,"Ġanimated":14043,"Ġoffering":14044,"Ald":14045,"ĠMaj":14046,"Ġteen":14047,"Production":14048,"Ġdistinguish":14049,"ĠLeslie":14050,"Est":14051,"cock":14052,"horn":14053,"Ġtwin":14054,"ĠMobile":14055,"eca":14056,"Ġ1897":14057,"465":14058,"systems":14059,"HT":14060,"cas":14061,"Ġimplications":14062,"essica":14063,"Harrison":14064,"Ġemergency":14065,"Ġfeedback":14066,"Ġrescue":14067,"Ġtravelled":14068,"hydro":14069,"Bristol":14070,"Rey":14071,"boston":14072,"mates":14073,"Ġtunnel":14074,"resp":14075,"Ġsitting":14076,"ivia":14077,"ĠQueensland":14078,"ĠSwitzerland":14079,"Ġpilots":14080,"Ġsurg":14081,"pubs":14082,"ĠRomney":14083,"Rose":14084,"zie":14085,"ĠBristol":14086,"Reilly":14087,"Ġdrivers":14088,"points":14089,"uranium":14090,"Ġdisorders":14091,"Ġlegs":14092,"Ġasking":14093,"ĠRevolutionary":14094,"Sources":14095,"ĠRound":14096,"Ġcolony":14097,"Ġregister":14098,"Ġappearing":14099,"ĠBennett":14100,"ohistory":14101,"coll":14102,"Ġremn":14103,"ĠJohnston":14104,"ĠMountains":14105,"Kore":14106,"LL":14107,"ĠRico":14108,"ĠLeonard":14109,"Ġelections":14110,"rosse":14111,"ĠPhot":14112,"Ġ125":14113,"ĠCurrent":14114,"Ġvillag":14115,"izard":14116,"anchor":14117,"Ġuncertainty":14118,"Santa":14119,"ĠHaven":14120,"Ġshel":14121,"Ġradical":14122,"Ġeasier":14123,"comic":14124,"Arab":14125,"double":14126,"Ġconcerning":14127,"than":14128,"ĠAz":14129,"Ġsurprise":14130,"Ġorganisation":14131,"Franklin":14132,"Ġattendance":14133,"Ġsamples":14134,"lora":14135,"Ġrestaur":14136,"Norwegian":14137,"nmi":14138,"igma":14139,"ĠIndividual":14140,"compass":14141,"Ġpotentially":14142,"prize":14143,"street":14144,"erek":14145,"lective":14146,"467":14147,"ĠAthletic":14148,"Ġbacter":14149,"rowth":14150,"Ġconsensus":14151,"Ġstronger":14152,"verseas":14153,"ĠWriting":14154,"Ġalgorithms":14155,"Abb":14156,"bus":14157,"ĠJam":14158,"291":14159,"ĠPlayStation":14160,"Rub":14161,"Xbox":14162,"ĠFilms":14163,"ardo":14164,"903":14165,"Ġmarks":14166,"elescope":14167,"Hild":14168,"mobile":14169,"rÃ©":14170,"ĠGran":14171,"Ġris":14172,"0004":14173,"Ġsystematic":14174,"Ġdecay":14175,"askatche":14176,"dez":14177,"error":14178,"ĠPhillips":14179,"Warner":14180,"idity":14181,"Ġ1889":14182,"ĠEngineers":14183,"electric":14184,"wreck":14185,"Ġparticles":14186,"eled":14187,"ĠPoe":14188,"ĠRat":14189,"ĠDocument":14190,"Ġtreaty":14191,"simpson":14192,"EG":14193,"á¹":14194,"Ġcir":14195,"thens":14196,"Ġeleven":14197,"Ġcyclones":14198,"speed":14199,"Ronald":14200,"Foster":14201,"pole":14202,"Ñĥ":14203,"Ġax":14204,"ĠSak":14205,"1004":14206,"spin":14207,"]]'',<":14208,"Ġ1899":14209,"Ġoccasion":14210,"Color":14211,"Ġsurvivors":14212,"Ġbombers":14213,"askatchewan":14214,"Ġtie":14215,"Ġdiet":14216,"idg":14217,"ĠDest":14218,"434":14219,"Ġdangerous":14220,"Sn":14221,"Ġthin":14222,"Constant":14223,"Ġanimation":14224,"Ġcustomers":14225,"CV":14226,"ĠChemistry":14227,"isson":14228,"rise":14229,"Release":14230,"TCR":14231,"ĠFormula":14232,"ĠAlberta":14233,"have":14234,"ulator":14235,"ĠHu":14236,"Ġfocuses":14237,"Rating":14238,"orum":14239,"Ġsafe":14240,"artists":14241,"ĠVe":14242,"annual":14243,"Ġwritings":14244,"432":14245,"HP":14246,"Kon":14247,"Pass":14248,"Ralph":14249,"tro":14250,"stown":14251,"ĠPa":14252,"Ġgods":14253,"ĠDynasty":14254,"ĠGulf":14255,"ancellor":14256,"Ġminimal":14257,"2016030":14258,"Ġwicket":14259,"Pierre":14260,"Reception":14261,"birds":14262,"mers":14263,"Ãł":14264,"Î¹":14265,"ogram":14266,"Ġstudying":14267,"Susan":14268,"Ġbronze":14269,"rier":14270,"Ġpregn":14271,"fields":14272,"ĠMacArthur":14273,"Aust":14274,"Block":14275,"Fire":14276,"ĠBishop":14277,"1929":14278,"ensory":14279,"ĠArtic":14280,"373":14281,"ska":14282,"Ġfemin":14283,"Vi":14284,"when":14285,"à¥":14286,"ename":14287,"Ġwants":14288,"''(''":14289,"Ġprey":14290,"Ġextend":14291,"asures":14292,"Ġcompens":14293,"ĠTransl":14294,"ithuan":14295,"Ġjaw":14296,"Ã©d":14297,"Ġpoorly":14298,"Ġmane":14299,"ĠMaced":14300,"spr":14301,"ogan":14302,"Ġjstor":14303,"option":14304,"327":14305,"Ġ130":14306,"Ġrising":14307,"ĠSpirit":14308,"ĠEvidence":14309,"Mack":14310,"Philosophy":14311,"fund":14312,"ĠCensus":14313,"Ġreactions":14314,"1009":14315,"ĠNetworks":14316,"ĠLouisiana":14317,"ĠBasin":14318,"Ġworship":14319,"circa":14320,"\"{{":14321,"Evolution":14322,"Ġpairs":14323,"chicago":14324,"ĠDylan":14325,"ĠNav":14326,"ĠKal":14327,"Ġlongest":14328,"Ġdetection":14329,"Ġmagnetic":14330,"character":14331,"Ġconver":14332,"Ġcomplic":14333,"ĠMonthly":14334,"hetor":14335,"Ġcivilian":14336,"Ġstruggle":14337,"Kaiser":14338,"incinnati":14339,"Museum":14340,"ĠNote":14341,"ogh":14342,"formed":14343,"Ġsmooth":14344,"Ġrend":14345,"aternal":14346,"Ġ600":14347,"Marc":14348,"\"].":14349,"Gilbert":14350,"Morgan":14351,"olition":14352,"ĠCraw":14353,"tery":14354,"psil":14355,"Ġbridges":14356,"]]''',":14357,"Court":14358,"Sum":14359,"ĠCob":14360,"isting":14361,"Ġongoing":14362,"tons":14363,"ĠAlg":14364,"Ġconsiders":14365,"meg":14366,"arant":14367,"Ġsummary":14368,"unse":14369,"ango":14370,"389":14371,"Ġdestroyer":14372,"443":14373,"ĠLabour":14374,"ĠEffects":14375,"Barry":14376,"bef":14377,"wired":14378,"orst":14379,"Ġcarbon":14380,"ĠBark":14381,"1005":14382,"Ġru":14383,"Ġattacking":14384,"Ġpushed":14385,"ĠKar":14386,"rene":14387,"Critical":14388,"Rud":14389,"Ġtale":14390,"uson":14391,"imir":14392,"Ġbehalf":14393,"Works":14394,"Ġadjacent":14395,"Ohio":14396,"gence":14397,"uce":14398,"inge":14399,"ĠMason":14400,"osed":14401,"Ġchurches":14402,"Ġsoft":14403,"Colin":14404,"Nav":14405,"bours":14406,"andler":14407,"1925":14408,"ĠDS":14409,"mathbb":14410,"atorial":14411,"Ġlandscape":14412,"iatry":14413,"rub":14414,"cholar":14415,"ĠChoice":14416,"Ġperce":14417,"Ġmythology":14418,"Lim":14419,"ĠSac":14420,"arest":14421,"Ġreferring":14422,"ĠRoutledge":14423,"Marshall":14424,"tes":14425,"church":14426,"ĠGil":14427,"phal":14428,"Ġelectrical":14429,"formatics":14430,"Wild":14431,"ĠHudson":14432,"Stock":14433,"Ġassumption":14434,"+\\":14435,"FT":14436,"Plot":14437,"Ġfulf":14438,"Ġ115":14439,"GP":14440,"sg":14441,"singles":14442,"ictured":14443,"ĠReports":14444,"Edge":14445,"Princess":14446,"Ġsynthesis":14447,"ĠBang":14448,"1023":14449,"ĠWisconsin":14450,"324":14451,"Ġcards":14452,"uru":14453,"Ġkm":14454,"Ġschem":14455,"Ġfuneral":14456,"Morris":14457,"rimination":14458,"BDA":14459,"Ġwire":14460,"otics":14461,"ĠDal":14462,"avil":14463,"ikk":14464,"Ġopponent":14465,"Ġwithdrew":14466,"iamonds":14467,"oming":14468,"ĠRaw":14469,"oder":14470,"ĠThose":14471,"ĠGuild":14472,"Ġcollapsed":14473,"Canberra":14474,"Ġconcentration":14475,"Iowa":14476,"Merc":14477,"atches":14478,"Ġphilosophical":14479,"ebrew":14480,"Ġvic":14481,"20111":14482,"ĠCompar":14483,"ĠOrange":14484,"allets":14485,"Grammy":14486,"Wrestling":14487,"neg":14488,"Ġbiggest":14489,"olen":14490,"ĠHave":14491,"artney":14492,"469":14493,"||[[":14494,"certyear":14495,"Ġphenomena":14496,"tree":14497,"ĠSanta":14498,"ĠBased":14499,"ĠDave":14500,"488":14501,"ĠSwedish":14502,"ĠVersion":14503,"indiatimes":14504,"royal":14505,"iggins":14506,"inflation":14507,"Ġbishop":14508,"quake":14509,"ipped":14510,"ĠKPA":14511,"Chap":14512,"383":14513,"Ġbiology":14514,"Islam":14515,"Davies":14516,"RB":14517,"iag":14518,"chair":14519,"Ġnavy":14520,"rose":14521,"robot":14522,"398":14523,"hilosopher":14524,"Ġsequel":14525,"æľ":14526,"annels":14527,"Ġmanage":14528,"Ġconsidering":14529,"Ġmotivation":14530,"Ġhumor":14531,"ĠEducational":14532,"ĠBrothers":14533,"ĠGirls":14534,"Ġdisplacement":14535,"Bra":14536,"SN":14537,"Ward":14538,"iological":14539,"assic":14540,"ailability":14541,"sexual":14542,"captain":14543,"cruiser":14544,"lastonbury":14545,"Sony":14546,"Ġpet":14547,"acular":14548,"irus":14549,"ivo":14550,"ques":14551,"Ġ1888":14552,"Ġinternet":14553,"ĠXI":14554,"Ġpreparation":14555,"Ġprompted":14556,"Java":14557,"aping":14558,"Ġstability":14559,"highlight":14560,"released":14561,"Nat":14562,"delta":14563,"ische":14564,"Ġmm":14565,"structure":14566,"Our":14567,"vare":14568,"utsch":14569,"Ġ1898":14570,"Sher":14571,"regular":14572,"Ten":14573,"Ġ128":14574,"Ġcomfort":14575,"1145":14576,"Ġsettle":14577,"Tech":14578,"ĠAlexand":14579,"URL":14580,"jul":14581,"sper":14582,"Ġ1850":14583,"visual":14584,"Oliver":14585,"went":14586,"ĠIN":14587,"ĠLloyd":14588,"ecil":14589,"oco":14590,"Ent":14591,"Ġactivation":14592,"Ġrobots":14593,"Beat":14594,"whe":14595,"Ġreson":14596,"Ġreducing":14597,"1904":14598,"seatt":14599,"ĠStructure":14600,"Ġseed":14601,"future":14602,"ĠBlo":14603,"Ġimprovement":14604,"Ġconsumption":14605,"ilis":14606,"ĠNicholas":14607,"ĠThought":14608,"Ġcrest":14609,"ĠPeriod":14610,"facts":14611,"ncdc":14612,"Ġeat":14613,"Ġanxiety":14614,"theory":14615,"Ġunclear":14616,"Spain":14617,"Berlin":14618,"ĠWallace":14619,"snooker":14620,"Sky":14621,"igo":14622,"1117":14623,"Ġinteresting":14624,"Laure":14625,"Lanc":14626,"Nev":14627,"ĠTodd":14628,"ĠBah":14629,"Ġwatching":14630,"ĠSusan":14631,"Well":14632,"garian":14633,"pound":14634,"omes":14635,"ĠTony":14636,"quate":14637,"ĠUl":14638,"Ġretro":14639,"ASC":14640,"Ġdestroyers":14641,"However":14642,"Mexico":14643,"ĠSafety":14644,"Ġnoise":14645,"Several":14646,"atrical":14647,"Ġdiverse":14648,"ĠEld":14649,"sched":14650,"Mov":14651,"ĠWinners":14652,"ĠMathematics":14653,"ĠTransport":14654,")&":14655,"Az":14656,"Buck":14657,"Baltimore":14658,"Dream":14659,"island":14660,"architecture":14661,"ĠDog":14662,"quarter":14663,"Ġdowntown":14664,"Contin":14665,"Summer":14666,"iq":14667,"inery":14668,"olith":14669,"ĠMcKinley":14670,"sin":14671,"trad":14672,"Ġmood":14673,"naissance":14674,"Ġopponents":14675,"ĠBattleship":14676,"Ġbombs":14677,"Ashley":14678,"Kr":14679,"Ġimprison":14680,"scend":14681,"metal":14682,"rangle":14683,"Before":14684,"GDP":14685,"azard":14686,"tracks":14687,"IO":14688,"itals":14689,"uno":14690,"ĠMul":14691,"ĠNine":14692,"Ġmemor":14693,"erted":14694,"ĠEdge":14695,"Techn":14696,"SB":14697,"ĠLisa":14698,"aho":14699,"Ġsubmitted":14700,"ĠSpears":14701,"Ġreveal":14702,"acques":14703,"did":14704,"Ġtribute":14705,"Ġ113":14706,"raud":14707,"Planet":14708,"popular":14709,"Ġabsor":14710,"Ġeliminated":14711,"Div":14712,"init":14713,"Ġduration":14714,"ĠWhere":14715,"014":14716,"Location":14717,"bd":14718,"node":14719,"operating":14720,
[...]
