#version: 0.2
Ġ t
e r
i n
a n
r e
h e
o n
a t
o r
s t
a r
i t
Ġt he
a l
č Ċ
e n
e s
e d
Ġ |
Ġ o
Ġ a
i s
Ġ w
l e
] ]
[ [
i c
Ġo f
Ġ s
an d
2 0
Ġ c
i on
in g
u r
Ġ f
Ġ b
Ġ p
re f
Ġ in
o m
Ġ [[
a m
a s
Ġ and
c h
v e
' '
Ġ n
} }
{ {
Ġ d
r o
Ġt o
h t
at e
Ġ m
i l
en t
Ġ Ġ
a c
Ġ S
o l
Ġ h
t h
u s
Ġ 1
u n
Ġ A
Ġ =
i r
Ġ T
Ġ C
i ve
i d
e l
e t
a d
at ion
Ġ 20
l a
Ġ re
am e
i g
c t
Ġt h
t p
/ /
ht tp
: //
Ġ M
i m
e b
a g
w w
. <
u t
d ate
l o
Ġ e
ar ch
u l
c e
er s
Ġ (
ur l
it e
o t
e w
Ġ P
Ġ B
< /
Ġn ame
l y
u m
es s
i st
Ġ I
e m
it le
u b
Ġ on
1 9
Ġ R
Ġ H
arch ive
Ġf or
= "
1 0
= =
Ġ l
t er
v er
Ġ g
Ġb e
a y
ir st
Ġ ''
Ġ D
c om
a p
b er
Ġw as
Ġ F
â Ģ
it h
Ġ st
Ġ W
r i
> {{
Ġa s
Ġ is
o d
o w
ar t
Ġ N
t itle
is h
ĠĠ ĠĠ
o ur
}} </
o s
Ġ L
Ġ G
20 0
http s
Ġ1 9
la st
Ġ J
c ess
c ite
Ġ E
Ġth at
w eb
âĢ ĵ
s p
' s
ĠT he
o p
i v
Ġw ith
ww w
re s
al l
Ġc on
Ġw h
]] ,
a in
i f
or y
/ >
e ar
ub l
u g
or g
o g
0 0
Ġ "
Ġb y
or t
ar d
u p
it y
a b
ar y
o k
Ġ an
e c
er e
Ġ 2
Ġ20 1
r om
f irst
i es
i a
Ġ v
e p
Ġ at
T he
Ġ20 0
e st
ag e
Ġ O
o c
q u
il l
Ġ {{
un d
i p
20 1
in e
or k
Ġ al
i an
ac cess
r a
u st
Ġp ro
o re
Ġ it
ubl ish
m ent
u d
an t
s e
u th
or d
Ġc om
ic h
e ct
n al
ĠI n
ublish er
a k
Ġ he
Ġf rom
ew s
at h
ĠS t
o ok
ic al
an g
i al
Ġe x
u e
ig ht
en d
u re
y ear
f f
ac k
1 1
Ġ U
a v
Ġ r
p p
our nal
p ublisher
n b
Ġw eb
Ġh is
a st
) |
s f
ig n
th er
Ġ K
Ġd e
at ed
el l
on g
en ce
e x
g e
Ġ or
Ġ j
or m
Ġc h
Ġa re
i e
o us
u c
i re
p t
o st
3 0
ion s
as s
sf n
r it
1 2
i le
uth or
r an
Ġs h
ac t
Ġw ere
ht m
Ġs e
r y
o un
r u
c l
id e
res s
Ġ le
f t
i b
Ġn ot
i k
lo c
Ġ V
p er
ate g
is s
a re
v i
1 8
Ġf irst
2 2
nb sp
ul t
m an
b o
l d
Ġs p
st at
t e
i z
on d
a ve
r ic
in d
lo w
ĠC h
Ġwh ich
I n
1 5
m ber
s o
. {{
ation s
c on
1 4
m er
o v
= [[
ateg ory
l es
" >{{
ag es
la y
Ġ 3
Ġ us
Ġh ad
stat us
ol og
9 7
it ion
" />
1 6
p h
t o
t he
l and
Ġ />
ar k
e y
1 7
htm l
o ul
C ategory
1 3
d e
Ġcom p
]] ''
ct ion
ug h
im e
u al
s on
a uthor
Ġa c
Ġ Y
p ort
Ġ un
Ġcon t
ic e
he n
a il
Ġ k
en s
at es
Ġb ook
oul d
w ork
ĠU n
en c
o ve
== =
ĠT h
a ch
ac e
]] .
ic s
c o
re e
5 0
l l
w o
n g
19 9
s h
in t
p r
ol um
in k
art ic
ation al
am p
ĠĠĠĠ ĠĠĠĠ
8 0
er n
o und
Ġh ave
e f
Ġj ournal
ow n
m ath
Ġ'' [[
an ce
Ġb ut
a z
it ed
'' '
b r
Ġ im
Ġ1 8
Ġ 4
om e
on e
ab le
2 3
f orm
Ġa d
at er
o ber
t em
Ġthe ir
Ġ ro
.< /
Ġs c
Ġt itle
s s
2 1
f ter
Ġal so
Ġ }}</
oun t
re n
he d
) ,
Ġd es
Ġ| |
S t
Ġ year
at t
e e
olum e
as e
w ard
. .
Ġth is
or ld
u ch
4 0
6 0
ic t
p l
Ġit s
e g
t on
ol d
o b
n ews
| -
er v
o h
Ġa pp
Ġd is
2 5
Ġ ar
ro w
u k
7 0
r al
Ġp er
b n
r ap
r on
y st
s c
Ġon e
vi ew
C h
ing s
un e
h y
n e
o i
in al
2 4
ad e
or s
Ġn ews
j ect
loc ation
re d
w e
C ite
an n
iv ers
ig h
Ġp l
ri b
Ġ last
ĠC om
ic k
Ġbe en
ent s
e v
Ġh as
an u
Ġm e
Ġs o
olog y
ĠA n
ĠA r
2 6
ĠH e
9 0
im es
Ġ en
'' ,
am es
as on
Ġwh o
Ġh er
an y
2 7
ent er
a w
ex t
Ġt e
an s
Ġ lo
i o
Ġ 5
ver t
ct ober
2 8
p g
il d
cl ud
ur ing
ur n
ug ust
yst em
ook s
m s
ist ory
mer ic
Ġt wo
e ce
p ages
i ed
ang u
tem ber
> <
Ġa g
o ut
Ġthe y
anu ary
ep tember
ul y
Ġe v
- -
l ive
an c
if ic
f er
Ġw ork
us ic
Ġt r
ĠN ew
i el
t s
Ġ1 0
pr il
Ġre c
o u
oh n
p e
Ġo ther
2 9
Ġcom m
y le
o od
h ip
Ġin ter
en er
w ay
od e
ove mber
um b
is m
d u
ece mber
o ver
as h
lo p
]] .<
on s
]] |
Ġm ore
i x
d f
p age
Ġo ver
Ġ čĊ
us e
at ive
le ct
Ġc an
is bn
j ournal
eb ru
ebru ary
r am
Ġo ut
le y
Ġ y
. |
as ed
97 8
angu age
Ġa fter
Ġ19 9
or n
19 8
Ġre s
Ġ 6
s ite
Ġin clud
t ain
p ro
c ol
oc i
Ġ200 8
Ġp re
ĠI t
Ġn e
ag az
Ġ <
Ġ [
Ġw ould
Ġ up
Ġ âĢĵ
Ġp lay
ro up
Ġb o
Ġb et
Ġa bo
ed it
Ġin to
Ġ &
) .
b ooks
in s
Ġt ime
g o
A n
oc k
or th
3 3
ak e
v olume
agaz ine
an k
Ġ200 9
ter n
re at
A r
A A
o f
il m
Ġc l
ĠY ork
ivers ity
Ġ 7
Ġ qu
Ġ all
Ġc ol
op e
Ġre l
4 5
is ion
ĠA l
und er
d oi
o ugh
o ot
U n
Ġp art
Ġ20 10
c he
o y
e at
Ġex p
Ġof f
F ile
i am
ĠW ar
ubl ic
ur y
i ence
we en
de ad
m y
Ġ url
r ight
Ġw hen
s y
t y
er ies
os e
ul ar
le t
i er
00 0
3 5
Ġn ew
ers on
" >
Ġat t
en n
ar i
ust ral
artic le
en g
p df
a h
al e
ed ia
Ġ 8
iss ue
ĠE ng
Ġcon s
c c
meric an
Ġ200 7
op le
Ġh im
Ġa ct
20 10
on t
at ing
ut ion
Ġth an
" ,
al s
al k
200 8
ro und
Ġk n
. "
Ġbet ween
Ġas s
u res
Ġs up
Ġbe c
con vert
Ġ la
iel d
Ġin d
0 7
an e
Ġm od
ar v
Ġd o
m p
ro ugh
j pg
4 4
3 8
ĠSt ates
Ġabo ut
a ir
3 7
ĠS c
Ġs uch
Ġc o
ar n
ce pt
ĠP ress
Ġ \
Ġon ly
il y
Ġs ystem
o int
id ent
web site
Ġ201 1
r is
th umb
Ġs ome
if e
ve lop
o uth
ĠM ay
it s
Ġ under
3 6
Ġre m
a u
og rap
Ġp e
3 9
Ġp os
edit or
l ed
Ġ ref
Ġs ub
ol low
Ġ }}
Ġ1 7
t en
f l
Ġd ec
Ġus ed
o ol
y n
ug ht
" |
T h
âĢ Ķ
ar g
m all
d uc
200 7
Ġ 9
er m
Ġs he
i ent
ver y
Ġre g
b um
enc es
es e
Ġin t
Ġd ate
Ġfor m
l ine
um ber
0 9
Ġm em
ik e
ĠĠĠĠ ĠĠ
Ġd uring
0 1
a x
0 5
er ed
is e
ĠA ugust
0 8
Ġm ost
ĠO ctober
ĠP ro
b all
ec ond
ĠM arch
200 9
0 6
4 7
4 6
e ver
it t
Ġ201 2
Ġdes c
ot e
Ġp r
ĠTh is
4 8
Ġst yle
is hed
it ies
f ore
Ġd if
il ity
Ġsp ec
ur al
ĠS eptember
Ġst ud
f ord
er man
at a
in n
, <
ment s
Ġn o
5 5
ĠJ anuary
ĠJ uly
| |
ro p
n ew
ĠS h
ener al
N ew
0 3
ĠJ une
ri pt
Ġde f
l ist
l ink
el y
w n
Ġthe m
ff ect
re t
v ed
Ġth rough
Ġo b
0 4
ĠA pril
l ing
ĠR e
Ġth ere
et y
ĠN ovember
el f
Ġ'' '
og le
ĠC on
y s
Ġa b
a j
Ġag ain
Ġ1 6
us s
ĠD ecember
Ġ https
et s
ĠUn ited
Ġw e
0 2
ran s
Ġp ublisher
ul l
ath er
Ġp p
Ġc ap
Ġac cess
Ġh igh
r ist
19 7
Ġis s
c es
ar ly
res ent
et t
Ġm an
P ro
4 9
ar s
c k
Ġ19 8
Ġ1 5
Ġf ollow
ire ct
rit ish
o ther
Ã ©
Ġm ay
Ġre t
r ad
Ġ end
ang e
Ġg ame
Ġwh ere
ĠUn iversity
Ġ '
ous e
l ish
ond on
p le
p en
Ġ -
ap er
iv es
ĠF ebruary
at ch
ru ct
200 6
ĠW orld
Ġad d
ib le
et ail
g ov
al ign
ĠS p
ĠL e
ut e
Ġa m
Ġse ason
Ġ201 3
ist s
Ġth ree
Ġm ade
5 7
S h
ay s
er t
al t
in es
ch n
Ġch ar
ar l
ĠO n
p os
Ġde velop
v ent
Ġp ol
over n
p lay
6 7
b y
Ġl ater
A l
5 8
in ed
Ġ201 6
ill iam
ĠE n
Ġb u
ion al
Ġw rit
l anguage
" .<
ĠIn d
sp ort
ow er
sp an
Ġd ist
in a
m id
Ġwh ile
Ġ= =
3 1
Ġd ep
a use
d er
p x
ward s
Ġs ur
in ce
ve l
Ġ201 4
id ge
ĠA ustral
k e
v en
go ogle
i um
Ġbe g
re g
ro ss
Ġf ound
ire d
h il
p s
Ġan y
u es
it al
ĠF or
Ġre le
oot ball
Ġc ent
Ġ201 7
Ġ201 5
v ers
t r
Ġyear s
n et
Ġin c
ot t
ist or
5 9
arv nb
Ġm on
a id
J ohn
re en
Ġin st
Ġrec ord
R ef
s ub
p is
ir d
s er
.. .
Ġthe n
Ġpe ople
form ation
Ġbe ing
Ġbe fore
n o
att le
et er
4 3
U S
Ġa uthor
ĠE x
uc k
5 6
le ft
Ġac c
Ġ archive
Ġc all
Ġb el
Ġte am
at ure
Ġ Z
l er
ide o
Ġg roup
g ram
l ack
in c
Ġs im
ure d
Ġdif fer
Ġst r
200 5
Ġsh ow
Ġc re
iv ed
Ġf ilm
ing ton
ĠI I
iz ed
ĠCom m
al d
f o
ak ing
201 1
ric k
ch ool
i ver
h am
/ |
Ġdes ign
sy ch
Ġs eries
6 8
Ġl ink
Ġ20 20
ord er
um an
v ol
n er
ĠA merican
Ġn umber
Ġ1 2
Ġus e
ĠA d
enc y
Ġs erv
Ġb ack
Ġthe se
em ent
Ġle ad
200 4
Ġm any
ir c
C om
M ay
Ġw ell
i ous
ĠA t
ĠW h
Ġc ould
c enter
ee k
a ur
Ġ http
Ġbo th
Ġsh ip
4 2
Ġs econd
il it
201 2
6 9
Ġ200 6
m agazine
ĠG u
Ġex t
ow ever
ĠT e
| [[
o ff
el s
Ġre sp
b e
m e
ro ad
o x
Ġf our
v al
c ent
ĠJ ohn
la g
Ġper form
Ġpro v
p or
ar ri
ĠC ol
ed u
av id
i or
ro l
Ġ Q
ig inal
Ġ1 3
M arch
]] )
Ġ20 19
Ġ201 8
er y
f or
." <
as k
olog ical
Ġ19 7
it ation
ĠI s
Ġse ver
Ġm ain
m ed
he s
ra ft
S p
is ed
6 6
e org
ing le
ĠC l
Ġagain st
st er
ĠA s
Ġb r
ĠM ar
ian s
etail s
oc ial
Ġ1 1
J anuary
org an
ĠCom p
du ct
Ġ20 21
f ul
le x
ual ly
Ġe st
y p
y m
O ctober
n ess
Ġcl ass
a f
al ly
artic les
Ġinclud ing
un g
h er
Ġres ult
sp aper
3 2
Ġre p
loc k
am ily
ĠO r
g round
Ġ1 4
S c
Un ited
Ġo per
S eptember
an ad
al es
c ed
at ic
Ġv i
iss ion
at or
Ġd id
ap an
og n
le g
Ġe pis
ag ue
Ġ art
Ġg o
3 4
Ġw ill
b le
ical ly
Ġe ffect
e ad
A ugust
Ġ 30
Ġp ages
es p
ĠG erman
w h
he m
n d
Ġkn own
A pril
Ġs ong
Ġex per
Ġcon st
}} {{
Ġsup port
uc cess
ĠK ing
it ive
a e
le ction
Ġl ong
9 9
our ce
cl ass
m in
du ction
ĠF ran
b ack
u ed
Ġs ign
om en
Ġ( [[
l in
or ies
P A
Ġv ari
Ġst ate
a i
c id
ph p
Ġbec ame
ac ter
Ġv olume
ĠB ritish
Ġp erson
J uly
Ġ if
]]'' ,
D ecember
th ough
l or
ĠT imes
B C
* {{
lo g
f r
J une
t il
Ġc lo
om an
5 3
Ġiss ue
ant s
n ow
con t
ograp hy
iz e
N ovember
ap ter
Ġ ed
Ġs ame
ript ion
ug g
if ied
s up
r ation
iv id
F ebruary
Ġo wn
Ġcont in
w are
aj or
are d
4 1
Ġpro cess
8 8
d om
ial ly
200 3
r act
Ġe arly
Ġ ra
bo x
u ff
ar m
row n
on es
ur ch
5 2
bo ard
iz ation
Ġe m
ar ge
re st
n ey
'' .
i qu
ur g
in ess
201 3
le v
hy s
v es
ect ion
Ġsever al
a us
sh ip
Ġ 0
at s
av y
m usic
t ext
ã ĥ
ic es
er g
Ġp op
Ġy ou
Ġcons id
C on
Ġbec ause
ĠH istory
. ,
! --
a el
re w
Ġne ed
ĠR ep
Ġrem ain
al ity
Ġdesc rib
ĠA ll
Ġcall ed
o le
ur ope
on y
Ġe ach
Ġp artic
ĠS e
se arch
Ġ loc
7 7
ount y
Ġe qu
Ġ2 5
Ġp oint
ilit ary
r and
9 8
amp le
Ġm in
Ġd irect
p ed
Ġm usic
in ter
col or
Ġre port
Ġ ent
Ġo cc
Ġ20 22
6 5
overn ment
ĠE d
]] '
I S
al th
ĠS outh
Ġ2 1
ĠEng land
Ġre qu
* [[
a ff
iv ing
o th
10 0
ur ric
b or
as es
um ent
Ġal bum
ik i
. &
en e
ict ion
com p
ol l
end ed
Ġret urn
ĠĠ Ġ
l ight
ac y
ĠS he
com m
Ġapp ro
A d
201 4
d etails
Ġdiffer ent
c y
Ġs et
oci ety
a ul
Ġen g
Ġ2 7
s mall
ill ion
Ġoff ic
ac ed
art s
Ġw ar
Ġl anguage
Ġs aid
ord ing
d is
6 4
od y
Ġn ear
ab br
Ġre ce
Ġc rit
n y
Ġv is
Ġr un
am ed
Ġf un
r ay
Ġ2 8
ĠĠĠĠĠĠ Ġ
s k
-- >
Ġwh at
Ġf eat
Ġg eneral
ĠB e
Ġd oi
Ġun til
ot es
ĠM c
ie f
Ġbe h
5 4
ord s
h arvnb
Ġw orld
n a
Ġ200 5
iv en
"/> <
Ġs uccess
it ions
re l
b b
duc ed
Ġfollow ing
Ġg u
ul ation
ĠD e
tern ational
Ġp ass
Ġ2 4
ap t
200 2
re ad
6 3
l ic
Ġo pen
200 0
ĠL ondon
Ġp res
ur ther
wo od
E x
20 19
ĠEng lish
Ġin formation
b ers
Ġ2 2
ren ch
201 5
Ġ location
new spaper
Ġinc re
Ġd own
Ġm agazine
Ġj ust
ich ael
Ġr ight
ĠW est
en se
Ġdis c
200 1
ĠA ss
6 2
Ġle ft
Ġp ublic
Ġor iginal
ut er
ap p
s ide
Ġc or
Ġp h
ĠR ec
ober t
Ġs mall
Ġ= ==
Ar ch
Ġbe com
201 6
vi ews
Ġ2 3
i od
5 1
M ar
us iness
t t
Ġpos s
ĠP ark
ĠC o
Ġl ife
y es
ĠĠĠĠ Ġ
Ġv al
Ġhe ad
U ser
Ġbeg an
R e
g u
ak es
av ing
8 7
im ent
A merican
Ġchar acter
" .
=" :
Ġ low
Ġ" [[
ib r
Ġal low
I I
ĠN ews
ĠB r
im ate
he ad
ar r
Ġ organ
ron t
Ġc ount
Ġbu ild
Ġv ers
iv ision
ĠU S
Ġepis ode
ĠT r
er r
st it
W h
Ġcont rol
s erv
ĠSt ate
Ġt ran
id ed
ab ility
it er
Ġ2 9
os s
Ġl arge
Ġde ath
ff ic
c a
ĠM an
Ġb ro
Ġl ist
ich ard
ber t
ĠN ational
Ġl and
Ġch ild
]] <
Ġ2 6
id th
Ġt ra
om in
Ġp rom
Ġl ike
E d
and er
ain t
Ġ X
urric ane
Ġm et
ind ex
Ġf act
ash ington
Ġar ound
id d
Ġ/> <
v ir
eng th
ĠJ apan
Ġte chn
il es
ter nal
ĠAustral ia
Ġf inal
Ġcomm un
n ame
ĠC ity
ĠA fter
es c
m ith
o on
Ġal ong
ĠN orth
ore d
Ġth ose
Ġapp ear
ep end
Ġad v
Ġpro gram
Ġso uth
he l
ic a
eorg e
Ġim age
ĠThe y
Ġm en
ist er
at ter
am er
ol it
d ay
er ences
st ory
th ers
oy al
L e
Ġex ample
ĠJ ournal
m a
ill board
la im
Ġp ar
re ed
Ġm ov
che s
o e
Ġare a
m ar
Ġof ten
ograp h
ĠP l
}} ,
Ġatt ack
d oc
Ġhe l
' t
ivid ual
Ġ200 4
N ational
Ġf e
9 3
fl u
Ġf in
201 7
th od
our t
Ġd ay
Ġt rans
Ġch ang
ri v
e in
ĠAn d
Ġ article
th ing
Ġb ased
oun g
re y
ĠP r
O n
id es
ag o
rib ut
a ut
W illiam
c ast
m et
Ġan n
ur ren
y d
ot s
Ġre st
Ġt erm
ĠA meric
ĠH er
y pe
ol ution
Ġt est
er ing
il t
Ġle g
Ġt ri
et work
c ode
o ught
6 1
Ġto ok
us h
201 8
M c
n ing
il le
f ield
Ġd ata
Ġre view
| ''
m on
z e
Ġst and
p ress
om as
m i
Ġus ing
Ġan other
Ġh istory
Ġd em
7 8
amp ions
m ing
t ic
rap h
re c
Ġev en
Ġs ince
Ġs ingle
Ġthe ory
Ġm uch
al f
Ġwith in
ard s
ru ction
== ==
B A
Ġcent ury
Ġa v
tem pt
ĠH owever
ĠR o
ĠC ar
re am
Ġre ad
p mid
st r
t imes
Ġal ign
Ġkn ow
ra w
ad em
av al
Ġl ine
Ġst art
Ġp o
Ġp ower
iv al
ar ry
ĠCh rist
use um
i us
os op
ĠC al
rop ical
ition al
Ġs k
our ces
tern et
ent ly
ĠE urope
ult ure
rick et
ap e
ific ation
ugg est
ã Ĥ
. ]]
ĠC ounty
Ġlink s
ag ed
ber g
Ġg ames
ast er
199 9
l ess
br idge
vi ous
7 5
x ford
8 9
ĠA ir
Ġh ow
Ġm ajor
Ġ $
ain s
tain ment
Ġm ark
Ġcon c
Ġd et
at ural
ĠM e
Ġev ent
Ġrele ased
Ġv ideo
ist ic
Ġs uggest
Ġm ake
= {{
if f
le ar
oci ation
Ġp ort
led ge
Ġp resent
ing er
Ġre search
Ġcap t
qu ote
st ate
il ar
D avid
Ġm y
Ġd el
om b
20 2
k m
ft ware
Ġin vol
t ime
8 6
author s
Ġcon f
v an
Ġse e
Ġm ed
ibr ary
L ist
Ġan al
c an
om et
Ġpl ace
re et
Ġt alk
i ography
Ġvi ew
our s
Ġo pp
ur s
ĠW illiam
Ġh and
Ġd r
Ġind ividual
st and
Ġw ay
Ġpol it
er ence
Pro ject
Ġto p
ir th
anc es
Ġle arn
g r
ect ed
h istory
ĠA ng
amp a
9 6
w ell
el t
ys is
ĠB y
An d
Ġ ident
T C
Ġis bn
C l
8 5
ĠC anad
ĠN o
Ġp age
ĠC or
Ġsh ort
Ġf ield
t al
ch apter
iv ity
Ġmod el
ĠQ u
ar les
ro te
itt le
Ġsh ould
Ġd ue
Ġstud y
id ence
lev ision
ubl ished
Ġf amily
fer ence
d en
ĠN e
l ang
op s
L ondon
ap ers
Ġs ix
Ġp at
ent ion
Ġp ost
Ġg iven
it ch
Ġim port
ri end
ent ial
A S
Ġ200 3
ain ing
Ġg overnment
as p
ro ll
A ll
co ver
ty pe
Ġpro t
ail y
ĠLe ague
Ġla w
ist ics
od ay
1 10
re view
ar ian
Ġdescrib ed
Ġ +
ve st
ig ital
Ġdevelop ment
Ġs chool
00 00
f ess
Ġle vel
Ġest ab
Ġh uman
ac es
in ation
Ġf ive
Ġt er
ic ago
qu ad
Ġpro ble
Ġt ake
re m
is on
| {{
g roup
9 2
B N
Ġ ide
Ġst ill
F ran
vir on
Ġn ow
Ġc aus
Ġn orth
Ġt urn
ĠR eg
Ġn ext
9 5
ro y
il la
Ġper iod
Ġt em
Ġg un
ant ic
w orld
ar th
Ġ very
ĠP art
Ġc are
ar a
Ġw rote
c lop
ject s
ak en
ĠH igh
Ġm ove
Ġwith out
ã ģ
Ġe lect
Ġmem ory
F A
are n
Ġl ength
it z
ed er
ĠKing dom
it es
Ġl arg
A ustral
Ġin flu
un t
Ġre pl
O r
Ġrece ived
Ġat tempt
ĠAr my
Ġinclud ed
Ġ order
W iki
p son
ĠS ociety
st yle
ric t
b al
Ġdesc ription
ri ev
Ġl ate
t op
y l
Ġam ong
Ã ¡
ĠO ne
Ġspec ies
ĠSt ud
is c
k s
Ġsim ilar
b urg
Ġst ruct
le ge
ell ig
Ġcomm on
20 20
ĠS ch
ig an
en ry
E n
os aur
Ġconsid ered
19 97
Ġrel ations
sport s
Ġsystem s
Ġrep resent
ĠF rench
P r
ampions hip
In d
Wiki Project
Ġ1 00
ĠR et
art ment
D e
199 8
Ġro le
Ġbel ie
ĠS im
Ġc ity
W orld
t v
ag ement
op er
i ber
Ġre al
I D
ap s
act ion
re ak
cont ent
Ġn on
ress ion
ris on
T V
se qu
Ġc laim
Arch ive
; âĢĵ
le ase
Ġst ory
iv il
201 10
Ġst at
s w
ĠH is
hil osop
ese arch
Ġm at
Ġl ess
Ġbe st
Ġf ootball
Ġin it
N e
ind s
in o
w ik
Ġe le
ĠRe view
Ġl ive
ar b
Ġn amed
Ġl ed
if y
as y
Ġ et
Ġo ld
if orn
Ġs ocial
ĠC ent
et te
Ġa ir
g in
Ġp ublished
an a
Ġe very
; "|
S e
9 4
lo y
}} .
ampa ign
Ġsp e
ĠAmeric a
ĠS ystem
Ġcomp let
J ames
if t
ĠP er
Ġs ol
l am
Ġpartic ular
Ġ200 1
8 4
w in
Ġme as
Ġ el
Ġ -->
ill s
f ric
Ġinclud e
Ġmon th
7 6
f n
ĠA ct
con om
c hed
Ġmem bers
g er
u le
iss n
Ġpre vious
oun c
ĠA c
lo od
urren t
{ \
ĠAustral ian
sych ology
ri es
Ġl ight
Ġb as
back ground
Ġcon d
Ġh ome
Ġt ext
iforn ia
I m
ic ation
ac hed
A R
ĠAr ch
d y
Ġd am
Ġm atch
In fo
Ġw eek
ĠA m
ĠA g
Ġg en
E ng
W est
Ġ arch
IS BN
E S
Ġl im
Ġs ent
ĠP ar
it u
ĠComp any
k y
as px
Ġ200 2
lo s
viron ment
Ġ ve
l c
Ġ20 00
am bridge
Ġsc ope
p art
ard ian
land s
ĠD ep
Ġplay ed
Ġh istor
M S
Ġt yp
ĠE ast
al bum
ĠH ar
Ġw ater
7 3
u la
o ice
ist ration
Ġb i
f lag
Ġ( ''
way s
w est
Ġdo es
Ġcom b
Ġfun ction
ite ct
Ġc er
ĠY ear
ĠW hen
or ial
i i
ĠM on
Ġf ew
Ġs ec
ain ed
ĠP ol
ĠThe se
ĠW e
7 9
ĠS w
Ġf urther
Ġb and
Ġw est
Ġ3 1
ect ive
g y
O R
Ġar g
Ġk ill
ĠM usic
us ed
epend ent
Ġvers ion
in fo
od es
ab ly
inn ing
ec k
c itation
clop edia
am ent
Ġc over
am a
20 21
Ġth ird
]] .{{
Ġm ult
u x
Ġe ast
Ã ¶
Ġtr ad
ĠĠĠĠĠĠĠĠ Ġ
Ġs old
ith er
h a
ĠR iver
ĠP e
8 3
Ġd est
ĠTh ere
k n
e al
/> <
m c
Ġpos ition
ĠIn ternational
Ġf l
8 2
ĠD ivision
7 4
* *
ri an
v ing
Ġtr ack
em b
S outh
am s
ĠT o
20 22
) .<
ĠH ouse
Ġb l
s v
ĠW ith
b ol
Ġc ase
< !--
ank s
b el
riev ed
ĠP ublish
S ch
C ol
Ġc r
ip le
ib code
]] "
Ġpr act
R obert
am il
Ġal though
Ġo thers
ree k
H arvnb
In ternet
h i
Ġd eb
7 2
u el
f ree
ce ed
Ġserv ice
ĠIn ter
T S
ict or
Ġeng ine
lo t
la in
Ġg r
B illboard
Ġhe ld
Ġw on
Ġ /
Ġp hys
Ġme an
Ġm ilitary
ĠE l
p ost
ĠD o
Ġs ide
ut ure
s elf
Ġme thod
Ġa ut
Ġchild ren
ed ition
ĠB rit
um mer
Ġd ays
Ġbeh av
Ġpro pos
Ġ 978
w idth
m ost
is ing
m m
ens ive
Ġb att
B ot
Ġfor mer
Ġbecom e
el low
at ors
Ġa ge
p ar
S te
ĠSc ience
Ġrele ase
ĠM ed
Ġf r
ĠM in
Un iversity
irc raft
ĠS o
ak er
Ġe mp
um ents
Ġm ot
ĠJ ack
b log
b ook
Ġf ore
c er
Ġqu est
ĠR esearch
id s
ud e
e le
Ch rist
ove l
ic ro
Ġg ood
u it
E l
Ġh aving
Ġbu ilt
Ġp ress
i h
199 6
a ult
art in
oci ated
Ġwrit ten
b ot
Ġn ational
> \
Ġth ought
oc r
ar ter
Ġcon cept
ĠS up
A s
b i
Ġf re
Ġg ener
Ġf ail
Ġc ame
199 5
Q u
7 1
W eb
g ame
ir gin
Ġl ik
ater ial
bb c
A t
i ate
Ġperform ance
Ġdevelop ed
: #
Ġint ro
Ġpl an
Ġloc al
ĠB o
ĠC enter
Ġan im
Ġchang es
ounc il
ich igan
b l
ol k
as c
Ġsign ific
ron ic
ĠA fric
cc ording
b s
; "
Ã ¼
ut es
Ġr ad
iqu e
] ,
ow s
ĠR uss
ĠG eneral
Ġcomp os
ĠAss ociation
Ġstr ong
ve y
i ers
H istory
B ritish
un k
ic o
h ib
i et
il ms
oc lc
hem at
ellig ence
Ġim p
ock ey
c is
Ġinter est
Ġ ri
f ilm
ch an
ar ies
ec ut
Ġpro ject
ĠC up
rib ution
M ichael
id a
Ġh owever
Ġimport ant
Ġd er
a a
9 1
Ġcontin ued
ort s
ĠH ol
ĠA pp
Ġf ind
A m
fr ac
ĠA ward
ĠRo ad
Ġde v
> [
ep h
j a
up right
ell s
Ġth ough
ir l
Ġex ist
f ace
Ġ enc
}} <
n ational
i ences
ĠS erv
ĠG r
Ġob serv
end ing
Ġin f
ip p
f ic
act ers
1 20
end er
Ġc y
Ġship s
F F
ĠS chool
ac ing
Ġcon n
os p
ĠAr t
N o
ult ural
Ġcare er
Ġpro duction
R ep
f eat
Ġtran sf
g en
ic on
ill er
um m
id er
ĠN or
) </
st on
ol ar
ĠD avid
Ġrelations hip
ay lor
D E
ri or
d a
]], <
Ġs er
lo ad
Ġm edia
Info box
Ġch ange
Ġne ver
e an
199 4
) <
idd le
G u
Ġf ree
res ident
200 80
et ing
Ġse en
enc ed
B BC
v ille
: <
Ġp mid
Ġy oung
e th
ĠSt reet
Ġcomp any
Ġt ro
w ith
m en
w ar
ĠRet rieved
Ġvari ous
d o
Ġcomm and
Ġplay er
at ory
Ġg reat
ĠM em
Ġh alf
f ootball
r ing
Ġ enter
le te
er ry
l as
ant ed
quad ron
Ġpr im
ub e
Ġt imes
8 1
Ġre ason
U TC
ĠI m
ex ual
Ġ199 9
d own
ing u
Ġneed ed
st ein
m ark
10 16
Ġ ord
ro s
ther n
ĠH all
Ġde ad
R ichard
Ġim pro
Ġc irc
Ġ editor
es ign
al y
b lock
S ee
Ġbuild ing
ĠCal ifornia
stit ute
Ġhel p
cept ion
H ar
Ġlo ok
Ġposs ible
Ġfor ces
Ġclo s
am b
ĠP h
Ġr ather
ly ing
o o
ĠJapan ese
ĠFran ce
lect ed
G eorge
Ġm aking
ĠW ashington
Ġpop ular
Ġs ett
ĠM ary
Ġj o
Ġb ody
S hip
Ġst ation
e ep
S fn
Ġmod ern
Ġpro per
ĠH istor
Ġcount ry
Ġm illion
n s
us ion
ĠN avy
qu e
er red
T e
T r
P h
Ġrec ogn
Ġ ill
ot ed
N A
ach ine
l ished
ĠCh ampionship
Ġplay ers
ĠFor ce
Ġw omen
]]'' '
erg y
Ref erences
H e
ĠAng el
um p
200 90
ĠD uring
a ught
Ġa ircraft
ĠM useum
le et
i j
Ġpro b
it ing
ail able
W e
) }}
ight s
Ġac ross
or se
_ {
Ġm ust
Ġwork s
ĠR es
er c
t rans
> [[
om s
ĠCh urch
Ġ z
Ġf oc
, {{
Ġc arri
Ġs uff
he ster
Ġro ad
om y
Ġf riend
Ġt ype
eb all
Ġn etwork
D on
ĠF irst
Ġs ource
J ournal
in son
Ġf ront
Ġf ire
Ġs w
B attle
Ġto tal
ĠB l
ogn itive
pl ace
it te
Ġb irth
ult s
Ġdis play
P ort
Ġt w
Ġc ampaign
ĠE mp
st or
Ġs elf
Ġm ap
Ġp red
ur b
ĠD r
Ġsignific ant
Ġ Ã
t i
er o
sh ire
Ġb lack
Ġpolit ical
ĠCanad a
Ġ 50
Ġto wn
ĠJ ames
se ason
Ġh ouse
ell ing
ĠR ev
ant asy
Ġpartic ip
Ġab le
ĠPublish ing
Ġn eg
Ġfor ce
201 60
Ġpro duc
C o
ny times
]] ;
Ġst orm
port s
Ġc ost
BA J
F or
o id
N ews
ĠW il
c g
Ġs yn
ag n
Ġlo st
ac ific
N Y
s eries
ĠO ff
ri x
ĠE m
Ġb attle
as ing
Ġs ym
ep hen
or ing
P l
ĠM od
lo bal
Ġev ents
Ġg round
b ury
ĠR ef
ag er
m ore
y r
) ]]
ib ility
Ġmov ed
H L
de f
itt ed
Ġchar acters
Ġm aterial
ĠT est
}} }}
op h
Ġreturn ed
Ġh old
Com m
ep ar
199 3
Ġsc ience
Ġcomp et
199 0
g ames
ĠC ont
Ġs ay
Ġhim self
Ġreport ed
Ġpro duced
Ġs ound
Ġin s
Ġanal ysis
up t
ĠM ac
g ress
Ġ199 8
sp ec
Ġcrit ic
I s
Ġcre ated
: :
D o
Archive Bot
Internet ArchiveBot
B r
Ġc op
Ġe arl
Ġre v
Ġv ict
Ġcl ub
b f
Ġrel ig
Ġare as
m at
Ġth ink
f act
Ġw he
at in
AA AA
oun ter
Ġp ers
h ol
Ġso ftware
ud g
Ġin v
ĠB ar
op en
irgin ia
Ġt aken
Ġf ight
ad es
er a
Ġoffic ial
Ġa ction
ĠI f
ian a
il ities
ent al
b it
ĠG roup
t alk
ĠP ost
ur t
u z
Ġa ud
sp apers
g color
Ġe ither
Ġweb site
oun ced
ĠR out
I G
um er
p ol
ĠB est
Ġre d
Ġcor re
p ublic
ir t
O S
ĠR oyal
Ġd ied
Th omas
ep t
Ġte levision
Ġf ull
qu are
l antic
Ġd i
Ġr ange
h an
m ov
ĠL aw
i res
Ġob ject
K ing
]] }}
Ġ âĢĶ
road cast
ĠC an
all s
Ġwh ite
ul es
p ng
on se
M an
ĠM or
r ang
du ce
d s
Ġm ass
ĠV al
âĢ Ļ
Ġlearn ing
Ġestab lished
Ġw ent
Ġe ight
199 2
Ġac cept
Ġc ross
ĠU K
Ġlo g
Ġev idence
s ort
Austral ian
k a
p ect
Ġph ot
n ot
ĠP al
3 00
Ġp ut
ĠBrit ain
Ġdif fic
ĠA wards
M et
Ġdiffic ult
at al
rest ling
Ref list
ĠP hil
p re
ed y
Ġin vest
Ġar m
i os
Ġsp ace
P e
ĠDep artment
b and
Ġto o
s en
200 70
itte e
Ġdest roy
Ġg row
Ġdet erm
ro ok
Ġs on
Ġopp os
ĠIn t
ig g
A N
Ġstud ies
ĠĠĠĠĠĠĠĠ ĠĠ
Ġspec ial
p ret
r d
ĠAl though
Ġed uc
end s
b ibcode
R oyal
l ike
ĠB lack
ers hip
tain ed
Ġrequ ired
ĠB ooks
stand ing
Ġof fer
Ġb usiness
Ġs ite
h ouse
Ġav ailable
un ch
201 20
st one
w s
pt ion
in i
e ff
is er
Ġv ol
Ġcon duct
Ġf ig
d ed
Ġst ates
st art
fess ional
Ġind ic
Ġabo ve
Ġn ovel
C itation
k i
Ġ19 97
Ġa way
ĠPart y
ign ed
ĠRep ublic
199 1
an iel
Ġp ot
E R
Ġrecord ed
ct or
Ġv authors
Ġas k
ĠM ark
Ġf ather
ĠGerman y
ĠP lay
Ġc ast
ĠG od
ĠM edia
sy l
Ġs epar
ĠS ome
Ġg ave
A C
ĠG ame
Ġinst ead
B S
M ark
op t
ĠY ou
Ġresp ons
ost on
Ġter ms
ĠP ort
Ã Ń
Ġ''' [[
Ġb ar
ef n
ee ch
chn ology
I C
ĠUn ion
ch ie
ann ing
Ch arles
Ġt ask
O xford
Ġc al
Ġm ight
ir it
i en
Ġremain ed
I N
s html
uk e
S im
P er
Ġl ittle
Ġst ated
Com p
G r
P aul
] .
Ġt reat
cent ury
os eph
c le
ĠA ccording
Ġapp lic
ĠM et
Ġsur v
Ġle ast
'' <
Ġ20 23
Ġpro duct
Ġknow ledge
Ġsuccess ful
Ġf av
Ġal t
Ġdisc uss
U K
]] }}</
Ġcomp lex
ĠS mith
Ġmonth s
Ġappro ach
ĠP ublic
Ġe ff
Sh ort
Ã ³
ot ion
ab out
ĠCol lege
c ient
Ġt en
Ġeffect s
c m
Ġgroup s
Ġl iter
ĠG eorge
at form
umb ers
ĠServ ice
Ġconc ern
d at
Ġact iv
l im
Ġproble m
Ġreg ard
C al
our se
" .{{
Ġto ur
adem y
Ġocc ur
ex as
ust ry
f m
Ġadd ed
ĠF ilm
ing les
Ġacc ount
5 00
2 30
ra z
Ġcons ist
G ame
ĠIn stitute
Ġval ue
Ġfeat ures
velop ment
ate st
ĠM at
c ity
Ġhe alth
D F
ust ri
ress ed
Ġf ar
w rit
N orth
p ly
Ġm id
M usic
n el
U se
P hil
}} .</
Ġ Â
Ġstruct ure
sv g
n h
art ist
C ar
hilosop hy
Ġh on
les hip
cover ed
il ver
M ain
ĠR ichard
tr ack
ĠR ock
ur ity
Ġl ack
ou is
Ġto ge
ĠAn n
ic y
Ġtoge ther
Ġbo x
ĠIn c
o es
us ical
an i
I T
Ġp aint
n otes
os h
c d
s ch
c r
Ġup on
ĠM ichigan
B e
al le
Ġcer tain
Ġe conom
Ġd ates
en a
ut ing
Ġexper ience
m ir
ly mp
Ġfollow ed
Ġent ire
Ġn or
enter tainment
syl van
Ġpoint s
b ased
lor ida
Ġg re
ĠB ut
fl ict
S w
v ia
! !
an ish
ĠH ow
ĠM ichael
ĠF rom
Ġf und
on ic
A T
Ġle t
imate ly
he st
b our
Ġf low
Ġch art
por ary
H ol
Ġresult s
mer g
Ġm arri
ly wood
Ġlo ss
ab les
ag ing
ĠR obert
vers e
yn am
Ġsub ject
al o
Ġcom ment
it able
Ġpart y
os c
ĠP aul
as eball
ĠCl ub
Ġa ver
Ġ< !--
am m
ĠB ay
form at
Ġwrit ing
Ġs ection
Ġf ac
ist ry
Ġ199 5
f ile
Ġ4 0
b a
at ives
ĠĠĠĠĠĠĠĠ ĠĠĠ
b u
Ġadd ition
Ġa ffect
vent ion
Ġs itu
Ġ199 6
Ġh ard
Ġc enter
ĠO xford
oc ument
ĠEmp ire
ĠC ap
Ġra il
ri ef
ens ion
Ġwrit er
sylvan ia
on line
ĠG reat
ĠD is
ĠK ent
Ġw id
ub le
Ġbet ter
ad y
k ey
ĠR oman
Ġo ur
A lex
med iate
S up
un ity
Ġlik ely
in ing
ĠM ad
an et
Ġ x
ĠL ife
Ġapp e
Ġcaus ed
/ ?
ar ing
Ġc urrent
ust r
ile y
10 2
I t
ĠR el
Ġest im
Ġarch itect
ol f
Ġpop ulation
t ies
M on
Ġst ri
P eter
Ġm iss
Ġrel ated
Ġwork ing
I d
B l
in ct
Ġresp onse
Ġiss ues
Ġpres ident
Ġthrough out
ĠS un
Ġg et
ribut ed
ĠIs land
Ġconst ruction
ĠWh ile
sc ription
'' .<
air s
uck y
ient ific
ĠII I
ĠG e
Ġemp loy
Ġst re
man n
Ġgeneral ly
Ġkill ed
ĠR ob
S mith
ag on
Ġar ri
| }
kn own
or al
G erman
198 8
Ġprov ided
Ġf uture
ĠB rown
In ter
ong ress
em ocr
P G
ĠGu ide
p in
Ġon ce
201 30
ĠV ol
enn sylvania
t a
ra st
Ġa ward
omet imes
Ġclo se
Ġass ist
'' )
Ġf em
j o
Ġto wards
Ġre ached
Ġ19 90
m ain
s ong
Ġw ords
ant ry
Ġro ck
im port
is es
st ant
ad o
Ġbeh ind
ĠD ef
e es
ĠT wo
A fter
ĠS en
ĠW ork
L a
ĠEurope an
id ing
gy pt
Ġcol or
al a
m o
g an
Ġpos itive
ĠRout e
= ''
Ġinvol ved
il s
Ġc ar
Ġtrans l
A pp
s ource
Ġform ed
leg raph
Ġtr aining
E ast
en ed
ro ck
ĠF orm
ive ly
S he
Ġen vironment
C anad
pl ic
m illion
Ġspec ific
Ġst ar
all ed
ĠJack son
l ife
and s
Th is
Ġwhe ther
anc ed
Ġbehav ior
Ġadd itional
ĠInd ia
h r
]] :
B y
re es
et ic
Ġme chan
Ġnot ed
Ġfre qu
ent h
ĠChrist ian
Ġk eep
, "
201 40
in ary
A F
com e
ĠG reen
1 30
Ġst age
ĠAngel es
Ġh um
ear s
ter tainment
Ġserv ed
i as
v is
Ġw in
Ġbelie ved
U L
Ġs ens
ad d
ag g
Ġk ing
Ġits elf
Ġass ociated
M ac
201 50
ed s
V D
Ġh ost
th ur
{ |
nd ash
av is
Ġn orm
inc ip
f all
Ġin n
c al
Ġa chie
ip s
Ġcomplet ed
ĠV irginia
r ich
ach ing
Eng lish
198 6
R ob
k ins
ĠAl bum
f ont
Ġn atural
Ġreg ion
Ġus ually
Ġe lection
ok e
Ġappe ared
Ġrem ov
y e
Ġ â
b ell
ĠC ouncil
ar ily
Ġse em
Ġw ord
H ow
mer c
Ġbel ow
anc hester
ĠW ales
Ġele ments
he ast
in ese
ran ch
ĠD ay
ĠH ill
Ġed ition
Ġcapt ion
ul ated
om er
Ġlead ing
P N
ĠO ther
cg i
arl iam
ĠS eries
Ġse qu
he t
Ġprov ide
R ec
ĠWest ern
Ġmeas ure
ers ey
ĠTh omas
Ġacc ording
i ation
Ġcy cl
iction ary
A ss
sc ience
ĠD ist
ĠL eg
at re
Ġd en
ut ch
> ''
it a
M D
]]'' .
av en
Ġs ize
m od
ch ange
St art
ĠSc ott
E C
W hen
Ġc ut
ĠH enry
Ġn ight
ĠS ec
G o
ĠS ur
import ance
= &
overn or
ple ment
Ġstr ateg
ow l
im al
eder al
{{ '
arliam ent
st ron
Ġlow er
Ġp ast
Ġsong s
Ġide a
M at
en es
Ġapp oint
h igh
ix ed
c s
ol ic
198 9
P ar
g es
Ġcol la
is k
Ġal most
Ġbr ain
Ġin sp
re views
J ack
r p
Ġor ig
198 7
Ġs aw
Ġfin ished
E m
v ideo
Ġt arg
Ġmem ber
av es
h old
og ue
b eg
Ġdesign ed
ol s
ĠT own
Ġallow ed
ĠB iography
Ġw idth
Ġfe el
ĠS hip
Ġf ilms
ĠWh ite
sfn p
Ex ternal
ark s
N or
In ternational
Ġpropos ed
ĠB el
k ing
Ġinflu ence
iz ing
Ġ und
Ġ( {{
ĠO b
Ġme ans
ri ed
Ġconsid er
F irst
Ġen ergy
H enry
Ġin te
vol ution
o z
d ata
ĠT ra
Ġre ve
el ves
Ġperform ed
ĠR ed
f amily
Ġp ur
Ġdec ision
E N
10 4
f iles
Ġ #
pe ople
u a
Ġann ounced
is l
Å į
Ġhigh er
ĠT ime
d r
ĠT op
ĠC ourt
read y
Ġ199 4
rib une
Ã ¤
Ġ âĢ
ĠT V
riv ate
illa ge
ĠSim pson
Ġm om
Ġincre ased
i ro
Ġc ourt
Ġvis it
Ġh urricane
olum b
Ġs ources
Ġ esp
ĠN etwork
p op
Ġf all
on a
Ġab ility
Ġdam age
O N
ĠJohn son
ĠL ab
Ġgun s
ot a
Ġc reat
Ġfoc us
ĠCh icago
Ġc ann
ĠR ail
Ġperson al
ue en
ĠG rand
j p
ann er
t oday
t ar
15 0
Ġk ey
T ime
block quote
angu ages
le ment
Ġin j
b ank
ĠB i
ĠOff ice
ictor ia
ffic ial
Ġs ch
int end
k en
Ġoff ice
y a
ĠW eek
g ar
pp ed
Ġmean ing
ib l
t ra
cy clopedia
198 5
ĠB att
d ec
Ġun its
ĠP acific
ecut ive
ad ium
ĠRep ort
I A
ĠCh arles
ac hes
Ġproble ms
10 3
Ġc he
Ġman agement
ĠS an
Ġth reat
tr ue
IG N
ul f
B lack
ob ile
r as
Ġde g
Ġre n
Ġpl aced
on na
Ġcent ral
Ġsub sequ
Ġse ven
ĠS quadron
or on
Im age
ĠĠĠĠĠĠĠĠ ĠĠĠĠ
act ive
Ġne cess
Ġro w
ad a
it ude
. ''
Ġatt ention
m ond
]] ),
eal and
j stor
Ġ199 3
Ġmove ment
Ġevent ually
P S
ĠF ootball
M e
Ġstand ard
Ġ19 80
Ġtechn ology
ann ed
Ġn ature
ĠL a
Ġass um
ĠTh at
ĠInd ian
ount ain
ĠN Y
la w
Ġus es
Ġco ast
ĠO lymp
Ġsh own
= [
f inal
ce an
Ġr ank
Ġearl ier
10 5
is ions
Ġdec ided
Ġqu ick
em ber
ec ially
ĠZ ealand
Ġe ver
che ck
ĠP sychology
ĠP at
ĠE v
amp les
h ood
z a
ĠG old
C ont
ĠH urricane
C C
f rom
ct ions
G old
Ġab s
p o
u ation
ĠC ons
ĠC ast
el a
ĠP resident
Ġstart ed
Ġa ff
ĠRec ords
Ġpro p
r ish
Ġ esc
E E
Ġf elt
10 7
Ch icago
W il
ĠSt one
Ġwh ose
) :
ip edia
ĠM y
10 8
Ġac qu
Ġvi ol
Ġth us
ĠC ross
est ival
ic an
Ġbro ught
Ġd on
Ġreg ular
Ġg e
oc al
} {
Ġar my
ĠIn f
sh ow
ev en
Ġsuggest ed
ur a
ĠT ran
Ġnot es
n ight
o res
C ambridge
Ġb omb
Ġd ri
bo ut
Ġint elligence
Ġh om
Ġro und
r or
sk i
10 9
ĠA lex
P ol
Ġc ulture
Ġrel ative
per ial
Ġshow s
201 70
Ġquest ion
ul ly
; <
ĠG o
Ġr ace
10 6
Ġaver age
Ġtro ops
ĠCl ass
Ġout side
G reen
un ction
Ġm other
in osaur
ĠS ocial
al se
11 2
Ġcont ract
In t
Ġstud ents
Ġs ometimes
Ġp ra
Ġne ur
Ġconst ruct
ĠCar ol
OR T
it ar
ount ry
al ed
ent ry
P lay
l b
ad el
w a
ra v
ire ction
vi et
ĠB en
ĠFran cis
v ar
ish op
im ens
ask et
ad io
Ġp ay
ren ce
ĠM ass
d on
Ġrun s
er ve
Ġ edit
ĠO per
ĠF lorida
ĠSt r
Ġwork ed
Ġcomp uter
Ġen ough
B en
at o
Ġw ife
ĠCh ina
aren t
Ġb orn
Ġp rior
ann a
Ġpart s
Ġmod els
om ers
esp ite
Ġcon v
ĠF inal
ex p
= #
con s
ĠB ook
ric s
ĠS ong
gu ardian
10 07
Ġp ref
ax im
ĠF ore
Ġv ia
O C
ĠP eter
ro id
i at
Ġrepl aced
ms elves
ĠI ll
S o
Ġcomp lete
ph a
ĠIn formation
c at
ph y
ĠD on
ref list
M y
ind ows
Ġad apt
Web archive
19 80
Ġro ute
B ar
Ġinvest ig
st ar
ĠT our
Ġparticular ly
math bf
Ġcommun ity
Ġoriginal ly
Ġopen ed
ir m
l ied
? |
D A
s ize
Ġc ategory
ĠL ibrary
ch arts
ric e
ĠAfric a
s et
'' '''
Ġ199 2
ĠSt ar
un ic
ch er
p olit
ĠG ames
Ġspe ed
Ġindividual s
it age
Ġesp ecially
Ġthe mselves
Ġexper iment
Ġb reak
Ġphys ical
Ġinter national
t x
Ġg ive
Ġb ase
Ġcre w
Ġepis odes
am in
for ce
ie ce
G e
on om
Ġg rad
Ġdirect or
Ġcom e
M ary
ird s
Ġo pt
reg on
Ġsup er
ac c
ĠD aily
ĠMc C
ab eth
Ġal ready
Ġsc ene
H el
Ġso on
S T
Ġ lay
Ġask ed
Ġback ground
ec ial
Ġun it
b ed
k in
e en
ĠM agazine
Ġdem on
Ġ Ð
ĠB er
Ġ19 70
Ġcre ate
id ents
Ġsim ple
Ġim mediate
l at
f e
Ġloc ated
i ents
co very
R ed
Ġam ount
St ar
F inal
os ph
at ers
Ġb en
b ar
Ġs ense
AA F
ific ial
Ġb order
ĠM ore
sh ort
h av
J apan
Fran k
P C
an es
Ġhe avy
ele br
ple te
ĠE gypt
Ġstat us
Ġstre ng
h ic
2 50
al ion
Ġplay ing
ĠE arth
Ġsur face
Ġpract ice
al ter
ite m
la v
Ġext ra
Ġinter pret
C he
Ġs m
ig hest
UL TS
m edia
u ous
O T
ĠO ver
s ing
ĠF antasy
Ġw r
g l
Ġgo al
tern ative
it or
Ġdef in
beg in
Ġmod ified
em y
Ġb lock
w ater
Ġlarg er
t own
ut en
M in
T om
ency clopedia
a ug
act ions
Ġt aking
re me
o ch
ag a
Ġd raw
ĠC ongress
Ġl anguages
Ġ ir
Ġl ines
ig nal
R uss
Ġintro duced
Ġc ivil
Ġpot ential
ex ico
ut t
ĠU p
Ġst e
ph ys
g et
ro om
ann el
im age
97 80
ut s
Ð °
Ġn umbers
; ...
> ,
no aa
Ġread ing
ĠT rans
se x
ĠStud ies
et a
ow ers
ĠC ambridge
dis play
T alk
em an
ud d
ĠH ot
Ġact ivity
rit ic
198 1
* [
DE FA
Ġdes p
arch ives
ell er
ĠA re
Ġbook s
stit ution
Ġlim ited
ULTS ORT
re al
ĠAc ademy
Ġcond itions
DEFA ULTSORT
il ly
hemat ics
ot land
Ġsc ore
Ġvict ory
Ġt ax
ĠL in
11 3
Ġp sych
A M
Ġal g
H er
Ġf lo
h arv
st ruction
sc ious
} </
ĠC r
h istor
Ġdist ribution
Ġf ace
Ġtr ue
ĠCon ference
Ġocc up
S S
ol a
n ote
Ġg l
asket ball
Ġc red
sk y
Ġincre ase
M or
intend o
od d
C D
est s
us c
ĠM o
1 19
ang er
az ette
ut ions
cl us
ĠComm ission
Ġimp act
W ar
ad j
ĠB attle
{{' }}
a wards
sc ope
and ed
ĠM al
Ġd one
st ream
ew is
Ġsc ored
ollow ing
C y
Ġc ricket
}} ;
ot o
Ġestab lish
as ion
anc y
n one
wik itable
| '''
uc lear
Ġmon ey
i ew
Ġp ark
ĠW ood
A ir
C ent
merc ial
Ġex ternal
M ad
el d
min istration
Ġn omin
ĠE duc
in em
ro vers
Ġpass ed
Ġh it
orn ing
Ġmult iple
Ġvis ual
Ġord ered
ĠF ound
y al
ath an
Ġjo ined
Ġst op
S an
Ġh yp
B o
ĠS ee
sp ond
s m
Ġs low
sc ript
| <
St ephen
A ng
uthor ity
inn er
G eneral
Ġch all
Ġinclud es
ant a
ir ing
iz abeth
w orth
Ġincre asing
ef ore
Ġpre vent
AA J
ĠP et
Ġt ropical
ar row
ĠWilliam s
Ġcomp an
ĠM ur
r id
Ġappro x
Ġde al
]] ",
Ġw oman
Ġto ld
Ġoper ations
b ig
]]'' .<
ĠW eb
Ġcont ent
Ġsouth ern
Ġmom ent
Ġs em
Ġlong er
flag icon
Ġ199 1
ĠEng ine
Ġinit ially
m iss
Ġcont ext
ear ing
ĠM artin
ĠG l
ĠM ost
dis c
r upt
Ġis land
Ġinter view
lect ions
198 2
12 3
ĠS econd
b lack
g reen
olog ist
11 11
Ġcon flict
ĠP ennsylvania
ĠFran k
and a
n es
Ġsh ot
new spapers
M ed
Ġf oot
por ation
st ruct
r ain
ra it
Ġnew spaper
R ock
and id
i est
Ġn ames
Ġfor ms
ĠO f
Ġpat tern
] </
Ġeduc ation
w ick
ol is
ath olic
eb ra
ĠO ut
erv ation
Ġdis p
ut ed
Ġde ep
ĠN ot
Ġsur round
os en
G ood
Ġ( "
m ission
ĠGu ardian
Ġst aff
p ool
Ġimpro ve
W ashington
ĠEd ward
W E
an ford
ĠÂ £
} \
orm an
or ation
A c
ri e
Ġdep ict
Ġpo or
> }}
Ġw anted
ter m
Ġy our
ian t
year s
Ġcomp on
Ġc lear
c n
14 0
itt ing
Ġbel ief
Ġal ways
a ud
Ġ i
un n
Ġr ate
Ð ¾
11 5
d iv
so ft
Ġ ens
Ġ 60
se e
Ġweek s
O ne
f a
w eek
Ġc it
Ġd iss
le e
eg a
w ide
is ation
Ġc ause
ĠD ec
ch art
ess ion
Ġd iv
ĠO pen
c b
ivers al
Ġe th
S am
Ġr at
y an
ĠI ts
re port
ĠT exas
ens us
h ow
Ġ err
n l
ord in
Ġwh om
a fter
la b
12 2
s l
Ġbeg inning
Ġrequ ire
Ġlo ve
Ġcommun ication
A L
198 4
Ġpresent ed
ru ce
11 7
Ġc amp
Ġm akes
s ingle
ĠUn der
re land
Ġc ases
Ġm ess
u an
Ġ ess
h l
ĠW omen
Ġd ocument
ĠB ul
et ts
Ġserv ices
Ġprevious ly
all ery
r n
Ġg old
Ġlevel s
Ġcol span
Ġcount ries
Ġsym bol
Ġpl atform
Ed ward
C O
Ġm ind
Ã ¨
Ġst im
ul ations
se y
Ġs us
P at
11 8
ĠT om
Ġch urch
im a
Ġf ood
ĠJ ust
Ġoffic er
M artin
m il
or a
F L
II I
ari ety
Ġtyp es
Ġb ur
ot ional
b in
am ing
p mc
if th
Ġcomp ared
h ost
ra el
ĠDe velopment
Ġsupport ed
Ġend ed
ĠTe ch
m as
m ile
R oman
Ġfor ced
m ap
adem ic
ĠSe a
Th ere
Ġqu ant
Ġatt ract
ian ce
aw a
enn is
ĠHistor ical
m it
Ġ </
Ġan t
m outh
feat ures
st m
ĠA ge
Ġh ours
Ġc ust
ĠD irect
Ġh ere
12 4
ĠH uman
te am
ĠComm ittee
Austral ia
res e
ĠV olume
Ġe merg
Ġturn ed
ĠHigh way
-- --
Ġt it
Ġremain s
b illboard
Ġb gcolor
og e
en ing
Ġmin utes
Ġob jects
eorg ia
th at
ect ions
Ġnot e
ott om
off ic
l it
Ġse arch
ĠAt lantic
p ower
Ġ :
Ġcap ital
Ġb all
inn ers
Ġ19 60
M I
Ġt ry
ĠL ong
Ġfour th
a ft
ĠS pr
F rench
s im
qu est
." {{
ĠPro ject
h ard
Ġ ...
Ġshow ing
ivers e
p oint
Ġp ath
m itted
Ð ¸
an o
11 4
198 3
Ġint ended
ĠM en
Ġdef ined
Ġclaim ed
r ft
ĠF ield
ill ed
n umber
ill ing
Ġopen ing
g s
Ġ !!
Ġex pl
Ġneg ative
h o
pos ition
in et
( \
ĠV an
Ġequ ip
, \
ate ly
Ġs ays
Ġ/ >{{
adel ph
Ġs ociety
ĠC ivil
ĠB u
Ġc ourse
Ġnor thern
esp n
E urope
Ġc le
Ġcomm ission
Ġsome thing
T o
Ġ ver
Ġmethod s
Ġbr idge
Ġappear ance
Ġd aught
ĠC are
ri ze
11 6
mov ies
ĠCor ps
Ġquick ly
olumb ia
ĠS er
Ġe arn
Ġc ur
Ġf leet
D r
Ġorgan ization
Ġgo ing
Ġdesp ite
n i
f ort
L os
Ġinit ial
Ġfail ed
Ġf lag
12 5
^ {
ĠS am
C an
ĠS al
ĠSt at
Ġcont em
the guardian
Ġright s
el ine
v a
H igh
im in
ri a
ph il
Ġr ap
ograph ic
im ents
Ġar rang
Ġref erred
Ġprob ably
Ġm achine
p ot
ug las
g ate
]] -
and om
Ar t
Ġsp ent
4 00
l ibrary
or por
P R
Ġbatt leship
ĠRev olution
ar c
doc s
pt on
Ġ19 50
M al
ent y
ic ian
h at
Ġd ark
ĠL ove
Ġb ound
Ġl atter
ĠL and
Ġpr int
iqu es
R el
Ġlet ter
ĠS k
Ġfeat ured
umm ary
ro pped
ew ish
A D
p ing
ĠB C
An n
b est
a res
V an
Ġb ow
Ġn one
Ġon line
ov ers
Ġm er
hemat ical
burg h
yn ast
Ġm ar
adelph ia
Ġt able
Ġm ag
ceed ings
Ġ198 9
Ġpre c
the s
i ot
ven ue
Ġprocess ing
ĠAfric an
Ġn umer
m es
ĠKent ucky
Ġst ep
c ricket
ĠB ur
Ġdirect ly
Ġcann ot
T im
Ġstud io
c ar
or ph
Ġsp eech
k es
em p
Ġaut om
raz il
oron to
ĠP op
/ ~
per or
at is
Ġex c
ĠHe alth
ĠB rad
st orm
ref erence
l ong
Ġwho le
ac he
Ġpred ict
ĠC ricket
ad ing
te en
il ed
Ġtarg et
ĠH aw
Ġ .
Ġlarg est
sfn Ref
ĠĠĠĠĠĠĠĠ ĠĠĠĠĠĠĠĠ
ĠS ound
s id
Ġremov ed
ĠOn line
l iving
ur ies
Ġad opt
i ar
ĠJ ones
r un
ĠD el
ong o
ild ing
Ġcon clud
Ġth ings
e ated
rese arch
ang a
p ose
iz ations
i ec
Ġappear s
L ow
Ġh ighest
reg istration
Ġl iving
t est
Ġ198 8
Ġc ell
anc ial
Ġdis covered
ev in
Ġpol ice
ĠM ont
201 80
z er
Ġw inds
mir al
A g
k er
af ety
Ġd om
Ġter rit
Ġquest ions
Ġcond ition
d l
ĠEn cyclopedia
ĠEx per
ĠP re
ra ham
olog ies
Ġla bel
10 1
ĠL ouis
. }}
Ġcrit ical
Ġproduc er
ov a
Ġsold iers
e lect
Ġas pect
n am
Ġd my
Ġcarri ed
Ġover all
ify ing
Ġsay ing
Ġp rivate
Ġd irection
Ġ198 6
Pe ople
Ġfr ame
Ġb rief
10 80
Ġoffic ers
Ġtrad itional
Ġs ail
ie uten
sub scription
ĠEx ternal
reed om
ect or
il ot
ly n
20 3
ĠSt e
Ġro om
Ġrad io
Q BAJ
ĠCanad ian
Ġ19 40
Ġref erence
ian o
Ġarri ved
ic ine
comp uter
pro gram
m em
Ġpress ure
r ical
ict ure
as a
| "
web archive
Ġc ognitive
Ġremain ing
ĠD esign
Ġm ention
Ġpe ak
r at
w an
]] &
Ġy et
Ġdef eat
ĠT er
y mp
in er
Ġ" [
ans ion
Ġsmall er
ĠCent ral
ut ers
ino is
ĠB oy
ĠT ro
Ġch apter
st e
w atch
C ap
ĠL ine
Ġdemon str
ĠP hys
Ġchang ed
Ġ19 42
c ap
ĠN HL
Ġf ellow
Ġd oll
ig ade
Ġrelig ious
h and
Ġm ale
C A
ett ing
Ġben ef
Ġc ru
Ġgre ater
Ġwe ap
Ġt akes
ĠG reek
sport ation
ĠSystem s
ĠN aval
ard en
g a
R L
l ines
ĠCh inese
Ġw ide
ĠJ ersey
D is
Ġ er
f ound
ie val
S pr
and y
âĢ Ŀ
ustr ated
= '
ĠD emocr
Ġc anc
ens ity
Ġbro ther
in us
T op
access date
ĠB ro
R eg
row head
ĠTe am
Ġfem ale
Ġ198 7
a ver
h ere
Ġmark et
Ġrow span
Ġw ood
ind u
Ä ģ
Ġcrit ics
th is
ia h
osp ital
om a
) ;
Ġorig in
is ms
Ġm atter
Ġse a
ĠP olit
Ġthere fore
ĠW ill
Ġmin or
ot hes
Ġ19 44
ĠSt orm
j ust
red er
Ġw ind
Ġan g
yd ney
m ag
le ton
ĠV er
16 0
Ġlead er
c fm
Ġm usical
Ġinst ruct
re v
W ik
ieuten ant
lo ss
F orm
Ġco up
Ġind ustry
Ġ ign
b an
Ġcomp ar
ĠCarol ina
ĠP sych
Ġresp ective
Ġcorre spond
12 8
ĠJ r
ĠS ub
Ġag reed
Ġfor ward
Ġfeat ure
Ġappoint ed
Ġart ist
Ġequ ation
Ġprim ary
. }}</
ĠT ri
Ġgo als
ĠSt and
bo und
f ull
let t
Ġrecord s
ĠMem orial
ĠAlbum s
Ġst ories
Ġim plement
ĠBr idge
c v
ous ly
Ġact ive
et ro
Ġcont rast
I V
und red
ri z
J PG
ĠA b
ĠG re
lo re
M E
ish ing
Ġsc reen
ach us
Ġper cent
ogn ition
M A
ĠS ummer
ĠThe ir
Ar tic
im s
Ġtransf orm
ĠL ake
if orm
ĠK ore
d igital
um e
B rown
ret ary
ĠReg iment
w ich
Ġsign ed
ol id
ran ce
g ed
Ġestim ated
Ġre pe
Ġcol lection
Ġconduct ed
Ġr ain
in ch
A b
n z
Ġj ob
20 5
d irect
an ley
ĠG overnment
a o
ĠCor poration
y g
Ġc ounter
en ge
Ġact ions
Ġc arry
p erson
ro duction
Ġav oid
Ġf amil
riv ing
ĠO ld
ĠThe ory
Ġbo ard
j oy
ĠInf antry
re p
N otes
Wh at
Ġpro fessional
R es
ĠT aylor
197 9
/ >{{
pr int
= }}
as ure
ĠH o
Ġqu al
ĠM any
ĠH el
Ġh ous
op her
t d
pr ise
ĠSc iences
ribut ions
ib ly
un a
un ched
ab y
roll ing
ra ve
av a
Ġrecord ing
Ġ ly
}} )
et ter
rec ord
Christ ian
w er
Wh ite
h ab
el ly
ĠEn tertainment
m ph
Ð µ
Ġf light
Ġ19 45
Ġr ule
Ġm ount
ĠD i
b usiness
n old
l an
Ch ris
ĠRec ord
ĠRuss ian
Ġpro duce
" <
ut y
irit ual
ĠV ictoria
F C
ĠSimpson s
Ġtem per
Ġs ignal
Ġf iction
West ern
T ropical
Ġinst r
h ar
az on
Ġs ort
12 9
Ġg raph
Ġn ine
A ut
ĠTe chnology
Ġobserv ed
Ġcal c
Ġs exual
Ġprocess es
Ġarchitect ure
m ay
ĠIt al
Ġd omin
st ro
hen omen
Ġv on
P al
i ated
ĠD espite
ĠG al
Ġrun ning
p ass
Ġbuild ings
Ġdirect ed
AAAA I
Ar thur
D aniel
Ġdist inct
B est
n t
Ġexp ected
J on
Ġc ode
fl ation
H MS
Ġp urch
so und
ak ers
20 9
Ad ded
pis ode
Ġb al
Ġacc ur
r s
19 0
Ġ19 41
m ode
Ġve hic
ul us
Ġ1 80
ric info
es us
ĠM ilitary
ut ation
Ġdis e
ĠM iss
ĠP an
ĠB usiness
Ġteam s
z y
ram a
B M
S econd
Ġh op
Ġs ing
Ġp aper
Ġpr incip
Ġsitu ation
R ol
ĠMary land
}} |
f ect
'' {{'}}
Ġshow ed
Ġth er
icro soft
d i
Ġup per
pos ed
g ood
osaur us
Ġmat ches
ĠC reek
achus etts
k o
Ġhigh way
Ġbehav i
Ġim m
or ith
ear ning
18 0
ĠNe ur
ĠC amp
ĠWil son
M el
Ġ3 5
Ġme et
ĠV ideo
Ġnecess ary
ĠP ers
Ġex hib
pro duct
20 4
20 7
s ec
Ġm is
ist ical
ac ity
Ġc elebr
hilosop h
E D
Ġanim als
art ers
''' ,
Ġcycl one
Canad ian
ab ase
ĠPro gram
Ġadd ress
Ġan ti
S al
ĠA nal
Ġle aving
Ġd ivision
ink ing
J ones
Ġexp la
rib ute
ph as
Ġcont ains
net work
o ir
ĠF our
Ġri ver
Ġre con
d b
Ġtreat ment
F rom
Ġbr ing
Ġqu ality
Ġoper ation
Ġhel ped
or ter
ul s
bour ne
Ġleg al
Ġm iddle
Ġdef eated
roll ed
12 7
ĠWar s
Ġp rison
ac ement
ĠT em
olum n
od ies
Ġ19 14
"> [[
b es
Ġcompan ies
at ur
ax on
w en
M od
k now
Ġ 70
om pson
e ur
s ur
ĠH am
ord on
m ult
ĠF l
ro ve
ĠR em
R A
m ill
Ġval ues
iver pool
e qu
Ġc andid
ĠSt ory
Ġsc ript
20 23
ig er
Ġre comm
j sp
v in
h io
ustri al
Sc ott
13 5
b on
ul ate
H urricane
ve lo
Ġe p
Ġ 80
ect s
list as
blog s
L eg
ĠO regon
Ġco in
y ing
th rop
G B
p ub
re ation
Ġdist ance
Ġthe ore
Ġs l
Ġev olution
Ġ198 5
ĠDist rict
Ġhigh ly
Ġnear ly
Ġr ul
Ġind ependent
Ġcapt ured
Ġm ission
Ġfun ctions
R o
Ġp en
> .
Ġpar am
Ġm ur
ĠE arly
2 15
g n
Ġwith d
Ġsuggest s
Cl ass
20 8
Ġbas is
Ġd etail
Ġcomm ander
ĠB ig
ĠI reland
play er
4 15
ec ause
Ġlog ic
ĠM il
197 8
Ġhum ans
al i
O per
Ġbecom ing
14 6
Ġrequ est
Ġtyp ically
Ġme eting
an im
Ġ3 2
Ġsepar ate
c apt
Ġb roadcast
ĠA I
ĠT im
E T
v authors
J oseph
And rew
Ġliter ature
Ġfact ors
f are
Ġpl ans
Ġresp ond
Ġt end
Ġb road
iz es
Ġ ult
wh ere
Ġcom mercial
Ġcol lect
Ī Ĵ
ĠM exico
Ġ19 39
ĠP ower
Ġb re
D ef
12 6
it ness
Ġj udg
Ġide as
Ġwest ern
ĠEduc ation
11 1
Ġdestroy ed
Ġst ars
M C
ĠM anchester
Ġpl ant
Ġman ager
Ġr isk
Ġtra ve
Ġcol on
Ġoper ating
Ġtrad ition
act s
Ġf lood
ĠOr gan
d d
b at
in f
ĠW ik
ĠD ata
Ġprogram ming
Ġim ag
Ġcont rovers
ynast y
ĠEn d
ĠC rit
Ġvari ety
B ill
h ot
m ad
re le
Ġhyp othes
b orn
ap ed
. )
Ġs al
ĠPar is
]] ]]
Ġimmediate ly
in ity
Ġpol icy
ĠHer ald
Ġfig ure
ell ed
Ġfav or
ĠâĢ ľ
im er
Ġaward ed
Ġe as
val ue
rel ated
Ġarg ued
> (
news bank
B er
Ġpl anned
Ġdaught er
Ġproper ty
Ġd igital
ac ob
wh ite
b urn
Ġmain tain
Don ald
D ec
ĠT oday
>[[ #
em on
Ġactiv ities
W ood
c i
ĠC le
Ġident ified
Ġass ess
ĠY oung
ĠMar sh
ĠH ome
ĠH on
Ġex am
Ġk ind
Ġoffer ed
ĠSc otland
Ġw ant
Ġext ended
Ġgu itar
Ġeast ern
f red
ir k
ot al
Ġleg isl
ĠSo viet
ĠAn other
ad s
ot or
ĠVal ley
Ġeff ort
V ideo
T aylor
h ome
14 5
20 6
ce ived
oge ther
B ur
Ġpro gress
ĠD ictionary
re ck
ref n
ĠS ir
Ġv an
is a
aw n
P L
Ġd ivid
ĠSp anish
ĠRef erences
Ġstreng th
et on
Ġra ised
Ġmajor ity
K en
ve ment
j i
ite ms
Ġb ad
Ġengine ering
Ġdep art
Ġmarri ed
C r
E arly
in ent
ĠM el
ĠSe ason
ar p
ad er
O pen
Ġin form
pl ate
or ig
Ġ19 30
cl usion
amil ton
R ev
ĠCon f
Ġm axim
O L
Ġexp ress
ĠT w
Ġenter ed
la h
n or
ĠG ood
ĠĠĠĠĠĠĠĠ ĠĠĠĠĠĠ
Ġaccept ed
J eff
c ert
Ġ 90
M o
Ġwrit ers
ĠIt aly
le vel
14 7
Ġ ice
197 5
ĠB as
197 4
ĠCh ild
Sc ience
ĠF a
Ġiss ued
lo ok
= |
Ġ/> [[
Ġsh oot
s he
Ġact ually
197 6
Ġre duced
ĠW rit
ĠM er
17 0
c or
inter view
y ard
el er
Ġg irl
Europe an
P op
H istor
ĠL os
Ġstruct ures
ab s
re ase
S ir
O ld
ĠĠĠĠĠĠĠĠ ĠĠĠĠĠ
19 70
Ġs en
ag ency
s ystem
us es
cl es
b gcolor
re lease
Ġtri al
Ġte ach
Ġclos ed
com ing
ap pen
Ġre views
ur ation
Ġc ultural
Ġpres ence
L aw
Ġdec la
alle l
N B
ĠB oston
sp e
14 3
Ġsc ale
Ġbecom es
Ġdiffer ences
Ġattack s
Ġle ave
st ract
Ġr an
Ġwid ely
" )
ĠL o
our ney
Ġ ut
Ġs um
Ġl ic
Y ou
st ud
G l
Port al
ust er
Ġmost ly
ĠComm and
Ġpe ace
b reak
Ġv oice
c el
ĠG lo
aren ts
il bert
Ġme ant
che st
ĠMan agement
Ġn aval
Ġcon ference
Ġtr ade
Ġele ment
Rep ort
Ġo pin
Ġst ay
ĠE conom
il er
}} .<
ret t
J ul
Ġapprox imately
B el
ĠA ut
13 9
Ġc ult
M ur
h or
x iv
ĠJ oseph
Ġhistor ian
L in
Ġ19 43
Ġwe ight
and on
ĠPe ople
c os
anu fact
Ġexp os
Ġsol id
ĠT re
ole c
ĠD isc
ĠAn t
P T
C N
are t
ĠE lect
ĠR os
Ġse lected
it ter
ap olis
Ġex cept
ser ver
og er
ĠCl ark
h u
ion e
Ġ --
ĠG en
J im
th ony
ick s
US A
Ġ19 17
as ual
Ġim ages
ĠSen ate
Ġle ague
s ig
Ġhe av
Ġprov ides
h uman
l ar
ĠW ay
ex it
g am
p at
vers ion
Ã¡ n
ĠCh ar
the w
ĠS port
ak a
Ġrec ent
ust in
Ġshe ll
Ġopp ort
ĠFound ation
w p
epend ence
Ġbl ue
y er
Ġun known
'' [[
Ġattempt ed
cv t
Ġpra ised
col n
A uthority
ĠR om
M em
ag an
Ġ19 20
Ġapp lied
Ġs light
Ġv s
ill ery
Ġcomb at
E v
Ġre ject
C H
lo yd
ĠO l
= ...
ĠD ev
Ġcorre ct
ĠAr ts
now iki
Ġqu arter
D uring
ol es
ĠIs lands
St ation
ĠC he
13 4
Ġfriend s
Alex ander
ĠD ie
3 60
ĠS ing
Ġun able
Ġs ex
ig ation
m u
14 8
ĠM ag
14 4
iec es
ĠB oth
Ġs ummer
ad ed
13 7
te ch
Ġ19 18
" ]
Ġres ources
il ing
Ġre ach
Ġsuff ered
Ġrap id
sfn m
ĠBatt alion
ic ated
Ġfor t
ĠCh art
Comm ons
g ers
ĠC la
ĠRuss ia
w all
ĠD en
Ġtran sport
Ġeff orts
ĠYear s
Ġtra vel
az z
j ct
St ate
or ped
i enced
l i
s q
ost er
h on
Ġ vert
ĠS ince
orn er
Ġlarg ely
Ġh ockey
Ġdel iver
x i
Ġbelie ve
emb ly
Ġto day
G reg
plic it
Ġresult ing
13 3
Ġinst it
un es
ĠT y
Ġcap tain
ever al
C R
res ults
Ġpos itions
ronic le
C or
un ication
19 5
ĠE arl
ack s
Ġapplic ations
ĠP oint
iam ond
Ġunder standing
e ast
vent ure
the n
M L
s em
Ġw ound
Ġw ays
ĠO cean
ud ge
Ġallow s
ĠWh at
uz z
em ents
le w
Ġlist ed
am ous
Ġaud ience
Ġdeg ree
ich ol
omers et
re ement
ĠAs ia
m dy
Ġmov ing
à ¦
Ġem phas
Ġv oc
l ength
Ġoccur red
19 45
S R
ĠP o
ĠOr der
y o
13 6
t ical
le ep
a it
et al
Ġtr ain
ĠB eat
15 5
Ġla unched
Ġr ules
p ective
ig en
ĠW all
ĠWeek ly
ĠItal ian
enn y
im b
hav ior
f c
ĠH and
Ġ198 4
i w
ĠC atholic
13 8
eng er
S ub
ĠMod ern
Ġser ious
ĠP arliament
ĠD avis
Ä ĩ
ĠCo ast
ĠT ur
c raft
ĠC y
Ġapplic ation
iv an
c ulture
ĠS ports
Ġrespons ible
l t
s ites
ot ing
W ith
ic ient
Ġpre p
writ er
d el
'' |
Ġhistor ical
Ġw alk
15 7
2 10
ap ore
15 3
b ro
Ġro yal
Ġ items
Ġv illage
J o
Ġre ally
Ġun s
Ġref er
197 3
Ġeconom ic
ot ic
ĠH ockey
ĠF re
Ġrecogn ition
cl ub
g ent
Ġp air
ĠF urther
ist ance
ĠH ard
ĠL ee
m osph
Ġ198 1
Ġpo em
Ġrespective ly
Japan ese
w ise
17 5
197 7
Ġf ell
200 60
Ġold er
Ġwh y
Ġdep end
am i
M ike
el son
Ġhe ight
ran k
230 7
ĠL ater
Ġw or
ol ars
elt a
ĠIn ternet
Ġfore st
L C
Â °
Ġp iece
ors es
p ers
Ġre in
G reat
t ran
ĠCent ury
ivers ary
ĠSup er
Ġrelig ion
ĠE ll
if er
2 40
r m
Ġw arn
2 60
re ll
Ġnorm al
Ġadv ance
Ġto ward
Ġcontin ue
f ig
Ġsc hed
s um
u er
uck s
Ġsim ply
ir a
Ġconst ant
ĠRail way
Ġthe ories
ĠI V
Ġbi as
h aps
Ġadv ant
Ġim press
cer tain
r um
an ch
ra wn
Ġcompos ed
Ñ Ģ
load s
ren t
u ing
Ġco ach
i ac
i able
ĠSt ephen
Ġform ation
Ġnumer ous
Ġd raft
Ġparticip ants
ĠOlymp ics
Ġ5 00
Ġg ot
reder ick
om ic
ac re
ast e
Ġform al
ĠFrancis co
197 1
n ic
ĠM iddle
ĠSt aff
wh o
Ġdam aged
14 9
Ġsc ientific
Ġclaim s
b re
Ġg iving
y ond
ip l
h al
ĠL ight
ĠQ ueen
ĠF estival
Ġref used
ĠEn t
AAAAI BAJ
c up
Ġd u
ri ff
Cl ark
Ġra re
à ¤
Mc C
Ġass igned
S ome
er d
K e
V al
Ġgrow th
Ġcolla bor
z en
Ġs la
Ġg overn
I tal
on ym
g old
Ġfig ures
ĠN atural
anc ing
AA QBAJ
v ant
st ead
f ire
i ology
ĠF leet
Ġcompet ition
Ġw ick
ĠAnd rew
velo per
H o
ĠL ord
Ġ3 6
ch i
ist r
Ġstr uck
ĠSouth ern
B rad
am ber
ap y
E lect
Ġg ives
Ġh or
Ġallow ing
Ġdeb ut
b aseball
Ġbe yond
00 1
al pha
Ġmet al
B ob
os is
ĠBo ard
trans l
Ġsh are
'' ]]
ĠAl bert
Ġp an
al ing
Ġch o
Ġrelative ly
Ġst one
ul pt
P ost
ir med
ĠD uke
AS A
Ġv irt
hem ical
ĠL ist
ĠAmeric ans
st ories
if est
if fer
30 6
Ġexp ressed
Comp uter
p et
Ġl ived
und ay
Ġp mc
ĠG azette
Ġan cient
P et
Ġac comp
so uth
Ġreve aled
att ers
P DF
alk er
Ġus er
Ġm ental
ĠAr m
22 5
Ġsc ient
M ont
d ep
ĠG irl
Ð ½
ĠD am
Ġ198 3
ĠL iter
Ġcon sequ
Ġ3 8
ĠSt ation
ar ia
Ġb reed
US S
H ouse
ĠM ajor
15 9
Ġfact or
_ _
Ġc amer
Sup er
oc uments
at i
enn edy
Ġsus p
]] ).
ĠT ribune
ru it
N ot
te legraph
Ġident ity
Ġs ales
Ġ id
Ġeffect ive
Ġt re
Ġb lood
R out
row span
ow a
wh ich
Ġcap acity
ol ved
ĠTh ree
L ong
now rap
A ct
ĠL ind
Ġab andon
act or
Ġdescrib es
Ġle tt
15 8
Ġg rand
enc ies
capt ion
Ġb ibcode
ĠM ov
ag le
ĠR adio
ival ent
ĠD VD
Ġch arg
Ġresult ed
Ġcover ed
Ġt ree
Ġp henomen
Ġexp lo
P ublic
30 3
s n
30 7
O l
Ġatt end
th ology
Ġ4 5
ĠSh ow
Ġinn ings
Ġb ig
S k
O ther
Ġev al
ew ay
Ġs uit
che m
B ack
Ġp lease
ĠAd d
Ġdefin ition
Ġ19 68
ash ion
Ġem b
c ricinfo
Ġpre m
ĠTe chn
Ġenc our
Ġdep ression
ĠB et
Ġequip ment
Ġrail way
Ġfl u
Ġref ers
ĠÃ Ĺ
Ġp hilosophy
il i
Ġf ans
Ġpro fess
ĠP erson
Ġauthor ity
ĠMin ister
p i
iment al
ĠR h
Ġsequ ence
F a
se ction
Ġpaint ing
Ġin side
Ġh ot
St aff
ri p
ĠAt t
Y ork
J ean
Ġs u
ograph ical
ist ers
ĠWh o
j amin
Ġw inning
if ically
Ġ198 2
or ough
Ġw ave
Ġt ur
Ġsup pl
or age
Ġunder stand
s ocial
10 37
ĠK now
c hen
Ġ3 3
Ġfinal ly
Ġdise ase
ĠL atin
Ġp urs
reg ion
r ig
arv ard
E ll
E F
ud a
Ġbeg in
C S
doc ument
ĠO fficial
ak s
Ġg reen
Ġd ynam
A I
qu arters
atis f
d etail
Ġb ank
Ġdiffer ence
ruct ure
qu ir
Ġinter nal
10 93
Ġsp ect
30 4
rop ri
30 8
Ġdist ingu
L o
Ġm ix
Ġcon cent
M il
ĠOr iginal
mar ine
2 18
l ie
Ġplan et
ull ivan
2 16
s econd
ĠM iller
ĠH or
ĠF ort
Ġneed s
sp ace
is den
F urther
Ġfail ure
or ado
Ġlaw s
Ġcommon ly
Ġcop y
ĠA venue
ug e
ĠL og
Ġext ensive
T imes
ort heast
let in
Ġ197 9
Ġrepresent ed
ĠB ill
ĠF in
15 6
ĠW restling
Ġcontem porary
p se
St at
S ocial
197 2
Ġd ed
William s
R ay
Ġpo et
ĠEd ition
iven ess
Ġsubsequ ently
Ġa ware
Ġ19 67
urb an
ĠF ame
Ġconstruct ed
Ch ar
ran e
T rans
B ig
p ut
G al
13 1
B ook
offic ial
" ],
p a
Ġf ully
ãĥ ¼
ĠM ain
ĠP hilosophy
de ath
Ġdr ug
Ġfe ed
Ġproper ties
Ġexp lain
Ġch oice
u ate
Ġne igh
Ġd etails
in y
ĠT able
Ġport ray
Ġwr ite
er ic
Ġc at
v o
Ġ19 69
g rad
ĠK e
", <
re te
Ġdo uble
id ae
ĠF ront
Ġmarri age
M ilitary
ĠB roadcast
ath y
est er
ES PN
Ġprim arily
Ġs uc
Ġv ess
17 7
Ġh undred
Ġinflu enced
Ġtri ed
Ġlim it
' m
f olk
ĠF ox
tx t
E nd
ro d
Ġapp arent
Ġtechn iques
el la
Ġcont act
Ġvari able
ak i
Ġp ack
osc ience
oun ce
Ġinsp ired
n om
Ġs ides
Ġprogram s
loc al
ĠC ard
Ġwe ather
ĠE ven
Ġalbum s
Ġ19 16
ef ul
Ġattack ed
30 5
Ġsc enes
Ġcom es
ip e
on el
ĠG ib
e or
Al an
Ġresearch ers
G S
Ġ era
Re view
n on
u in
Ġc row
17 1
ĠW ater
Ġcol our
18 5
Eng land
) .</
D VD
ob el
Ġcomb ined
ĠMass achusetts
Ġly rics
og s
rom e
p c
r t
Ġ3 7
Ġstrateg y
30 9
Ġsec urity
Ġv arian
form ance
c lear
t w
et ime
Ġinc orpor
Ġk ept
t our
Ġschool s
ĠEast ern
10 38
ond er
ĠL earning
ã Ģ
Ġcont ain
Ġchall eng
" }}
Ġconclud ed
ĠSp ace
Ġthink ing
I f
Ġper ception
Ġse lection
col span
ĠComp uter
ĠB razil
15 4
Ġp le
16 5
Ġw atch
ĠL iber
Ġh appen
urn s
m ic
13 2
Ġocc as
Ġsp read
Ġattempt s
ct x
ep is
ra ight
iz ens
it ory
19 68
Ġre ign
Ġcent re
K ent
on n
b ow
T ran
L ouis
ĠB ow
enn ess
ĠB ack
ĠB owl
ĠL ittle
we ight
Ġs ingles
C la
ĠW ild
Ġart ists
Ġthem e
Ġfollow s
ĠD un
22 6
O fficial
Ġpower ful
ĠL im
Sim on
F ort
Ġstate ment
Ġann ual
b eat
Ġfin ancial
Ġtrack s
ĠG ree
ing ham
Ġdivid ed
16 7
Ġex act
ĠHe ad
a ward
amp ion
! }}
ĠK n
d ark
D D
Ġf ast
Ġlead ers
D igital
ĠAc cess
ĠF ollowing
Ġperson nel
22 3
Ġmed ical
rowhead er
cl ip
Ġch ief
res h
St r
u tp
ĠI d
ĠE th
z ant
m d
Ġth r
ĠJ o
S er
12 1
ĠH ay
Ġrelationship s
Ġanim al
Ġaspect s
P age
in ction
Ġs quadron
ĠJ ul
inc iple
M T
e k
Ġf ix
A sh
on ia
Ġhe art
Ġrest rict
ship s
Ġdev ices
ĠI rish
Ġpur pose
at abase
ust on
M er
Ġnear by
Ġsubsequ ent
P re
d aily
ast ic
h is
Ġso ught
ific ations
ĠS us
W ill
ĠS ol
ord an
ans as
Ġ197 1
nh c
urn er
L T
ect ing
Ġstart ing
Ġgen re
ĠC D
ceed ed
ĠArch ive
Ġfrequ ently
w ashington
Ġal leg
B rian
Ġchar ge
c ountry
Ġp arents
Ġen joy
Ġatt ended
L ife
P I
ĠSt adium
5 21
ĠJ esus
Ġm anufact
ĠM ount
Ġconst it
ren d
Ġem otional
2 14
ig ion
ĠL anguage
Ġw earing
ĠJ eff
ĠSp ain
w as
ig r
Ġc ore
Ġn arr
orped o
Ste ve
Ġvers ions
Ã §
arg in
Ġa p
Ġbas ic
Cy ber
Ġcomplet ely
Ĩ Ĵ
Ġcon vert
Ġref lect
ro g
ĠJ ewish
Ġreport s
F ilm
Ġs ilver
oc cer
Ġen emy
k g
un s
m ilitary
ce st
Ġdecla red
T y
Ġus ers
B oston
w ing
Ġcompon ents
b ut
o en
ĠA ff
M iller
Ġp ieces
Ġpro ved
ĠCon n
Ġinte gr
.. ..
u f
Ġdeath s
Ġh ab
Ġoppos ed
ind ependent
Ġ197 2
Ġm icro
ris is
Ġanal y
u ver
rem ier
Ġcop ies
B F
che ll
=" #
ict ures
Ġplay s
6 00
c ology
h ind
ant i
gu ide
ĠT or
Ġ= ===
ĠG eorgia
R I
Ġ19 66
wik t
Rol ling
Ġint ers
ĠM a
se a
ĠSh ort
Ġ Î
C amp
Ġh app
ĠIll inois
O ut
19 18
Ġfield s
in line
itect ure
ir ty
Ġalg orith
ĠA bout
Ġdeterm ined
Go ogle
Ġ3 4
idd en
Ġhand s
Ġocc urs
ĠCast le
alt im
clus ive
Ġco ins
] }}
Ñ ģ
ev ent
Ġphot ograph
P sych
Ġp lot
la ir
Ġ19 15
Ġstr ugg
p an
Ġfight ing
Ġarg ument
av ies
> "
Ġex amples
]] </
H ung
ĠThe atre
ĠAnal ysis
ĠN ight
Al though
iv ation
Ġcharacter istics
Ġmark ed
y out
19 66
Q ueen
King dom
Ġtest ing
9 00
ent ially
il a
ĠP res
Ġcommun ic
Ġelect ed
Ġal ternative
Ġt rees
Ġ19 48
spec ial
c irc
25 7
ĠPublic ations
'' }}
L ord
g reg
Ġsett ing
P art
in cess
Ġb ot
Ġstud ent
S A
ĠM D
Ġexist ence
Ġf ederal
ĠS m
ow ell
ĠMod el
b io
Ġs ets
lo v
; {{
Ġm orning
10 00
Ġpublic ation
ĠK en
N E
ĠInt elligence
ri f
Ġdev ice
ĠM us
we et
Ġco ordin
ĠSw ed
C B
co res
Ã ±
B rit
Ġf a
ĠEn vironment
19 69
Ġfound ed
Ass ociated
Ġser ve
Ġe ye
ang ing
work s
erv ed
l u
G rand
is hes
od s
Ġdel ay
ustri a
ri al
ĠCh ief
Ġslight ly
la bel
Ġar ms
Ġpl anning
part ial
ind er
Ġfore ign
check ed
D Y
ĠSp ecial
b rit
anks ia
Ġan sw
hem istry
22 7
Artic le
ic ed
Ġth ous
Ġla unch
Ġtransf erred
Ġmaxim um
Ġth ick
Ġp aid
ra il
Ġmem orial
Ġinvol ving
17 3
C arl
eb r
el ve
c anad
Ġe ffic
Ġtask s
Ġcre ation
l ik
Ġprob ability
T itle
Ġrem ember
d ing
ĠM int
ug u
T wo
Ġs olution
Ġsk ills
d q
Ġc ells
iss ance
ar ah
ĠR AAF
ional ly
ol i
ĠPro v
em or
Ġvari ables
Ġequ al
Ġlett ers
os a
Ñ Ĥ
Ġb ill
ĠR oss
A bout
Ġto ols
ĠF ree
Ġsh ape
vi ation
ĠTe levision
ord ers
Ġc ateg
b ul
Ġ19 65
Ġ197 5
C ast
Ġlook ing
ĠD aniel
ĠN ations
f it
Ġcor rel
Ġs n
id el
B ay
l ib
ag ram
ag ues
P o
Ġc asual
ĠStud y
ew art
b irth
Ġto urn
la ke
ri k
R E
Ġperform ances
ĠR ome
H uman
d am
f alse
M a
Ġp sychology
16 9
ĠCom plete
ĠC at
2010 0
ĠCare y
Ġaffect ed
Ġexist ing
Ġ197 3
202 10
ĠFore st
Ġmot ion
D ep
f s
Ġd ial
ĠL td
ĠO hio
2 11
is en
ure au
H a
P hys
l k
ĠP lease
sc ape
Ġcreat ing
M TV
T A
Ġf ifth
us band
Ġprom inent
ug by
og en
Ġâ ĨĴ
U N
Ġref orm
ĠGr ant
Ġcol lege
le ague
Ġdo ing
ĠBr igade
ch ar
ph oon
Ġadvant age
Ġc ited
ĠEl izabeth
ĠB rook
ĠF air
ĠTe legraph
Ġl in
ĠD igital
ort on
net ic
D aily
M ass
f oot
ĠF r
Ġro ugh
C L
C ons
def ault
Ġtest s
lat imes
Ġh orse
itz er
) #
2 80
D ate
'' </
Ġr andom
Ġtra ffic
yout ube
Sc ore
ĠAr ab
Ġw all
str ong
O M
Ġ197 7
' re
10 02
sup er
ĠR od
pol lo
r h
olog ists
ĠD ar
rad io
Ġmain ly
ĠCent re
ĠL ive
Ref erence
C ity
ĠR ay
hen s
Ġval id
f re
ist an
ip ed
f in
19 60
t ropical
games pot
cont in
r ine
Ġf air
Ġtransl ation
22 4
Ġregard ed
B i
ĠD es
Ġor ient
d my
Ġbeg ins
Ġposs ibly
8 00
ober ts
Ġdist rict
f riend
Ġp ick
un ior
Ġ197 6
Ġn ative
ĠS ingles
Ġno thing
A ccording
ple x
ĠE r
ort ex
17 4
n um
ub t
enn a
Ġ197 8
wh at
Ġrepe ated
Ġinstruct ions
Ġhypothes is
J an
ĠIs rael
Ġet c
public ations
it an
ĠC ulture
ĠBar on
Ġexper iences
B ern
ih ongo
= %
ĠComm on
ĠAnd erson
E ric
u art
Ġcon scious
ic ht
F ree
Ġa im
F ox
im ming
ch o
Ġmot or
> '''
Ġ19 46
23 5
P ark
ĠB BC
D en
ener ation
ĠHer itage
Sp ot
Ġvi ews
]] âĢĶ
Ġs il
ĠInd ependent
an al
Ġ19 19
Ġbel ong
ĠL ike
2 20
arg aret
ĠCap tain
2 13
mov ie
Ġ3 00
Ġapp ropri
Ġpar allel
O ver
ĠF e
Ġg lobal
Ġimport ance
South ern
d es
doc uments
V ol
Ã ¸
lo ud
Ġsh ift
' ve
M ajor
Ġb odies
Ġ19 64
hed ral
W P
Ġform at
udg et
ĠSur vey
ĠBroadcast ing
Ġgre atest
m lb
sp ect
ĠHistor ic
it o
ĠH a
17 6
Ġopin ion
im m
16 6
ar xiv
Ġm ixed
Ġconc ert
Ġconcept s
: '''
ĠL uc
Ġsh ared
aw ay
Ġg as
l s
Ġo utp
19 4
Ġ7 5
Ġinstr ument
17 8
17 9
ĠK ey
Ġre ality
ĠB ern
Ġsub jects
ĠV iet
Ġn ation
Ġp al
Ġpl aces
B ul
j an
ac le
ĠB arn
D el
L ewis
ĠB ank
Ġch ampionship
' |
Ġo il
clud ing
Ġorgan izations
19 64
ix on
Ġact ual
G od
ĠD own
Ġ4 8
Ġseem s
Ã³ n
Ġweap ons
p y
ĠJ on
Ġun ique
ĠĠĠĠĠĠĠĠ ĠĠĠĠĠĠĠ
Ġch osen
ist ed
M anchester
Ġreg ions
Ġon es
oth ers
Ġofficial s
ĠLab or
> |
ĠT ropical
Ġre action
ther lands
Ġar rest
j ohn
Ġto uch
ĠAll en
Ġc ard
r ac
stat s
Ġro t
ĠC irc
Ġport ion
D un
O D
19 6
16 3
Ð¾ Ð
d iff
Ġon to
Ġtr ust
m tv
Ġ3 9
Ġclos ely
ad ow
ul i
ĠL ast
ĠW inter
che ster
ac ritic
uth er
olit an
g eneral
hilosoph ical
b en
H all
Ġf arm
ĠB ecause
ĠU s
">[[ #
Ġ4 2
Ġb ul
ide os
Ġad min
un te
Ġe lev
ik a
Ġdesign s
Ġp itch
et ition
ch t
c ell
Ġen h
ĠN otes
Sp ecial
S m
W WE
em ony
16 4
ĠF ar
ĠE ach
Ġachie ve
ab c
Ġgen us
ĠAd v
Ġ197 4
H al
Ġex ecut
Phil ip
ie ge
Ġresp ect
Ġexp ression
Ġa wards
ad or
19 67
S ec
Ġs ites
ĠS ydney
Ġal one
c op
co hol
ĠM erc
Ġact ing
Ġa stron
ail ed
ĠPr ince
N intendo
ĠAd miral
u is
Ġr ing
S ur
we alth
Wil son
D ist
etro it
P an
ig ious
ĠH al
em ic
Ġheav ily
| (
|| {{
d ist
y ou
23 7
um a
u ct
it ud
ab ilities
wh ile
Ġ1 50
Ġerr or
Å Ĥ
ed uc
ĠA stron
sc ale
altim ore
Ġc ities
Ġpre par
Ġcaus es
inc eton
D P
p ark
ĠC a
Ġb atter
Ġdeterm ine
18 9
b eta
M ult
Ġinst ance
Ġadopt ed
O b
ate ll
Ġact or
c ing
Ġs ister
Ġd ropped
em in
24 7
W S
19 50
Ġs ust
R ad
Ġpro jects
Ġexpla ined
Ġag ent
Ġref erences
ri est
om ew
ĠChampionship s
el lect
d esc
19 3
B as
th let
c are
i y
Ġw restling
ur o
Ġg ained
im ages
ĠB al
ant e
Ġg overnor
ag u
Ġla bor
A p
r int
in formation
on ard
ĠNor thern
Ġn arrow
ĠS aint
inn es
W ork
ie g
ĠHar rison
Ġb ranch
ĠIm perial
E r
M edia
ic hel
sc ore
18 7
int on
west ern
U p
lay er
D C
in ical
ĠS pe
Ġconn ected
DY K
b att
ĠM ir
ĠEngine ering
br id
Rep ublic
w ord
Ġro les
Canad a
Ġcomm ittee
ĠTh us
Ġfoc used
14 2
z h
22 8
Ġpro ced
V ariety
t wo
un ter
Ġtw enty
Ġmention ed
om atic
inem a
ak u
Ġdep loy
Ġhon or
it ors
Ġal ter
olum ns
Ġman aged
por ter
ind ing
14 1
Ġh y
Ġprom oted
ĠBl ue
M att
ph i
ather ine
Ġreason s
rele ases
D S
cess or
Ġse lect
"| {{
ĠAll ied
Ġ4 4
Ind ian
os exual
L uc
ub b
Ġregard ing
Ġr ise
ĠCh ris
Ġperson ality
En tertainment
R S
d ie
ĠA v
19 58
ĠM r
Ġvoc als
uk i
Ġb ottom
Ġcont aining
ichol as
Ġcom ing
ĠB ell
od ing
Ġend ing
asc ar
ĠN ature
Ġexp ansion
Ġproduct s
Ġl ives
Ġ19 63
Ġlo t
ill ips
form er
Ġcons um
Ġdescrib e
ĠAd ams
re ct
pos s
Ġearn ed
40 7
Ġadv anced
eng ine
H ill
o ured
15 2
m n
ĠAl so
âĢĶ [[
Ġsurround ing
Ġt im
ĠW in
Ġinv asion
Ġinj ury
unic ations
O ff
ĠC olumbia
Ġinte g
Ġex tr
Ġexp ect
C at
rolling stone
Ġcaus ing
tar io
ĠR am
w eg
Ġfeat uring
Ġst ream
18 4
} ^
Ġp ain
ĠD utch
ĠTh rough
t ag
16 8
af e
a ugh
Ġvol can
O s
N ote
on ent
ĠL es
Ġb irds
Ġh ar
ĠP ot
org e
hel m
Ġad vert
F S
G ill
N aval
z o
ot ype
row s
arb on
ey on
23 3
Ġwe ak
im inal
ĠV en
Ġcall s
E L
Ġo p
l ers
ang el
f ac
Ġs afety
Ġth ing
ern el
Ġstud ied
ĠB aseball
Ġtr uth
F ar
A P
l ined
C T
ĠS a
er al
ĠB ob
Ġdef ense
album s
ibl iography
ind ia
Cent ral
og y
ang es
Ġeas ily
it chell
Ġmess age
ĠP en
ĠB art
at son
u ated
om ical
d esign
: {{
p sych
Ġd ynasty
m var
24 6
Ġlearn ed
b ody
tem porary
iel sen
D own
Ġsome one
ograp her
ĠAlex ander
' ,
h ist
est ic
Ġ4 9
u j
Ġbo y
ĠA ust
Ġexpl an
ĠD eb
p apers
Ġcapt ure
Ġjo in
ert ification
Ġult imately
ĠH amilton
Ġh air
um s
Ġpre v
el le
Ġsec ret
40 6
akes pe
Ġb urn
ay a
Ġst orage
2 12
19 62
H am
Ġ6 4
D an
Ġdis miss
feat ured
Ġcontin ues
Ġpolit ics
is ers
ur st
Ġpers pective
m ass
]] {{
10 17
18 8
K in
Ġ articles
ri ver
Ġ}} ,
Ġacqu ired
Ġdoll ar
el ess
B B
H aw
22 9
Ġche ck
ĠF ight
67 8
ĠAg ain
S ystem
ig e
ĠB arb
L ost
N umber
m und
s chool
oc ation
enc ing
Ġmeas ures
Ã¼ r
er ia
Ġent ry
lo om
Ġst ating
Ġcont ained
duc ing
I an
and ra
og g
Ġ4 3
eder ation
H ard
ĠQu arter
ĠTran sportation
Ġtourn ament
Ġl if
) ]],
Ġconf irmed
Ġmur der
V iew
Wh ile
Ġst ress
23 9
Ġpl ants
Ġsup ply
re ts
Ġd inosaur
Ġpresident ial
bor ough
p aper
24 9
bor ne
s al
Ġ encyclopedia
ĠP rix
az i
usc ript
Ġinter action
yd ro
F re
Å ¡
ĠSo ftware
ast ers
ap h
ĠL ewis
ĠV is
ĠS ym
Ġneg ot
akespe are
A tt
ot ten
et ics
M ore
18 3
Ġconn ection
Ġe arth
19 65
Ġdr ive
g rey
Ġs ample
St ud
ag en
ĠAd ministration
Ġrece ive
G en
ĠM ountain
Ġalong side
w ill
I L
ec ution
ry st
Al bert
part y
b as
Ġtry ing
Ġc a
Ġdevelop ing
Ġgrow ing
Ġder ived
ĠA D
Ġexper iments
3 13
Ġw inter
ĠCh ap
Ġlead ership
Ġmaterial s
ĠC ro
Ġre duce
Ġfav our
ĠM art
Ġrec ently
Ġexp edition
Ġdesign ated
Ġvis ited
t ing
ĠG ard
ĠS quare
f low
ee th
Ġhold ing
r idge
f ork
ĠO s
enn ett
ĠHol lywood
ĠG lobal
ĠAre a
Ġpro of
orm al
ann on
ec onom
Ġdiscuss ion
ap es
riz ona
Ġh arm
Ġauthor s
Ġc our
Ġm ist
Ġh usband
Ġcomment ed
Ġmem ories
m achine
Ġne ut
Ġus eful
y les
il arly
ĠB on
18 6
In flation
40 9
U R
Ġprov iding
t im
ĠMed al
ĠS ix
Ġapp eal
23 4
T ype
Ġ4 7
Ġmain tained
ant on
n ov
19 2
ĠN ow
ĠM ill
h all
Ġ rom
ĠWh it
ĠM oon
Ġhous es
D i
ĠH an
Ġsur vey
et ers
con f
polit ics
M P
a is
ĠF amily
ĠY our
25 3
Ġview ed
Ġshort ly
Ġm useum
ãģ ®
at ures
Ġspec ifically
ĠPhil adelphia
innes ota
spec ies
R on
olec ular
m useum
Ġf irm
ĠA sh
ey er
Ġexp los
Ġb it
ĠW al
N ature
Ġm dy
Ġbro ke
M ichigan
Ġst ations
Ġsuff icient
Ġconcern s
imens ional
Ġg ain
), <
b order
00 3
ĠPe ace
App le
L ang
Ġ19 36
ĠAr thur
F e
F our
ĠS everal
Ġhe ard
40 8
Ġwork ers
Ġqu ote
Spr inger
arri er
> </
g re
ro t
Ġimpro ved
Ġf ish
Christ opher
Ġm ut
Ġstand ing
ĠH art
Ġle aves
Ġalt ogether
or i
Ġcandid ate
es ian
eb ook
ĠG ar
''' :
n asa
Ġ19 62
Ġun certain
C oll
Ġp ilot
Ġcomb ination
Ġv ote
u i
ne th
m aking
ry an
A B
n orth
ĠI mp
Ġ4 1
Ġloc ations
ail s
ĠRep resent
Ġrepresent ation
m atch
us hed
so ftware
oss il
Ġre sc
ĠPublish ers
M ag
Ġelect ric
uss ion
= -
Ġt rib
us er
Ġachie ved
th ly
Ġpr inciple
Ġad ministration
ve land
Ġm oral
B arn
st able
Ġpart n
H and
Ġper haps
ĠCont rol
Ġa head
40 4
L i
h n
Ġm agn
25 6
B att
m l
ĠH it
ĠFor ces
2 17
E p
uc le
20110 7
Ġpro te
11 77
ac qu
aut o
st ation
Ġp ublish
ian ts
com ot
ĠCol l
ĠRepublic an
ound s
Ġacc ident
Ġprom pt
s a
Ġperform ing
East ern
B ank
ath lete
ul ed
19 59
Ġsc ulpt
ow ski
L ittle
ĠR ad
ict ional
c ru
'' :
50 9
D es
Ġph ase
Ġenc ounter
un c
ĠStud ios
F lag
ĠU r
eng land
Ġterrit ory
Ġp ul
it led
ĠSup port
p al
Ġro b
Ġsignificant ly
ĠDemocr atic
or us
Ġs atisf
Ġint ent
Ġwound ed
P erson
ĠJ im
Ġintro duction
ap pro
Oper ation
Ġo x
phil osop
Ġthe atre
15 1
rop olitan
Ġinc ident
Ġcons ists
H E
Ġm ach
Ġ{{ !}}
ĠTh ird
ĠJust ice
in th
Ġp icture
ut ton
Ġv ary
Ġse g
f ix
ï ¼
Ġag reement
Ġexper ienced
Ġh ospital
ot ions
eter y
Ġsupport ing
ĠMe thod
Ġh orses
Ġun iform
Ġequ ivalent
H y
y ork
ĠP age
19 53
Ġrank ed
ĠC orn
Ġreview ing
Ġtemper ature
19 63
ĠDirect or
Ġcent uries
ĠMar ine
Ġs oci
Cal ifornia
Ġreject ed
Ġsc oring
25 2
ĠKore a
ĠMo ore
P M
ĠA cc
Ġpass ing
ĠSec retary
" />{{
W alter
ĠH ere
rist ol
E mp
Ġflo or
Ġcasual ties
com es
Ġact ors
ament al
ad al
L ee
Ġmin im
c ur
K n
Ġw aters
Ġdeb ate
ug os
2 70
um in
aw are
Ġcont rolled
ble m
Un der
ĠT en
om ial
Ġv ocal
N ic
ĠSt ein
ang ed
amer ican
Ġf amous
Ġdef end
Ġmed al
40 5
Ġass oci
ok en
urric anes
d ir
50 8
C le
cn n
Ġsp orts
iam i
Ġvis ible
S us
os ition
Ġj oint
Ġgener ation
ask a
ĠNor way
ĠB ad
ĠPol and
Ġsen ior
Ġs inger
Ġclass ical
col width
Jack son
u y
I PA
R et
p m
} _
eb ec
unt ing
ĠDo uglas
s i
Ġd anger
Ġv en
Ġv ir
ah n
ĠB efore
Ġ5 5
Ġf uel
ac on
ct ic
Ġmov ie
d eb
d ot
Ġt ill
og a
ĠMem ory
ab e
av ed
al ph
Ġrel ation
John son
de v
Ġn uclear
Ġam b
Ġposs ess
2 90
c us
op a
23 8
Ġany thing
Ġfamil ies
off s
> ]]
ish er
D ead
Ġt act
ra ig
Ġnomin ated
S P
Ġgo es
ĠH ung
n ell
Ġt err
Ġch air
ĠF iction
ff ff
or ch
Ġc ouncil
ah oo
ch ron
Ġm ode
Ġsch olars
Y ear
Ġentire ly
f an
60 7
Ad am
T ur
Ġcritic ism
g g
ĠG reg
Ġex ecutive
Ġsp iritual
Å «
In formation
B rook
L ove
Ġearl iest
ĠB and
Ġpre ced
'' ),
ĠG overnor
ĠJ ane
50 7
Ġassist ant
Ġr ational
Ġexp anded
aval ry
Ġel imin
Ġrecogn ized
ĠEm peror
g un
ĠPhil ip
v d
ers elf
Ġord ers
ĠB ox
te chnology
Ġconcern ed
P olit
H arry
S aint
le arn
Ġrec all
R adio
sy m
00 8
Fran ce
atal og
e ffic
ic i
Ġprot ection
Hel lo
ber ra
u v
ãĥ ³
N C
ĠQu est
Ġag o
um ph
ĠBe ach
it ts
Ġse vent
ĠSong s
im ation
Ġst raight
ĠE ffect
Ġsever e
ĠTr ust
L es
n c
at ial
Ġass ociation
ĠRe views
ke ley
P P
Ġex change
Ġper man
nh l
; ">
G er
ip ated
ĠLin coln
Ġ4 6
Russ ian
j e
Ġn ick
ĠB ond
19 30
ĠInd ustry
Ġviol ence
weg ian
Ġcompos er
Ġaccess ed
Ġreturn ing
Ġtechn ique
Ġper ceived
bi ology
ĠHow ard
ĠCo oper
Ġstand ards
Ġclass ification
itch fork
he alth
ĠM ap
Ġext ension
S ports
Ġm anner
Ġ19 53
Ġappro aches
hel p
Ġc olumn
Ġret ired
Ġseason s
2 19
f i
ĠC ampaign
off ice
ai i
Ġtransf er
Ġaccomp an
at urn
Ġs quare
ĠT oronto
Ġ19 57
ear l
ĠCh arts
au x
M id
F ootball
ĠDie go
ĠW el
Ġlead s
F eat
P ers
T er
s ign
en ews
ed ge
Ġin vent
hy th
go ing
Ġdisc ip
ĠReg ister
osp ace
T ra
Ġis ol
S ong
| +
b ian
Ġ19 56
Ġf ear
Ġs ac
16 2
col lection
Ġsub stant
Ġw orth
d ale
ĠSt anley
Ġdem and
ĠL anc
Ġtw ice
ĠS y
16 1
24 8
h aw
ĠJ er
Ġcit izens
00 7
as ia
ĠM ult
ub a
at us
Ġterm inus
Ġconsist ed
Ġ19 13
Ġro bot
40 3
or row
if ul
al g
ung i
R T
ĠD ark
ĠCh ronicle
El izabeth
ĠStat istics
Ġbehavi our
Ġn av
Ġsp lit
Ġend s
R od
Ġac ademic
com plete
ĠPro t
Ġtit led
Ġcirc um
c ore
em etery
id ers
ĠM id
D ay
J er
ir ming
arch y
eng lish
pro ject
Ġp owers
Ġadv oc
Ġph r
Ġnetwork s
N ick
ut heast
Ġcap able
ĠL ady
ab el
b ase
err ing
Ġp un
ĠJ ews
T w
z i
ph ot
wik ipedia
; [[
Ġb asketball
ug hes
Ġext rem
o is
et ies
bo y
Ġinterpret ation
ĠUS A
Ġmat rix
S I
ĠV I
Ġrequ ires
Ġob tained
ab inet
A BC
Ġhigh light
oc ol
Fran cis
Rout ledge
Ġw ild
od ore
Ste ven
Ġmiss ing
Ġded icated
S ort
h om
ue ens
Ġn ortheast
Ġcoup le
23 6
Ġdis order
25 5
Ġbelief s
ĠGree ce
Ġf alse
ĠH y
Ġch ose
c ut
Ġ5 2
Ġim pl
Ġoper a
ĠCon stant
Ġincreasing ly
ra q
Ġoppos ition
B u
ĠF ire
pp er
g ing
c ard
Ġcol lected
l en
ĠG ra
Ġtem ple
ab b
m al
Ġ19 52
B anksia
ĠE ver
Ġabandon ed
W in
Ġ19 58
ane ous
Do uglas
c ourt
50 6
70 7
ĠStr ateg
Ġun iversity
S E
Ġp la
ĠSp ec
Ġwrit es
g al
Ġeng aged
erv ative
ĠE volution
25 9
24 5
Ġlin ear
Ġs un
co uver
Ġtechn ical
Ġtri als
b iz
n ce
Ġform ula
ĠPl an
un nel
Ġc ounty
Ġ19 51
C E
} {\
Ġt ells
22 2
ne ed
Ã© e
Ġcamer a
Ġe yes
Ġbro ken
R os
Ġto ol
Ġ19 61
Ġcontin uous
Ġorgan ized
ach er
''' <
25 8
P resident
Ġstri ke
Ġfind ing
ĠL y
M ax
Ġopport unity
x is
ĠOn ly
Ġreason ing
4 20
Ġp rice
pl an
Ġ19 59
Ġcall ing
ĠAm ong
ĠEnt ry
] |
Ġro ll
Ġequ ations
ĠBe havior
omet ry
S l
Ġbe at
Ġyoung er
Ġla id
ĠPro cess
d est
uccess ful
ĠP ass
Ġst ore
ĠE p
the l
Ġqu ite
Ġsch olar
F ried
w ig
le agues
Ġphys ics
k h
ol t
ĠB ruce
Ġnot able
Ġte le
ĠW indows
ĠSe attle
ĠWork s
Wik ipedia
]]) </
tain ing
Ġnew ly
AAAA M
Ġ19 47
ett ers
fm t
E FA
Ġa id
Ġw itness
ut ational
Ġv ision
Ġres idents
Ġassum ed
Ġp lain
Ġc e
ĠC ook
Ġ19 38
Ġown er
Ġf lying
at l
ar on
am an
ĠH end
Ġl ibrary
ĠMed icine
g lobal
ĠB all
Ġf aced
st ock
Ġr ac
aly mp
N R
Ġc art
Ġd rawn
Ġident ify
cl one
Ġun us
Ġfr ag
ult y
Ġprot ect
ann y
Ġ('' [[
Ġoffic ially
Ġ19 54
ĠL i
comm on
3 50
p lain
r ated
Ġm ill
er ts
J oe
s is
Ġf il
ref end
ĠA bb
Ġb us
Ġass ault
n ik
at ched
Ġart illery
Ġappear ances
us at
R oger
hib ition
S un
ĠV i
lic ations
b ur
19 39
ĠF ive
Î ±
ul ating
Ġg rew
ens is
Ġcarri er
t l
Ġb ug
'' -
Ġto wer
aur us
Ġpract ices
phys ics
00 4
S quare
De ath
Ġemploy ed
G N
s un
Ġw ing
ĠOlymp ic
Ġm yst
cl c
atin um
ĠSing apore
Ġ5 1
L og
ĠTem ple
( [[
E pisode
ain e
u o
Ġf ired
uck er
Jon athan
n la
Ġh all
ĠN ever
app ing
Ġst ages
Com mon
Ġsuccessful ly
( ''
ĠEx press
ĠAccess ed
ĠV ers
Ġbo at
G re
c u
Ġdis covery
ne ur
Ġo vers
Ġ6 5
Ġre aching
All en
Ġtem por
Ġmeas ured
Ġgr anted
U T
â ĪĴ
ic ians
ĠSpr ing
Ġy ellow
Ġatt ributed
Ġport rait
19 14
A v
M iss
Ġcommission ed
Ġ\ \
ten ance
ĠDe ath
ĠR un
let ed
ĠEn ergy
Ġlink ed
K evin
Ġ ]]
ook er
F l
Y oung
f our
Ġdis app
D ar
ok yo
ud son
ĠInd iana
the ta
ĠBeat les
Ġch ance
G ar
H D
Mary land
Ġpattern s
ark ed
All Music
Ġtit les
B ow
Ġcommun ities
Ġwithd raw
S O
g b
ch ild
Ġcompar ison
N orman
un ities
Ġoff ensive
ĠSw ift
our i
ĠServ ices
F ore
us ing
Ġo clc
Ġ19 55
Ġsk ull
Ġvehic les
est ed
oc a
w r
ĠS and
Ġ19 10
Ġgener ated
f ish
t ah
ĠI ce
sp ir
Ġent rance
sy n
can al
T em
Ġf ile
60 9
27 5
ĠSc ient
M ah
the less
Ġpre de
Ġsuccess or
Ġwhere as
Ġstat istics
ĠG ordon
} (
Ġst reet
Ġwe aken
g allery
et ch
D avis
Ġf olk
anc er
p res
ia st
Ġher o
W all
Ġwr ong
A V
b ishop
Ġtrave ll
ke ep
thes is
S ource
Ġtyp ical
Ġd ie
cent age
2019 0
Ġcritic ized
ab or
Ġcont ributed
Ġdist ributed
chest ra
ro c
ĠP C
ĠF A
Ġmeasure ment
zant ine
3 12
Ġposs ibility
Ġpat ients
Ġesc ape
Ġw a
Ġ19 37
19 61
Ġj ourney
Ġinvol ves
O f
Ġoper ated
Ã ¦
ex per
ier re
ĠMe an
ĠA thlet
ist a
R om
Ġro of
Ġother wise
ĠAnn ual
Ġ19 21
Ġdec k
oth y
Ġri val
V er
m ont
ĠM ike
od a
70 8
Ġcompon ent
ol y
Ġsp ort
Ð º
at ically
Ġ19 22
ob le
omet ric
K ey
h att
"> [
mat hematics
d ated
3 19
H art
ast ro
Ġmed ium
Ġh erself
Ġ" ''
ĠEv ans
Ġappropri ate
F r
d n
on ents
ĠP ract
m ax
re hens
H ome
ref begin
ĠS omerset
id en
ens es
Ġland ing
P ress
al ism
Ġown ed
ones ia
at ivity
ĠM ah
Ġign ore
Ġrele vant
he im
Ġ19 49
ra k
ip h
Ġac id
L y
Ġg ender
Pro ceedings
Ġinvestig ation
ĠN on
Ġne ural
ae ology
i ability
M ap
R AAF
mi ere
ĠC arl
M ill
f ront
Ġmove ments
An t
ĠHar ris
D ev
ĠB ureau
p sychology
ĠA ud
)| ''
f eld
ar o
ĠD an
Che ers
Ġw alls
iv or
ĠRob inson
ĠBu ilding
ig ration
ra h
Ġcast le
T ri
ay ne
ĠG ram
sh a
Ġad ults
reat y
35 7
v ariety
e enth
Ġcon vent
Ġed ge
Ġarg ues
, ''
Ġf reedom
Ġr ating
id ges
ĠComp an
Ġin her
70 6
enn on
Ġprincip les
Ġ5 3
ĠGo ogle
M ir
18 2
Ġdes ire
ĠA V
ĠDef ence
B usiness
17 2
sh ows
ĠC ountry
23 2
inc ent
ĠAss embly
ĠS unday
ĠChrist mas
og ers
Mad onna
ww e
ĠH omer
it ime
ĠD ream
ax y
st ood
te ams
st ances
Ġclass es
h ill
O V
Ġf ought
ut ter
Ġcom edy
igen ous
al low
D ata
H S
Ġat mosph
Ġrep utation
H ay
og amer
25 4
ĠCol lection
ĠAg ency
ellect ual
l on
ĠGerman s
flag athlete
ĠGlo be
Ġcomm emor
Ġserv ing
Pr ince
H on
Ġco al
Ġclo ud
Ġhold s
washington post
ĠV ictor
Ġb om
agaz ines
Ġcer emony
_ \
Ġm obile
ĠE ss
Ġstrong ly
S a
iv a
Ġpsych ological
ell ation
ph ony
Ġadd ing
Ġ4 00
sc reen
harv id
D ave
l ad
ut o
b ad
K a
Ġf if
Ġcost s
ec raft
Ġar med
ĠSim on
Ġindic ate
Ġf inds
Ġengine er
ĠB udd
ich mond
Ġs leep
ell i
F M
h art
h dl
comm ons
ĠI ss
feat ure
ĠTer rit
ĠWik iped
Ġframe work
ĠChild ren
c ase
Ġhab it
30 1
Ġprep ared
H ans
ron ze
pos es
c urrent
m aster
s il
ĠArch ives
Q s
Ġb udget
Ġ[[ #
19 1
An thony
Ġdo ct
am ine
Ġfor g
Ġtheore m
Ġrapid ly
h ockey
ag ascar
plic ations
Ġinn ov
B ad
C rit
ĠF all
Ġalg ebra
l ig
Ġt y
Ġcrow d
at omy
Ġworld wide
ow der
ph one
Ġlo sing
An ime
D emocr
N on
Ġc ortex
j ack
Ġs ession
O K
e z
ic ity
Ġb right
ch ant
Ar m
Ġdi agn
C M
c ms
Ġl iber
Ch inese
Ġwick ets
. âĢĶ[[
00 2
c ounty
n ed
ĠB ot
Ġst ock
ĠWikiped ians
Ġcon clusion
00 6
ĠPr ime
Ġeconom y
G ib
I ll
Ġin put
ent in
' d
ĠStand ard
M en
ĠL ane
Ġdec isions
B art
cl ade
Ġart ificial
Ġtechn ologies
ĠN ic
orn ey
ĠBer lin
B I
E ur
G eorg
n ature
n avy
r im
ap a
ĠG ro
Ġkn ew
usat oday
60 3
ĠMur ray
w ire
27 7
T ube
m ur
ri en
At lantic
R yan
Ġre volution
Ġbe aut
ok es
Mat thew
60 6
24 4
ĠC ount
Ġappro ved
Ġm ort
ant ics
source check
W W
n atural
Ġdiscuss ed
s r
ch rist
Ġg rav
ĠInt roduction
ĠE pisode
Ġchall enge
enness ee
in burgh
Ġy outh
h orse
r ace
ĠB rian
u lo
th a
ĠMor ris
G M
a ired
Ġscient ists
Ġt ail
ĠC art
c it
ĠS yn
Ġad ult
ĠV II
Ġun ion
ĠW alter
ĠAn ton
ĠB a
Ġ19 35
ox ford
is ch
ĠPolit ics
- %
a ustral
'' ]
24 3
T exas
Ġmult ip
J acob
Ġ5 7
Ġwe alth
Ġgl ass
Ġdemonstr ated
H or
st age
ĠU RL
B at
C ard
in ition
Ġd rop
Play Station
p rior
00 5
, ,
s uch
Ġt ank
ĠM ax
ĠN C
Ġdep th
ĠS ullivan
ĠPol ish
s el
Ġ5 4
Ġenvironment al
Ġp it
Ġm outh
19 57
Ġal tern
Ġex erc
) \
K im
g c
ot yp
60 5
ĠJ ean
us a
26 7
Ġauthor ities
ĠCol orado
or er
ĠC re
b rook
canad a
ack er
ĠAir port
st an
Ġl ang
rec ords
Ġd ram
ĠIn stead
ex ican
Ġd rama
ce le
Ġm aster
70 9
enn ial
ĠPol ice
Ġaccount s
Ġvehic le
p resent
19 20
p es
Ġcon vers
I rish
ak ed
Ġhard ware
le ts
Ġpol ic
ĠForm ation
B L
S il
ect ic
so le
Ġex plicit
ĠAn cient
29 5
Ġreg istration
sp ective
ĠOrgan ization
50 5
rib ed
B ro
ab led
P acific
Ã º
Ġl ingu
om at
ag ner
ers h
ĠN umber
ps ed
ĠComm unication
Ġdid n
R ead
p q
bo at
ĠCh apter
son s
Ġbrief ly
H O
Ġper fect
ĠN ev
Ġ19 12
com pl
Ġ19 00
ĠO tt
Ġext ent
omin ation
ĠS il
R em
ĠS uch
22 1
it i
ĠPolit ical
S en
it ative
Ġp il
ition ally
ĠTh ompson
Ġres istance
Ġens ure
ĠViet nam
atell ite
ch ic
ĠN ative
if ies
eng ers
Ġrece iving
Ġexperiment al
as hed
ob a
comp any
im ary
im en
he me
enn ifer
ĠAng lo
Ġcompos ition
Rob inson
J oh
ĠR ow
And erson
Ġ19 33
11 26
S M
19 55
Ġst adium
up loads
70 5
ut ies
Ġview ers
Ġparam eter
ed e
ey ond
unic ip
M iddle
il lo
ĠSt anford
ĠPer formance
adal canal
la p
Ġind ustrial
g ary
50 3
S ilver
Ġb ats
ĠPhys ics
d p
ĠJ an
Ġsp ring
h as
60 8
d et
port al
Ġtw elve
F ollowing
Ġdec ades
in cluding
ĠM aster
19 11
ze ch
Ġloss es
Ġkill ing
ĠScott ish
ĠW ell
sh op
Ġact s
ĠMad onna
N ame
s co
R oy
S MS
Ġy ards
Sam uel
n ick
ran ean
Ġoppos ite
program ming
X X
ĠU N
Ġcarry ing
B oy
T ony
Ġfrequ ency
f b
Ġlo go
Ġleg end
Ġopt im
I R
he tic
op y
Ġcy cle
Ġt anks
Ġaccompan ied
I r
ur an
old id
let ter
Th ree
Ch urch
H C
y t
Ġf it
Ġpropos al
Ġdef ence
le ad
ol o
Ġill ustr
U P
S ing
r us
ar io
Ġs ections
Ġrespons es
p ast
iv ated
ĠComm unity
I P
Ġch annel
il ation
V irginia
Ġd ocuments
Ġm or
33 3
ash i
low er
enc er
Ġpass es
R en
ĠB ible
ĠPlay er
Ġliter ary
y ram
iff e
public ation
E M
ĠL iverpool
Ġcol leagues
Ġsign s
Ġ5 8
W rit
g on
st ers
Ġgu ard
ĠCamp bell
ch a
Ġg etting
Ġdis cover
r in
ĠB ush
umb le
rn est
L u
Ġb at
er ial
ment ary
Ġhistor ians
ÃŃ a
d em
]]| [[
Ġf ixed
Ġd ated
ĠD er
Ġhead quarters
Ġdetail ed
M icrosoft
Ġis lands
26 9
Ġlo comot
Ġg ets
Ġsecond ary
Mod ern
lo ve
ĠO k
Ġbro thers
27 8
Th ompson
Ġmechan ism
d an
ĠS av
ĠR oy
Ġ19 34
]], {{
18 1
Ġ6 6
EE E
poss ible
W al
Ġcomp ris
Ġinst all
Phil adelphia
L ind
h op
h aus
Ġd ance
ay er
Ġthem es
Ġhead er
Ġfa ith
at tempt
Ġcomp uting
ann ica
Ġarri val
EN G
d c
Ġre cept
ĠP rom
um ni
Ġac know
de ed
arn er
Wh o
ĠChristian ity
un it
ad i
19 46
ap ple
res ents
ĠK ennedy
cricket archive
ĠS co
ab il
ant um
23 1
ush ing
ace ous
Ch apter
leg al
mod ern
itud es
B et
h um
ĠM ind
ĠR ights
Ġv o
epis ode
air craft
journal s
uff alo
Ġgu ide
ach ment
Sp anish
M art
Ġste am
]] ".<
Ġso utheast
Ġm argin
Ġ5 6
vel t
Ġcurrent ly
' ll
pro duction
Ġint ensity
ĠCon stitution
Sim pson
H A
Ġev ac
Ġch arts
26 4
pect ives
% ;
ĠĠ čĊ
19 52
Ġincre ases
ellig ent
Ġobserv ations
Ġbur ied
B arb
Ġpar ad
Ġre ar
Ġrec alled
col m
F red
26 2
28 6
Ġpop ulations
Ġtem plate
Or iginal
Ġmult i
ĠLaw rence
ĠW he
ĠSt even
Ġdescrib ing
Bl ue
Ġs omew
Ġm el
Ġsec ure
Ġfeel ing
en ess
27 9
Ġfac ilities
yn omial
Ġpurch ased
80 7
- [[
E th
Ġso le
gress ive
Ġdri ver
ac o
ĠL ate
ĠApp ro
G ram
Ġsuppl ies
ĠL yn
90 7
esp read
H ot
ĠG ilbert
ĠRes ults
Ġsem i
N ASA
Ġl es
ĠB at
fl ight
Ġinf antry
f antasy
ĠC our
ĠD NA
ĠRuss ell
ol ph
Ġret ire
ank ees
R h
Ġk ick
ĠOn tario
ĠAff airs
G eorgia
Ġsitu ations
Nor thern
pp ing
eb y
00 9
Ġart s
ist em
Ġevery thing
c rit
Sp ace
Ġsound track
) .{{
C F
ĠTh ough
Ġatt ached
Ġfe et
She ll
Ġconv inc
H arvard
Ġd aily
Ġm ilit
29 9
ĠM es
ĠH op
ĠD ick
Ġ19 11
ang ers
ĠBi ology
" ;
Ġm o
ens ed
33 1
eng uin
Ġindic ated
Ġrain fall
serv ice
H alo
Ġm us
all as
up iter
Ġeffect ively
Ġtri p
L at
Ġlo ad
Ġrough ly
ĠG er
b c
Ġpl ane
A k
R iver
ĠInter view
ic he
ĠW right
qu er
Ġp iano
Ġag ree
Ġne ither
38 7
Ġstand s
ĠGre atest
C BS
L iber
ĠP rize
19 48
Ġdeliver ed
ĠM ess
Ġpro port
Ġcanc er
chic ag
F iles
at ra
Ġcol l
ĠIs lam
Ġcontrovers y
Ġ6 1
R am
b ach
Ġind ependence
lim ited
G ary
19 56
Ġrepl ace
m us
Ġt ell
Ġprom otion
Ġg ar
ĠF le
Ġ6 7
3 10
G ames
M M
Ġbas eball
ĠSh akespeare
Ġsix th
Game Spot
enes is
Ġdraw ing
j un
re a
Ġm ountain
ĠR on
80 6
lin ear
ĠPet ers
al so
le in
Ġs now
19 49
ric es
Ġunder t
P a
te enth
Ġass ert
Mar sh
ĠM u
ĠR ace
Ġphenomen on
op ter
ath ers
Ġoutp ut
J ust
Ġpol l
irming ham
Ġpart ies
Rec ord
h ang
Ġs qu
Ġf ashion
Ġex ists
90 8
Ġarrang ed
G a
ic ide
ĠO ur
Ġc ars
Ġ8 5
Ġman uscript
t ri
ff f
rap ped
edit er
bl ue
28 5
au er
Ġren amed
um n
Ġrel ief
ĠInter active
B a
26 8
ins ula
Ġroad s
F in
u ity
it arian
ĠT ype
Ġer upt
Ġ8 7
Ġsuper ior
60 4
Ġ}} .
Mur ray
w iki
Ġdec re
Ġrep resents
B ruce
ĠS ons
ĠE le
oun ces
Ġb ird
3 16
V ictor
ut on
ĠB erg
A ud
Ġm ent
ĠH orse
Ġ >
Ġ19 31
ĠPl anet
Ġ19 05
35 8
ĠSup reme
Ġir on
ĠBet ween
n ext
Ġdifficult y
L and
ĠJ oe
ash ville
Ð »
Ġb rown
ist ered
ra f
An cient
ign ore
Ġsup posed
Ġmod er
Ġphot o
Ġstim uli
ĠM A
ĠE st
ece ption
V ictoria
90 5
ĠAl an
editer ranean
. ]
pl atform
Ġz ero
S axon
m ind
Ġre ception
ĠNe therlands
Ġorient ation
ĠG arden
iam eter
Ġmat hematical
Ġm amm
ens or
urren cy
P ennsylvania
Ġd ig
ry pt
ah l
Ġlic ense
un ion
ĠF ried
U C
ĠD em
qu ery
Ġoccup ied
ras er
sp ot
30 2
Ġarm or
Ġsp irit
m ail
Ġt ick
Ġre tained
ug ar
ĠEx t
Ġprom ote
Ġbow ling
Ġ 97
Ġd riving
N S
f lo
Ġa ired
Ġor bit
80 8
So viet
ow ered
Camp bell
B anner
ro oms
Ġrat io
g if
se ct
Ġab ilities
German y
Ġdom ain
33 7
Ġact ress
ĠLe ad
g reat
57 9
D er
h it
Ġinst ruction
E A
r ant
ĠWe ather
Ġextrem ely
B ox
U l
Ġ {
Ġpaint ed
ag ers
ribut es
A fric
Ġneut ral
E P
an ia
80 5
mill an
ĠMov ie
ectic ut
t able
ĠL ev
2 97
H an
in te
Ġtr ains
Ġread y
los ed
Ġ item
rel im
Ġel se
Ġp ure
ik o
80 9
ĠAd am
oper at
C P
m aps
Ġs ave
ĠL ieutenant
ĠGu ard
Ġland s
ĠE very
Ġmy th
ĠDep ression
ĠSec urity
Har ris
ynam ics
em ed
Ġ2 50
Ġinterest ed
ĠGu y
gr ade
Ne ur
50 4
Ġw ins
Ġc aught
ĠF ord
oll s
W A
im mer
ĠBel g
Ġrespons ibility
Gold en
enn ium
Ġrat ings
ĠB uck
Ġinter actions
Ġdef ensive
Ġsol utions
Ġbattleship s
Cap tain
Ġrecomm ended
ĠMarsh all
x x
ĠA ustria
ĠG allery
:: ::
Ġpers u
Rock well
G reek
ari ous
C olumbia
l ater
Ġb ed
Ġd ress
Ġat h
Ġr ates
of i
35 6
Ġâ ĪĴ
H en
19 40
de g
math rm
ĠL ow
26 5
Im perial
Ġwid espread
f ight
27 6
ĠLiter ature
attempt ed
S ingle
Ġcons ecutive
M u
at z
con scious
Sp ec
FF F
ĠOb serv
! |
ĠI r
Ġdec or
Ġdis pl
ae ological
Ġpost er
C ertification
Ġ19 26
19 00
ok ing
ĠRe al
Ġhead s
Ġadmin istr
Ġun iverse
Ġfamil iar
S yn
Ġ5 9
Ġrec ip
Ġchang ing
Ġt orpedo
Ġd rew
an ime
19 47
ĠDe an
Ġproduc ers
yr us
Ġprec ip
direct or
T or
ĠS ection
Ġabs ence
pr ison
Ġpopular ity
cb ignore
ĠC ognitive
90 6
Ġoff ers
itts burgh
id al
ĠW is
]]) <
igg est
onym ous
Ġcru iser
Ġcorrel ation
Ġdep os
Ġpass age
Ġbirth s
Ġconvert ed
R esearch
ĠRec reation
itzer land
orn ame
M ost
ĠM ove
ĠW ol
Ġparticip ated
operat orname
am azon
Ġl ists
Ġtext s
Ġcateg ories
ĠF uture
Ġturn s
person al
s u
cept ual
n amed
op in
ant ly
ose velt
i ens
pl anet
Ġve loc
Ġground s
T M
re q
co ord
br ain
Ġsim ult
lot te
ĠIm age
Ġb owl
ent ed
her ald
Ġann iversary
Ġmount ed
D irect
F amily
H ead
ĠC ur
ĠMed ical
n ames
St and
ĠEx pl
cent ral
lam b
L E
as er
Ġh our
em s
Ġwar fare
Ä į
ĠT rad
Ġfeel ings
19 12
imens ions
33 5
24 2
ĠAn ne
Ġsurv ived
Ġunder stood
ess ions
Ġte aching
/ #
ĠF rederick
stat istics
Ġdepict ed
N HL
con n
Ġcross ing
Ġindic ates
B rand
C ro
Ġt eeth
Ġmin ister
Ġgu est
ĠTra il
ĠSte ve
oen ix
k inson
th rough
ĠC A
28 9
Ġdec line
L ev
f il
ear son
Ġadapt ation
Ġstop ped
D B
24 1
Ġproduc ing
ren ds
26 6
g irl
n as
road way
Ġconsist ent
Ġess ential
R C
ĠC ru
Ġbo ats
Ġinst alled
ĠEx p
Ġoccup ation
a ac
or pe
- \
Ġtrans ition
Ġsuc ceeded
ĠLim ited
L yn
it ations
Ġcl imate
mon th
Ġuns uccessful
Ġd og
Ġfl at
v s
sf orm
Ne il
prior ity
Ġ19 28
ear ly
Ġhom es
V is
c red
ĠHe art
B erg
ic ate
iz en
Con f
F ield
f air
ic ism
ue z
ĠPro ceedings
Ġrequire ments
ĠGold en
Ġ urg
ier ce
I M
Ġc rown
math cal
Ġf ine
Ġg ay
ĠSt ewart
Ġerr ors
educ ation
Ġd uty
B ell
Ġex it
inal s
Ġ7 7
c re
ĠB eg
um ed
sig ma
ip er
|''' <
ĠCrit ics
ab ri
ĠAr gent
27 3
W indows
Ġ19 25
amp s
An ton
ane ously
Ġ9 5
Ġnarr ative
Ġn om
L ead
O P
19 54
Ġ19 06
ud den
e u
m un
ĠG eorg
Ġcon vention
Ġinter change
En cyclopedia
Ġ19 27
oc ene
ust ration
ĠAt l
Ġaccur acy
N ielsen
fr ame
all music
Ġgreat ly
ĠCons ervation
anal ysis
ict ory
* ''
m ac
ig a
Ġcomp la
Ġ6 8
Ġstim ulus
Ġgraph ics
ĠK im
Ġf ly
Ġpart ner
Ġexp and
Ġconsider able
g host
am as
ĠN FL
I mp
d imensional
ĠM organ
Ġcre ative
Ġest ate
met ry
Ġinflu ential
Ġcust om
F ord
or ient
sc ar
we ather
? }}
H M
al ty
is ition
ĠB re
op hys
lic ation
Ġsent ence
ĠC ultural
Ġv ent
33 8
b efore
el and
ĠF lo
Ġman ip
hol lywood
cons in
Ġhor iz
3 17
ar my
Ġin ner
ub er
ell ar
Ġsett lement
quir y
b ird
o ft
Ġs oul
Ġf an
ĠB rand
Cyber power
in to
ap ole
38 8
ret aceous
Ġfac ilit
G A
Ġ1 20
ours es
lo se
Ġ19 08
Ġd ream
em ble
>''' ]]
p rom
ĠA k
ug al
Ġ7 6
On line
Ġcomment ary
Ġmechan isms
he imer
Ġsym pt
R oss
i very
Ġa part
Al fred
be am
Ġfin ish
ranch ise
ĠBul letin
n u
Ġ6 3
Ġprot ected
pre v
ĠFa Q
Fa Qs
c ond
Ġcomm it
Ġdec lined
Ġse at
An other
N BC
ul ner
em ale
19 36
38 5
90 9
hatt an
ĠK night
29 6
lo b
W hy
Ġvess els
"| [[
ĠM otor
) ]
C ode
W omen
ĠP remier
Ġ19 32
ĠO S
ĠAg es
ĠExper imental
" :
Ġ19 09
op les
hy d
Ġ6 2
Ġweap on
T R
ric ulture
philosop hy
G E
N ow
ĠW ing
ob i
28 8
Ġking dom
r ate
26 3
28 7
ĠAl b
Ġelect ron
/ _
L atin
cl ing
Ġany one
ĠAs ian
p ag
ok er
ĠSt ories
Ġsc heme
25 1
ull er
Ġsecond s
Ġmat hematics
ĠD om
Ġdep ending
... ]
Ġmed ieval
Ġfund ing
mon ospace
Ġin hab
ĠO pp
Ġdem ocr
E qu
ĠD u
ern er
L ady
S u
e ffect
ĠL etters
ov en
Ġdo or
ir ation
ĠM orning
act ed
33 9
T oronto
Ġf resh
off rey
Ġsol o
V P
and al
ĠOn ce
ĠInd ies
Ġrepresent ing
L ake
Ġac compl
J os
h us
ĠM achine
"> ([[
dark grey
ĠQuarter ly
e us
Th ird
ĠIll ustrated
Ġ7 2
Ġ il
ĠS S
Ġan ch
ip per
ang le
Ġexplan ation
W el
ĠS ky
Ġ19 23
r ange
w art
Ġco oper
Ġdec ade
ĠEgypt ian
S ym
ĠM yst
ĠJ acob
Ġpract ical
agg reg
U r
Ã Ĺ
Ġs ure
Ġ19 29
or ne
Ġc orner
2012 10
Ġrepl acement
y th
cast le
Russ ell
anim enews
Am azon
ĠS on
Ġe c
aug e
animenews network
ack ed
Ġy es
Ġreturn s
Ġemploy ees
ĠDef ense
W R
ĠS ilver
ĠD C
29 8
Ġcr ime
Ġadapt ed
Ġaccur ate
c ross
Ä ĥ
er x
ing ly
ĠT alk
Ġneigh bor
ĠEnvironment al
um i
Ġsee k
D utch
or iginal
Ġh ydro
ĠE qu
Ġcons ult
writ ing
ĠLin ux
3 15
om orph
Ġh ired
ĠR acing
Ġinflu ences
Ġve ctor
Ġsurround ed
e a
m g
Ġob tain
Ġmain tenance
Se arch
ol ia
Ġe asy
d ers
Ġf ract
ie th
col la
35 9
S ydney
ur i
00 22
ĠPark er
Ġclub s
f ive
ĠH indu
in ite
or ce
land ers
Ġz one
ĠBrad man
C re
l iter
o a
Ġchild hood
Ġfund s
C ognitive
ĠG riff
45 7
Ġnovel s
bu ilding
s j
ol ly
ĠShe l
stand ard
b ill
at lantic
19 19
Ġg al
ĠSt ock
Ġde leg
te chn
Ġrespond ed
ĠEconom ic
Ġbatter y
ĠCh annel
Tr ack
ba um
ĠClass ic
ine a
ib n
Ġsp ot
B al
Ġcon ve
Ġb ass
row ing
Ġy ield
ĠOr ig
Ġm erg
aw m
Ġterm in
Ġsound s
it ual
ĠN orman
Ġv ac
ke leton
d ates
Ġconsist ing
F oot
V I
g rand
Ġc old
Ġbi ological
Ġprison ers
ĠT ower
Ġ19 24
uer to
> )
ir ical
loss ary
ĠColl ins
O regon
Ġs cores
and o
Ġpur poses
Ġdis ag
L ex
th ree
ĠO ffic
" ),
Ġd ensity
Ġre vol
mult iple
) ^
Ġt all
ĠG iants
Ġcomp uters
bu ilt
Ġperman ent
3 18
ap ps
ĠThe n
£ o
en berg
ist ent
ĠI raq
Ã© n
ĠAustral ians
Ġnorth west
ĠS elf
us al
el ing
ev ents
Ġalgorith m
C ross
S L
Ġm aps
Ġass ign
os es
ĠK h
Ġut il
M any
r up
Ġspec imen
Ġstrateg ic
Ġh its
ĠD atabase
ĠPro duct
F ilms
y gen
ĠS ign
iss ues
Ġfilm ing
ĠPol icy
Ġbenef it
Ġw inners
Ġ7 4
Ġinj ured
lar ation
Ital ian
ĠSwed en
an ne
Ġc risis
Ġh ier
eb er
Ġsp ons
Ġs ell
Ġre covered
Ġcom ic
Ġsk y
How ard
ĠL ost
Ġeng ines
40 1
28 3
ĠV iew
est ine
log en
Ġcle an
ĠP ast
ĠE ur
Ġro ots
Ġacc used
t re
'' ;
Ġabo ard
Ġinterest s
ĠG ray
000 1
Ġflood ing
sq rt
Ġc atch
Car ol
phys ical
D isc
ĠIn vest
Ġch ampion
ĠA rizona
ĠW olf
de ep
Ġ18 90
K al
L ive
Ġcred ited
Pat rick
C a
ĠB ol
viron ments
O d
c z
ĠY ugos
Ġim possible
erm in
arri age
rest le
ĠOper a
ĠN intendo
ann ot
Ġaud io
. ),
O tt
10 86
Ġch ain
Ġlast ed
ĠSe arch
Ġhouse hold
Ġprincip al
Ġin fer
35 5
ĠRel ations
J osh
cd ot
Ġthous ands
= \
Ġp ron
Ġn ucle
ĠM as
ab in
80 4
F rederick
ĠS n
19 17
ock s
Ġexper t
Ġtre ated
ĠB ase
on ly
ĠK ings
Ġus age
Ġste el
ap hys
I F
Ġp riv
Ġ6 9
Ġgen etic
ĠKore an
c art
Ġ19 07
sh aped
ĠComm unications
Ġsail ed
t it
open url
Per centage
Ġarg uments
histor ic
Y es
Ġd uties
ĠG et
ur ches
Ġh ope
Ġ7 3
comm ission
app y
Ġpurch ase
Ġrequest ed
t aylor
os m
Ġsub marine
no ught
ibr aries
F lorida
Ġvari ation
Ġunus ual
ĠN elson
se ud
Mo ore
ĠE vent
stat es
out s
Ġassess ment
Ġhappen ed
E B
M ount
k an
ĠK a
iss ipp
med ium
Ġex ecution
Ġcont ribution
33 6
Sc i
Back ground
C as
Ġ'' [
ph ant
mat rix
D esign
Ġdi agram
b ass
ur d
Ġre verse
Ġappro ached
Ġsurv iving
Ĩ thel
Ġrem ove
Ġfilm ed
be an
read nought
Democr atic
res ources
pro t
Spr ing
ain ts
sc he
ĠAct ress
sv c
W eek
Ġ lock
ĠT al
ĠR yan
arl ie
Ġ7 8
ela ide
ĠLabor atory
j u
19 10
ĠPar alymp
Ġs at
ĠA uthority
Ġan tic
ĠBr ain
Ġide al
ĠPort land
ueens land
ĠD ue
Ġres emb
Ġvert ical
us ch
Ġv ice
ĠPal ace
Ġl ies
26 1
ern atural
Ġtop ic
Ġplatform s
l ane
Ġc hemical
ist ant
Ġ3 60
ĠComm ons
i op
Ġt al
Ġd ry
Ġco ol
Ġvol unte
Ġdeg rees
O t
Ġf illed
ĠM ack
Ġro utes
yl an
Ġcharg ed
S erv
ock ed
on al
ĠR a
St anley
Ġal cohol
oy age
Se ason
F ederal
ĠD et
Ã© s
Ġparam eters
Ġsched uled
I FA
w ind
Ġtr ained
ĠW hy
thod ox
B O
gar ia
Law rence
Ġprede cessor
o or
Ġt ube
29 4
Ġdist inction
md ash
i em
Ġm ir
ess ment
70 4
list s
Or der
ent on
Info Web
Ġfunction al
Te levision
nb c
ynam ic
Ġnomin ation
xi ety
Ġpoet ry
c Ã©
19 22
ĠF ederation
pro file
Ġ8 2
Ġstep s
Le ague
Ġgrad ually
ĠMel bourne
S elf
g od
ĠC E
ell or
i ency
p arks
ian g
Ġassist ance
Ġconscious ness
ur er
Ġpl ate
list ed
Ġexerc ise
s mith
á »
in ian
Ġlate st
ĠM un
ĠR ose
ĠM innesota
Ġv ar
Ġout come
ol ymp
ĠH en
Ġass emb
Ġc ert
olum es
Ġlay er
bed ded
Ġenjoy ed
Ġconstit ution
om son
uc l
Ġint ens
Ind ia
Ġsepar ated
Ġcle arly
aggreg ated
f aces
Ġmin ute
Ġsk in
ep ler
Ġhe at
New spapers
ub s
ĠH ospital
ter bury
ens en
ĠTr ade
ĠW alker
ĠE ric
Ġcont est
Sh ow
Ġthreat ened
id i
im an
ens ions
Ġeven ing
Ġmass ive
' :
b g
ol ute
ĠW iley
os hi
ra ke
ĠU sing
ĠPhil ipp
ĠF und
Ġdep artment
Ġbehavi ors
28 4
ĠCol onel
Ġoper ator
ĠChrist opher
Ġbatt alion
D ick
Ġarrang ement
r ust
it oring
ĠN orm
H is
ic ial
Ġp apers
as i
10 06
39 3
comm unity
Ġlist ing
Ġturn ing
Ġinit i
Ġobject ive
Ġfund amental
Banner Shell
b asketball
Ġw arm
Ġclass ified
Ġoper ate
WikiProject BannerShell
B urn
J ason
Ġo vert
ĠP att
Ġconn ect
Ġcirc ulation
Ġlegisl ation
ĠF riend
Ġv oted
ann es
ling ton
ĠInd ians
Ġprint ed
T D
Ã ī
Ġm anga
ĠF ederal
Ġ8 1
ĠSc ientific
Ġdesign ation
Ġtem porary
rupt ion
ĠEd wards
Ġill ness
ĠHand book
19 13
Ġst ret
uc ed
amp shire
Ġag ents
ĠTr aining
un ning
Ġcorrespond ing
S ol
el lo
ĠF ac
Ġres erve
issipp i
19 21
ra its
Inter view
Ġbound ary
Ġshoot ing
n ihongo
Ġw inner
ĠW ard
3 45
S ince
Ġs ale
Ġd iameter
ĠD esc
Ġclo ser
20070 9
Ġtransl ated
N ov
ul u
ew here
ĠB urn
ĠUn iversal
90 4
Ġcomm itted
arr ing
d vd
D em
K night
ĠT itle
ĠW ells
Ġ9 9
Ġmov es
Ġregular ly
. '
b rown
Ġinter ior
duc er
eder ate
Ben jamin
S ummary
]]. ]]
A nal
x box
Ġt omb
ge on
Ġn eck
ĠP ed
ĠL u
el esc
ul um
Ġtransform ation
om o
ĠCont in
G overnment
M r
he art
Ġsc en
27 2
ro e
Ġstat ue
Te am
atal ogue
ig ate
ĠD ance
ort ed
Ġcult ures
R and
ess e
em ies
Ġsust ained
Ġd ipl
ĠH ans
Ġmark eting
lov ak
Ġoper ational
Ġcomplet ion
Ġacknow led
3 11
ĠL ook
if ts
Ch ief
ank a
37 5
]] ".
Ġdo ubt
ryst al
N atural
d t
at che
ut ra
ari us
Ġstate ments
ĠMus lim
w on
Ġt aught
Ġinvol vement
Ġold est
Ġcho ose
Ġphr ase
on ian
ĠS R
ĠB urg
Ġdoll ars
lah oma
) "
G ordon
Ġin come
lo st
Ġv otes
Ġspec imens
Ġdisplay ed
d ivision
w AAQBAJ
19 15
amb ig
Ġpref erred
sig fig
Feat ured
B iography
P arks
Ġs ons
Ġcom ments
c alled
f ather
Ġs ight
Ġst able
Ġrecomm end
t ty
ĠO d
ĠRes ources
Ġconv oy
Ġinter face
Ġbo ught
Ġ7 1
ese erx
S C
Ġt ag
ĠA ction
are a
ob ject
33 4
Ġbatt ing
Med al
b ritish
d ig
ĠH ell
ink s
aur a
Par is
g om
Ġf estival
Ġd ating
ten se
L iverpool
k ev
ĠR ap
Ġ7 9
Ġval ley
umm it
z z
Ġad j
Ġreg iment
Ġcirc le
i ott
r ary
Sw ed
C op
ĠH em
Ġprogram me
ĠHol y
Ġeth ics
st aff
ĠC ase
Ġmon ument
ĠComm ander
Ġsupport ers
ĠPr int
ĠRo osevelt
3 14
L ibrary
37 7
B ut
19 51
end ar
36 7
cd c
A meric
ac hel
pt y
ĠThere fore
Ġbatt les
Ġtarg ets
ĠM ission
erv es
Mar iah
F air
_ {\
n at
ubl ed
Ch ina
44 7
Ġtop ics
Ġrein force
G ro
Ġg od
Ġhe aring
Ġspe aking
ed ding
ĠR ain
Ġtest ed
Ġinstit utions
at on
lo be
ĠTr ack
Ġatmosph ere
ĠK elly
ĠAn thony
Ġqu oted
Ġra ise
Ġdel iber
iffer ent
Ġl at
Ġ8 8
ĠTown ship
f g
ĠEn ix
News Bank
loc ated
ĠBen jamin
ag ger
ab a
Ġprot est
mo oth
Ke ith
an z
ĠS el
ĠG aga
Ġj udge
29 3
W ater
ĠB eck
Qu ote
n ps
19 33
ter prise
p ri
t ax
ĠF act
Ġab stract
Ġaware ness
ur ance
19 05
ĠR oberts
Ġac comm
Ġco effic
inc ial
u um
oc us
Ch ild
rast ructure
G lobal
ä ¸
ĠG a
Ġstrateg ies
Ġ urban
ĠSt ars
uc he
Ġdest ruction
ĠOper ations
Ġinteg ration
Ġor b
27 4
So ftware
est ab
Ġseg ment
id ency
Î ¿
Ġm ob
te levision
iz ational
St ory
Ġcontrovers ial
G ray
u able
at y
ĠCh ampions
fess or
ĠC er
per t
Al bum
ĠPr uss
Ġcoordin ates
es h
19 23
Ġexpos ed
v y
ĠM usical
Ġgame play
Ġbel t
spec ific
s quare
on ial
Ġperiod s
oc amp
re ason
et he
ett a
o ct
S lam
ust ers
40 2
ict ed
W olf
ĠE ight
Ġansw er
ĠCommon wealth
Ġsomew hat
in ternational
19 07
pro v
Ġpro file
. -
ĠF lying
ny t
ĠP A
Ġtown s
Ġincorpor ated
Kent ucky
w y
Ġsignific ance
Ġmechan ics
Ġdelay ed
0 10
Ġc overs
ur is
col lections
Ġwind ow
s ol
Ã ¥
ac ent
ish ment
act ic
R ick
or b
it chen
Ġb iography
Ġro ot
ĠPl ant
Ġcircum stances
P res
iv ors
Ġhe ar
Ġfound ation
Ġobserv ation
ĠTro phy
B re
ĠD or
leg end
Ġfind ings
N et
in ces
Ġremain der
em en
Ġf acing
ĠB os
Ġle ct
Ġsp ac
Ġext reme
ĠAn im
Ġout er
Ġsing ing
ro b
iz er
Ġpat rol
ĠFore ign
T est
ĠR AF
od o
48 6
Ġem otions
c ount
ĠC emetery
Ġr ich
Ġvers us
Ġbre aking
ĠId ent
c ards
n ers
ad v
ep s
]]| |
Ġpolic ies
D eb
B E
laim ed
e lection
Ġf aces
Ġun ivers
Ġpredict ed
Ġimplement ation
B ishop
ĠC ode
19 41
az e
Ġpoint ed
3 30
b attle
Ġde veloper
Un ion
ĠMed ieval
Coll ins
il lag
od ge
ev ens
36 2
dis p
Ġplan ets
man ack
Ġrul ed
t b
19 08
ĠR en
ĠH orn
Ex t
Ġevery one
Ġsett led
osc ow
ione er
j html
Ġd im
iv ism
Ġag ency
ĠCat hedral
C hen
D ie
ĠD ead
Int roduction
Ġdiv isions
J un
am pton
ĠV III
ĠB ull
ust ries
Ġbeg un
Ġlook ed
Ġprop ag
Ġestablish ment
ĠC op
ĠM aking
ĠK han
ren der
|'' [[
Ġspe ak
Ġ *
''' )
fo x
Ġportray ed
Ġalleg ed
ock et
Ġexecut ed
S y
ed a
Ġres olution
Ġnorm ally
Ġinstr uments
w hy
ĠH arry
down load
K elly
ig m
19 44
Ġg iant
any on
D am
L S
st ance
ber ry
comp uting
rec ap
Ġinform ed
ent le
et ry
ĠSt ef
Ġ8 4
cept ions
ingu ished
Ġdismiss ed
C orn
Ġhost ed
Ġexpos ure
U s
m b
29 2
song s
Ġemerg ed
ĠM ach
ĠRepresent atives
/ [[
g ener
rick eter
Ġn ations
Ġd a
Ġacc eler
hem atic
Ġpaint ings
ĠMad agascar
onom ous
Ġattract ed
ĠTre k
Ġp up
ĠN ation
Con n
Ġpeak ed
Ġs elling
ĠA round
Ang lo
Clark e
Ġapparent ly
Ġthr one
7 00
B ibliography
st anford
Ġs ymp
ĠP icture
Ġrecord ings
Ġeffic ient
Ġarrest ed
ig s
ib bean
Ã¶ n
3 23
ĠUn it
Con vert
Ġsyn d
Ġsympt oms
l ies
Ã «
ĠCom ics
Ġ[ ...]
lab ama
Ġb ond
Ġ1 55
ĠR ight
36 5
3 20
O W
ĠR and
E vent
ĠL am
Ġ9 6
Ġther apy
ĠL ang
28 2
Ġest imate
Ġexact ly
} ,
ĠS mall
ual ity
sym bol
T I
ric ultural
44 8
S and
w right
Ġ= [[
ĠF light
Ġiss n
play ers
Ġbelie ves
ĠY ankees
ped ition
Ġconf ig
19 16
mark et
ãĥ¼ ãĥ
Ġs end
Ġd imensions
ĠB ird
Ġseem ed
Ġsp in
Ġcr iminal
gom ery
anc he
av or
Ä «
vir t
ĠM att
ĠH ills
Ġret reat
Ġsim pl
Ġhop ed
Ġ'' '''
ai wan
ĠAdd itionally
ĠMerc ury
B R
Ġw ear
ĠN ixon
est y
apt ic
ĠMor rison
ĠT ennessee
music ian
Ġprecip itation
| }}
ĠA pollo
Ġ19 03
ale ont
ĠCap ital
? "
am ma
as ian
ĠJ oh
Ġsort able
am ount
ĠA p
Ġcharg es
ĠA stro
Ġre ward
ph ere
Ġdoes n
ĠRh odes
Ġvess el
ash ire
ĠHer o
h list
lo ugh
201 21
atur day
ĠWik ipedia
ĠB ra
Ġinterpret ed
ĠR ick
Ġdif f
Ġgr ant
ĠHot el
m tx
t z
Ġb ones
ĠJ ud
end ment
ener gy
ĠMar ia
Inter state
ĠF alls
Ġbenef its
Ġencour aged
Ġf ictional
nold s
Ġnot ion
Dep artment
lamb da
ĠPerson ality
Ġbr and
Ġtra its
Ġexpla ins
ĠURL s
C are
ot ton
ubl in
ug o
de veloper
Ang el
5 20
D espite
rest on
Ġsuggest ing
Ġmagn itude
C ook
G i
n ament
Ġc ognition
Ġf ossil
ĠK ansas
Ġcolon ial
Ã £o
Ġin hib
ĠT ext
ĠH old
m is
s ome
Ġind ex
n av
ĠC ond
ere ct
ĠCon struction
Ġrest ored
ĠRef erence
Ev ans
W isden
res ult
ab stract
Ġed ited
Ġpolit ician
Se attle
Ġdifficult ies
Ġmach ines
ĠA ld
Ġsup erv
ĠFrank lin
t ab
Î ½
19 37
cont rol
Ġgood s
learn ing
D or
Ġf aster
ĠB omb
Ġbe ar
Ġpr ime
Ġdesign er
Ġsh ore
Ġ8 3
Ġprov ince
Ġident ification
Ġprofess or
ĠH unt
ex press
Ġform ally
pro fessional
ĠPl ace
ĠDar win
b et
Ġb illion
ĠP resent
ik ing
ĠTh er
Ġattempt ing
Ġcommand ed
Ġden ied
= '''
s ales
Ġf iring
Ġb es
Ġ19 04
Ġpart ially
ĠHar bor
Ġcomplex ity
Ġsignal s
Ġf lex
19 35
ren a
Ġent itled
Ġeduc ational
Ġrom antic
Ġb low
Ġrec ru
Ġreg ression
Ġadv ice
Ġ8 9
Ġsevent h
G raham
J ane
n an
'' &
ĠR est
Ġclass ic
Ġsee ing
f iction
ĠC rown
Ġ10 1
ol ished
Pro fessional
Ġpol ynomial
Ġchair man
annot ated
E arth
ĠC hen
st ars
Ġf ruit
19 06
ĠD avies
Ġsee king
p enter
et own
ĠN ick
ĠMc N
Ġcover age
ĠAgain st
is cher
Ġvict ims
: "
T O
ĠG un
Ġ8 6
Emp ire
g au
ic us
il ers
ĠT urner
Ġde emed
Ġdown load
ĠDr ive
Ġcross ed
Ġconsequ ences
h ad
ĠM ars
ĠN ame
ĠCar ter
urt is
Ġwarn ing
K arl
v ision
Ġre new
ĠV oice
ĠM itchell
Ġwill ing
Ġveloc ity
= <
I BM
Ġsp aces
Ġsp atial
i ary
u its
ĠB altimore
ĠO ri
Ġad mitted
Ch art
ĠSh aw
Wh it
Ġinv ited
T W
ĠP aper
ous es
Ġlo yal
]]) .<
aff e
Ind iana
Ġsuff ering
Ġneur ons
duc es
Ġmess ages
for ced
S em
w alk
Ġ icon
De velopment
Ġslow ly
d x
f ly
t or
vi er
ĠPat rick
ĠKnow ledge
Ġm ales
ĠR idge
ov ich
Ġen vironments
pdf s
Ġconvinc ed
e ign
p sy
ir ms
ĠB ath
ĠN ov
ĠNeur oscience
ind iat
3 70
Ġto t
Ġre tain
ĠM and
Ġ19 01
An ne
O ct
Ê ¼
19 09
Ġcont ributions
ĠRel igion
CN N
ĠBern ard
Kin ley
19 42
Ġst arts
C atholic
Ġm ac
ĠCon vention
mem ory
ĠPsych ological
N D
Ġst ored
vi Äĩ
Ġ9 1
atter ed
Ġmiss ions
Ġcred it
Lin ux
yram id
H R
n r
19 38
ĠL ock
Ġconc rete
H op
ate ur
Ġg one
ill es
Ġdocument ary
Ġhundred s
ĠK ong
ĠV illage
Ġev il
Ġequip ped
ĠCompan ion
B aseball
Ġst ood
Ġun f
lab ber
M us
T urner
m el
Ġ1 10
ĠP le
Ġsh op
off man
Ġreve als
in ations
ĠW ind
ear th
Ġsup press
as ant
ĠB aker
Ġnegot i
ĠL ic
Ġsp oke
Ġeng age
Co oper
ĠUp on
S pe
Ġcirc uit
Ġhon our
Histor ical
th ere
Ġg ram
ft in
Ġqu ad
Ġstat istical
ĠSec ret
Ġp ed
Or gan
ĠMur phy
Ġb one
ĠP red
35 4
ĠSp ect
ãĤ ¹
Ġunder lying
Ġbring ing
s an
ĠC ost
ag ain
ĠR ol
ĠG round
Ġdepend ent
Ġvirt ual
un ist
ĠI owa
art a
Ġstruct ural
A U
P ope
f ind
on i
Ġser ial
eyon cÃ©
D NB
M eg
b els
ĠL ennon
rew s
S ound
em a
raph ic
irt ual
3 22
Ġinj uries
Ġimag ery
Ġpan el
p ur
mer ce
Ġ9 4
Ġsymbol s
Ġdepart ure
D elta
m w
ar ity
Ġs unk
Ġex cess
Ġread ers
Ġcr ash
Ġlook s
Ġoccas ionally
H ub
Ġp arliament
ol ve
ace ae
Ġad just
Ġrel iable
l ady
The se
ĠDis ney
uls ion
ĠJ ay
sp y
inter views
Ġpres erved
Ġgirl s
labber mouth
E s
w omen
ed ing
Ġd ies
ĠI an
ĠAr nold
inter pret
Ġbal ance
Ġs and
ĠP ep
Ġan ime
T otal
Ġ| [[
ri um
Ġcont ribut
Ġapp ly
pro b
ont al
rad i
Ġstr ing
Ġla ke
Christian ity
Ġrare ly
ĠS em
Ġph one
Ġident ical
Ã¶ r
am bers
riev al
ĠCan al
Ġteach er
id ay
Ġe g
45 8
ĠMc G
H end
j ud
ĠS u
ag h
ew ard
ĠW y
amp ire
ĠTerrit ory
S D
45 9
Ġpost ed
L ight
c ivil
c olumn
s ix
av ia
ĠPl aces
Ġdom estic
J ud
f ast
Ġk ernel
min ster
ĠGe ological
Ġtur ret
re ens
Ġserv es
umber land
ifest yle
om i
Ġun iversal
n aval
ate m
Ġg ather
if ier
Ġann ounce
polit ician
in v
it is
el ist
ĠP la
Ġmon arch
ĠMe chan
need help
; &
th ird
ist ot
ĠJ ordan
ĠU se
ĠAl ternative
Ġdef ine
P H
m ate
Ġsh all
Ġform ing
war f
Ġcollabor ation
J ay
g overnment
u ary
on omy
Ġreg ional
Ġdesc ent
aj a
Ġpo ison
Ġpartn ership
39 5
Ġenter ing
ĠMiss ouri
Ġm ush
ĠS ource
met acritic
---- ----
Ġdistingu ished
ab et
St anford
Ġen emies
ih ood
Ġeth nic
ine es
Ġ18 70
Ġthought s
C I
K now
y ahoo
arm a
Ġhead ed
Ġinvol ve
end a
Ġint ellectual
s elling
Ġpro ceed
ĠU lt
ĠRes erve
Bern ard
St one
Ġrev ised
W inter
Ġs udden
ĠS che
Ġtrad itions
ĠDisc ussion
Ġexplos ion
ac ies
ĠM icro
lo tt
44 9
Ġconf ront
AR IA
bol lywood
com b
Ġr ural
ĠAnd roid
110 9
Ġgr ass
p ath
on z
Ġg ap
Ġ19 02
Ġsubstant ial
N elson
ter ior
Ġst ere
G ard
N icholas
T P
he ight
es ley
ath ered
Ġnot ice
Ġus ual
ĠAn tar
Ar nold
Ġinsp iration
re ly
Un iversal
v ens
ĠR ey
Ġfl ank
Ġsw itch
Ġsens ory
ĠLeg end
Ġwood en
tl x
K ir
it ol
Col lege
c ropped
Ð ²
ie u
Ġ18 80
uk a
Ġres ident
Ġbu y
ĠWith in
B razil
E duc
P itchfork
R a
ĠN BA
ĠJ oy
27 1
I MD
om on
ĠV illa
Ġcharacter ized
Ġchalleng es
; âĢĶ
re ve
'' .{{
ig el
ĠB ros
up s
Ġsur pr
Mc G
A pollo
28 1
Ġorig ins
Ġsuit able
ĠW as
ĠW WE
ock ing
Ġfre eway
ena issance
ĠNC AA
S F
ĠG ay
Ġsupport s
min ute
Ġsurv ival
ĠOb server
S chool
19 26
36 1
ĠFurther more
}} ),
ad ier
ĠL ad
44 4
Ġretire ment
Ġm arch
col lege
45 6
ii i
Ġestim ates
Ġo ption
ĠCon c
Ġdist urb
O k
u ven
la ws
eb o
ĠR esp
Ġout break
^{ -
Ġinters ection
en vironment
ĠS ite
ĠYork shire
ĠWil helm
Ac ademy
cele br
ĠS ide
le m
Ġatt itude
ful ly
amer on
Ġconn ections
Ġath let
Ġv ideos
Ġpart ly
S ign
Ġre duction
ĠAr k
Ġnew spapers
55 7
* '''
3 25
B ol
N O
Ġfore cast
Ġcoast al
You Tube
ĠHit ler
h alf
ĠDon ald
L am
P en
ĠM ail
met ric
G roup
st ore
ran n
be ing
gre atest
p iece
s d
ĠM exican
ff ord
ĠAct or
Ġexist ed
ĠAstron omical
Off ice
Ġtheore tical
ĠCrit ical
Ġb an
ĠS ingle
ĠD raft
ĠN ext
Ġdepict ing
K ar
b ottom
g ender
Ġc raft
ĠO p
ast ron
roll er
Ġro se
Ġclo thing
Ġmusic ians
M as
Ġw aves
nb a
Ġmiss ed
ĠOper ation
ĠSam uel
rehens ive
C ounty
F ull
|- |
its u
Ġret rieved
al ia
Ġlo se
Ġag ed
Ġ9 3
om ed
ap el
ri ke
istem ology
C ur
J ordan
sort name
ĠJ os
Ġse es
Ġbr igade
ĠMat thew
d ict
l ass
ĠF eat
00 000
C lear
H ugh
l arg
ĠR oger
ff ield
Ġdis aster
Ġfrequ ent
h indu
ar us
Ġa w
ir ates
pro cess
W alker
Ġin tense
int ro
44 6
Ġmer ely
ĠHon or
t u
y ards
Ġp last
ot aku
Ġpro ve
Cont ributions
ĠHaw aii
Artic les
ĠCle veland
t ure
ĠG raham
Ġdep ends
app a
Ġpat ient
ĠHo uston
c ategory
es a
45 5
ĠRe lease
Ġdisp ute
Ġto w
ĠCh all
Ġquant um
3 40
ug s
p ublish
ĠP ur
ĠD ays
end ers
the m
Ġ18 96
D ennis
E le
R ow
Ġ erect
Ġt urb
ve ll
ĠHar vey
eor ological
ugu ese
d un
m ade
re ports
ĠT ag
Ġpl us
ins ky
Ġob vious
And y
Ġve ter
Ġrestrict ed
g ets
Ã ¢
ĠC ape
ĠH arvard
ĠG ate
Ġjournal ist
Ġinter act
Ġconf idence
Ġarm ament
com ics
Ġr itual
pro jects
Ġeng agement
Ġcit ations
C ass
D a
s class
ĠW oman
ĠW atson
ĠL ore
ĠMay a
Ġconst itu
ĠMon te
ĠI ron
Ġfact s
r c
ĠC am
36 8
Ġ9 8
Ġdet ect
Ken neth
ĠConn ecticut
; ''
en o
ĠC all
ĠN eg
IN G
Ġdinosaur s
ĠO ct
36 9
Mel bourne
Ġintegr ated
Ġ 00
Ġf itted
iv als
GB T
m itt
il ty
un ar
Ġvisit ors
Ġminim um
Ġm ine
Ġimplement ed
Ġdeploy ed
la x
Ï Ħ
fl at
Ġ9 2
Ġbreed ing
entin el
Ġst yles
ott ed
Ġcharacter istic
Ġhel ps
Psych ological
ĠProv ince
Ġenh ance
E ver
er k
Ġw el
op od
ĠCh ange
And roid
Ġt ied
en kins
Ġf alls
Ġrepresent ative
Ġisol ated
or f
ro ft
un ited
nb s
ik h
sup port
Ġpass engers
ĠArch itecture
Ġc lock
Ġlo op
ĠNew ton
ĠPro duction
Ne ill
} )
op ic
ĠWar ren
Ġencounter ed
R aw
Ġ rib
in sp
Ġc avalry
tt l
Ġprem ier
ĠS olar
ut ur
int s
2007 10
ĠRail road
O lymp
Ġ1 11
ie ve
37 6
els ewhere
Ġrep air
Ġclaim ing
osp el
mark s
Ġindic ating
n ovel
p resident
Ġst ead
art ificial
P ot
at as
Ġf ranchise
ĠC ole
S W
k ish
ref name
ĠG eneration
Ġcap s
oe ing
Ġlim its
Ġder iv
oir s
hyth m
C ultural
ĠU tah
Ġinc or
Ġtrans mission
Ġpat ron
Ġhapp y
Ġin ch
Ġd f
ey e
ors et
iqu id
Str ateg
Republic an
ĠMove ment
ow ard
uc c
Ġfound er
Ġcor por
sen al
Ġas c
cy clop
, '
m oon
ĠB ou
Ġsk ill
Ġparticip ate
L A
ĠC retaceous
19 27
oc ent
et ary
19 32
33 2
b old
Ġterrit ories
Ġcontrol s
ak istan
ob e
Ġrele ases
Ġbl ind
ĠSen ator
Ġsched ule
unicip al
la via
ap pe
>< !--
Ġra id
Har per
Ġdomin ant
3 90
A BS
ĠR ing
alt ic
rupt ed
g ression
ĠM os
Ġev olved
Ġtran sp
S arah
d ays
k rain
en stein
ĠNever theless
Ġh am
ĠM argaret
Ġdisapp oint
ĠPract ice
n fl
t urn
Ġw indows
Ġdri ven
Ġblock s
ĠMean while
G R
ĠM eg
ĠR ole
ib ilities
exp ected
War ren
Ġtouch down
I X
L anguage
Ġst em
Ġex ception
ily n
Elect ronic
Ġdynam ics
lik ely
D uke
s occer
Ar my
Ġfall ing
G riff
Ġm ast
ĠS even
um ps
qu in
Ġcl im
ĠSh er
Ġpers ons
Ġsurv ive
ĠClark e
Ġinstit ution
C ivil
M ichel
T ext
m or
Ġs keleton
Ġg ate
ĠG ill
Ġpart ial
Ġthe or
ph ib
im edia
ap r
ĠBy zantine
Ġsequ ences
Ġaff airs
A le
ĠS et
ĠS ant
ĠUn like
hy logen
37 8
T ro
V A
Ġprevent ed
C ricket
om ys
id ney
Ġcolla pse
* ''[[
P rom
19 34
ĠVis ual
j apan
sh er
att s
erv ous
sw orth
Ġel der
ĠBarn es
Afric an
ĠL at
'', <
Ġbo ys
play ing
Ġrest oration
Ġhom osexual
Ġ 01
ar an
19 43
ĠHe avy
37 9
ĠPark s
rely ear
N ik
n ation
ĠI de
Ġun less
Ġjust ice
V olume
Ġ Å
ĠF al
Ġres ign
Ġoff ices
uzz le
m ajor
ĠB arry
Ġhistor ic
Ġ }
Ġin aug
ĠT a
apt ers
Pr inceton
ent ieth
Ġst rict
ĠO ak
ĠCon temporary
ĠRec ording
iod iversity
NY T
Ġfight er
Ġpoem s
Hand book
d avid
ĠF ig
man s
Ġcomp lement
Ġappro val
ĠâĢ ĺ
Ġemphas is
w inners
ĠD iv
Ġsec ured
ĠLog ic
Ġsimult aneously
Ġ& #
Ġnecess arily
ĠS l
19 28
rib e
Ġsouth west
Ġappoint ment
K ennedy
c ade
Ġ elsewhere
Ġc rop
Ġb on
ro ute
un i
Ġl ift
ĠWel sh
| âĢĵ
ow itz
Ġrad ar
P erry
R oberts
Ġan cest
Ġdo ctor
='' [[
throp ology
ĠB or
sp ring
45 3
45 4
ats u
H amilton
ograph ies
bu ild
Ġdepart ed
Ġthous and
Ġs essions
Ġref lected
arian ce
igg s
Ġmeasure ments
Ġven ue
N ME
h p
ot ers
out heast
ham mad
ĠGu adalcanal
Ġkeep ing
P ower
Ġout comes
Ġarg ue
Ġwor st
W M
eb an
ann ah
36 6
Ġgener ate
Ġcommunic ations
L P
d ts
h m
Ġre covery
ĠP ictures
ist ence
Ġpro f
ack et
35 3
Ã¨ re
J ewish
h urst
ĠH D
Ã© t
Ph illips
E very
G C
m icro
el ihood
la bor
Ġdesc ript
Ġown ership
ĠC as
50 2
Ġmed icine
Ġang le
B D
let cher
Ġpresent ation
Ġrail road
Ġvarian ce
c olumns
Ġre cover
ich i
ĠRef orm
H u
V en
Ġs ector
Ġre bell
im p
eb el
Ġpre miere
ĠPr incip
odd ess
r age
ĠM ot
Ġamount s
Ġstay ed
s uccess
ers e
ĠL ess
Ġexp ensive
Ġstory line
= ;
Ġ[[ :
ok ies
ĠM editerranean
ul ates
ern e
football er
ig or
ĠD etroit
ok ed
arr ington
I ce
p red
u ating
Ġv ulner
Ġdevelop ers
ĠApp lications
yg on
Ġconvent ional
h urricane
Ġth erm
Sp in
Ë Ī
in z
ac a
Ġtri es
Har old
Ġthe sis
Ġb ases
Ġin ference
ro st
Ġro oms
ghost archive
b ia
ĠF itz
ĠW W
back s
Ġproced ure
A cc
ear n
ash ing
no on
ĠEx pedition
Ġband s
) ''
S ep
ran ches
ron ology
rowhead ers
Ġhy per
C am
ĠJ ava
ĠJ upiter
ĠIn n
ĠK at
ne apolis
Ġcandid ates
Ġelev ation
e urope
h our
ĠS aturn
ack ing
ĠK evin
In f
Ġad m
Ġpublic ly
B on
ul er
ĠD omin
Ġal ien
39 4
y our
ig ger
b lood
re porter
ĠR ub
Ġelect ronic
ĠLeg isl
asure ment
ĠJon athan
) {{
c amp
l ia
w ins
as m
Ġown ers
l n
Ġre vers
Ġcont rad
Ġinter vention
Ġlog ical
S port
stat ic
de velop
Ġh o
times machine
Ġfil ter
L et
Ġin duct
ell ers
Ġhelp ing
k u
Ġm iles
ob iography
Ġass ass
Ġmag ic
t c
ch us
ĠB la
50 1
De an
ĠPer ry
ha ust
chicag ot
W right
n uclear
20 200
ĠL ou
ast ings
Ġsol ving
+ +
D esc
J ustin
h ou
Ġn ob
el man
ĠSt uart
Ġapp rec
Ġmin ing
Ġpass enger
N FL
Ġel abor
c ultural
c ognitive
ĠM S
ĠF red
ph oto
aur ice
Ġdynam ic
D etails
ip her
de velopment
cept s
Ġflow s
Ġplain rowheaders
ĠS oci
ĠB aby
ĠCh amber
37 4
Ġposs ession
Ġexhib ition
U EFA
en burg
od ed
ught er
Ġstreng then
Ġweaken ed
omin ations
3 47
B rien
qu al
38 6
Ġbur ial
Ġpercent age
d ictionary
Ġres igned
ĠMat hematical
E conom
ĠC it
class ic
Ġs quad
Ġcontin uing
ĠCan terbury
T our
e very
r ive
Ġp ool
ĠV irgin
Ġpublic ations
it ivity
Ġh uge
Ġent hus
Ġdel ivery
ipp ocamp
unction al
N atur
ĠT an
Ġg ene
He alth
Is rael
ĠPen insula
Ġm agazines
Ġla p
Ġstre ets
ĠAbb ey
ersh ire
Ġh ill
Le onard
c ult
he ld
top ic
ĠCan ucks
gam ma
ĠS ega
Ġcap abilities
inc inn
At l
Do ctor
Ġprote in
ulo us
P s
b ie
st ub
Ġh at
Ġ( '''
Ġab use
ĠChurch ill
Ġfac ility
chicagot ribune
ĠY ellow
Ġem otion
Ġcur ve
am y
ate ver
ĠT urn
od ic
op es
nal s
ĠIn te
author link
H ell
Î ¼
ĠH ob
ĠF arm
ust ic
inn ip
ĠComp uting
H unt
ĠT ak
ost ic
arth y
Ġcr uc
IMD b
G et
Ġt one
last on
Ġr um
Ġsur render
ĠM icrosoft
em o
Ġtra il
ĠPop ular
ic z
Ġth irty
ĠE merg
Ġpro c
Ġpe oples
adem ia
Ġprofess ion
in stein
Ġm atters
ãĤ ¤
ĠMark et
ĠEth ics
Ġo d
Ġf ate
-- -
35 2
Ġint ention
rest rial
inds or
* *[[
/ .
k ar
ch at
arch ived
Ġ1 60
ĠF il
ĠO cc
ĠArm strong
ĠV ice
uch i
39 9
Th at
Ad v
Ad ams
Ġfem ales
atem ala
N ihongo
W he
}} ]]
Ġnot ably
Ġimprove ments
ab i
vert ed
35 1
ih anna
idel ines
Ġaim ed
H z
d ream
he v
as ury
ve t
ĠNor folk
bre aking
ĠT okyo
im o
ĠL et
Ġcon version
ĠZ one
dy k
Qu est
C old
L B
Ġo cean
ĠW agner
ish ops
Ġv ast
Ġv olumes
rest ler
Ġbusiness es
Ġnot ing
arg et
vent ures
writ ten
A stron
C er
K h
O H
n j
Ġg rey
Ġcon j
Ġfew er
Ġpra ise
test ant
ĠEven ing
Ġw atched
Ġd atabase
Ġsc iences
Ġcl inical
ri ft
Ġsp ir
47 1
Ġsold ier
Ġdeb uted
Ġc olumns
Ġf iles
ĠMin istry
G overnor
s lam
ĠSt ill
N a
ig uel
ĠY e
Ġsim ilarly
histor ian
L ine
c f
st op
ĠF ish
ĠL ocal
if ford
ĠSt evens
pt ions
Ġro ut
Ġsign ature
ama ica
ĠTest ament
ibl ical
3 49
F uture
ĠReg ion
Art ificial
Mem ory
M argaret
Y C
Ġar gu
Ġexc av
4 11
F all
ĠIn it
ĠBarb ara
s nd
au f
ĠDen mark
ambig uation
. ;
Ġp ush
Ġup grad
her o
F ront
T ax
he w
Ġc ul
ers en
Ġland ed
Met acritic
Ġanaly z
v oice
Ġf ur
ĠH as
ĠAl fred
arb our
ĠB an
Ġland fall
Ġdiscip line
C urrent
E arl
p ure
ĠC row
ip ation
Ġcarri ers
G il
f ar
ĠT ree
ĠM end
ĠG rey
ass ociation
Ġper mission
ĠGu inea
fa q
M aster
d raft
Ġ18 93
fl ip
Ġp ictures
ĠD ur
Ġafter wards
espn cricinfo
orient ed
Ġs an
uc r
ĠPr incess
agon ist
Ġdomin ated
ĠParalymp ics
L ike
19 31
ail ing
Ġ}} {{
ĠCy clone
L isa
ĠB lood
ov sky
Ġim perial
ĠDe ep
rid ay
Ġtend ency
E W
F light
L ater
Ï ģ
ĠA M
ĠA uthor
Ġr aces
ones ian
ĠA R
ĠD a
Hung arian
C our
az ing
Ġres ource
polit ical
Ġopport unities
ig ers
ĠF olk
Ġem peror
amer ica
Ġeval uation
w ild
ĠM uch
Ġg ross
ĠF loyd
Ġr acing
Ġart istic
ĠDo ctor
Port land
Gr ant
Ï Ĥ
ĠR ank
Ġch ronic
ump ing
Ġhot el
Ġdrug s
S mall
Ġin deed
ĠR ogers
arm ac
add ing
E ven
Ġf lew
Ġd ub
op atra
ubl es
ĠSt art
sw ift
C ape
L ieutenant
on so
Ġd eter
ard ed
Ġun like
ãĥ «
Ed wards
Ġalign ment
Ġve get
B lo
B io
L ab
L ast
f ilms
z el
on ed
Ġw ider
ĠSt re
Ġ10 5
ĠWar ner
36 4
67 4
ĠE c
man ia
Ġme ets
Re al
Ġcover ing
Ġdial ogue
Ġpublish ing
Ġh idden
cess ion
ĠApp lied
ĠPlay ers
Ġmechan ical
E gypt
80 3
Ġanim ated
Ġoffer ing
A ld
ĠM aj
Ġte en
Pro duction
Ġdistingu ish
ĠLes lie
E st
c ock
h orn
Ġt win
ĠM obile
ec a
Ġ18 97
46 5
system s
H T
c as
Ġim plications
ess ica
Har rison
Ġemerg ency
Ġfeed back
Ġresc ue
Ġtravell ed
hyd ro
B ristol
R ey
b oston
m ates
Ġt unnel
re sp
Ġs itting
iv ia
ĠQ ueensland
ĠSw itzerland
Ġpil ots
Ġsur g
pub s
ĠRom ney
R ose
z ie
ĠB ristol
Re illy
Ġdri vers
point s
uran ium
Ġdis orders
Ġleg s
Ġask ing
ĠRevolution ary
S ources
ĠR ound
Ġcol ony
Ġreg ister
Ġappear ing
ĠB ennett
oh istory
col l
Ġrem n
ĠJohn ston
ĠMount ains
K ore
L L
ĠR ico
ĠLe onard
Ġelect ions
ros se
ĠPh ot
Ġ1 25
ĠC urrent
Ġv illag
iz ard
anch or
Ġuncertain ty
S anta
ĠH aven
Ġshe l
Ġrad ical
Ġeas ier
com ic
Ar ab
do uble
Ġconcern ing
th an
ĠA z
Ġsur prise
Ġorgan isation
Frank lin
Ġattend ance
Ġs amples
lor a
Ġrest aur
Nor wegian
n mi
ig ma
ĠInd ividual
comp ass
Ġpot entially
p rize
st reet
ere k
lect ive
46 7
ĠAthlet ic
Ġb acter
row th
Ġcons ensus
Ġstrong er
verse as
ĠWrit ing
Ġalgorith ms
A bb
b us
ĠJ am
29 1
ĠPlay Station
R ub
X box
ĠF ilms
ard o
90 3
Ġmark s
elesc ope
H ild
m obile
r Ã©
ĠG ran
Ġr is
000 4
Ġsystem atic
Ġdec ay
ask atche
de z
err or
ĠPh illips
W arner
id ity
Ġ18 89
ĠEngine ers
elect ric
w reck
Ġp articles
el ed
ĠP oe
ĠR at
ĠD ocument
Ġtreat y
sim pson
E G
á ¹
Ġc ir
the ns
Ġele ven
Ġcycl ones
spe ed
Ron ald
F oster
p ole
Ñ ĥ
Ġa x
ĠS ak
10 04
sp in
]]'' ,<
Ġ18 99
Ġocc asion
Col or
Ġsurv ivors
Ġbom bers
askatche wan
Ġt ie
Ġd iet
id g
ĠD est
43 4
Ġdanger ous
S n
Ġth in
Con stant
Ġanim ation
Ġcust omers
C V
ĠC hemistry
iss on
ris e
Re lease
TC R
ĠForm ula
ĠAlbert a
h ave
ul ator
ĠH u
Ġfocus es
R ating
or um
Ġs afe
art ists
ĠV e
ann ual
Ġwrit ings
43 2
H P
K on
P ass
R alph
t ro
st own
ĠP a
Ġg ods
ĠD ynasty
ĠG ulf
anc ellor
Ġmin imal
20160 30
Ġwick et
P ierre
R eception
b irds
m ers
Ã ł
Î ¹
og ram
Ġstudy ing
Sus an
Ġb ronze
ri er
Ġpre gn
field s
ĠMac Arthur
A ust
B lock
F ire
ĠB ishop
19 29
ens ory
ĠAr tic
37 3
sk a
Ġfem in
V i
w hen
à ¥
en ame
Ġw ants
'' (''
Ġpre y
Ġext end
as ures
Ġcomp ens
ĠTrans l
ith uan
Ġj aw
Ã© d
Ġpoor ly
Ġm ane
ĠM aced
sp r
og an
Ġj stor
opt ion
3 27
Ġ1 30
Ġr ising
ĠSp irit
ĠEv idence
M ack
P hilosophy
f und
ĠC ensus
Ġre actions
10 09
ĠNetwork s
ĠLouis iana
ĠBas in
Ġwor ship
circ a
" {{
E volution
Ġp airs
ch icago
ĠD ylan
ĠN av
ĠK al
Ġlong est
Ġdet ection
Ġmag netic
char acter
Ġcon ver
Ġcomp lic
ĠMon thly
het or
Ġcivil ian
Ġstrugg le
Ka iser
incinn ati
M useum
ĠN ote
og h
form ed
Ġs mooth
Ġre nd
ater nal
Ġ6 00
Mar c
" ].
G ilbert
M organ
ol ition
ĠC raw
ter y
ps il
Ġbr idges
]]''' ,
C ourt
S um
ĠC ob
ist ing
Ġon going
ton s
ĠAl g
Ġconsid ers
m eg
ar ant
Ġs ummary
un se
ang o
38 9
Ġdestroy er
44 3
ĠLab our
ĠEffect s
B arry
b ef
w ired
or st
Ġc arbon
ĠB ark
10 05
Ġr u
Ġattack ing
Ġp ushed
ĠK ar
ren e
Crit ical
R ud
Ġt ale
us on
im ir
Ġbeh alf
Work s
Ġadj acent
O hio
g ence
u ce
ing e
ĠM ason
os ed
Ġch urches
Ġso ft
Col in
N av
b ours
and ler
19 25
ĠD S
math bb
ator ial
Ġland scape
iat ry
r ub
ch olar
ĠCh oice
Ġper ce
Ġmy thology
L im
ĠS ac
are st
Ġref erring
ĠRout ledge
Marsh all
t es
ch urch
ĠG il
ph al
Ġelect rical
format ics
W ild
ĠH udson
St ock
Ġassum ption
+ \
F T
P lot
Ġf ulf
Ġ1 15
G P
s g
s ingles
ict ured
ĠRep orts
Ed ge
Pr incess
Ġsyn thesis
ĠB ang
10 23
ĠWis consin
3 24
Ġc ards
ur u
Ġk m
Ġsc hem
Ġfun eral
Mor ris
rim ination
B DA
Ġw ire
ot ics
ĠD al
av il
ik k
Ġopp onent
Ġwithd rew
iamond s
om ing
ĠR aw
od er
ĠTh ose
ĠGu ild
Ġcolla psed
Can berra
Ġconcent ration
I owa
M erc
at ches
Ġp hilosophical
eb rew
Ġv ic
201 11
ĠComp ar
ĠOr ange
alle ts
Gram my
W restling
n eg
Ġb iggest
ol en
ĠH ave
art ney
46 9
|| [[
cert year
Ġphenomen a
t ree
ĠS anta
ĠB ased
ĠD ave
48 8
ĠSwed ish
ĠVers ion
indiat imes
roy al
igg ins
in flation
Ġb ishop
qu ake
ip ped
ĠK PA
Ch ap
38 3
Ġbi ology
Is lam
D avies
R B
i ag
ch air
Ġn avy
ro se
ro bot
39 8
hilosop her
Ġsequ el
æ ľ
ann els
Ġman age
Ġconsid ering
Ġmot ivation
Ġhum or
ĠEduc ational
ĠBro thers
ĠGirl s
Ġdispl acement
B ra
S N
W ard
i ological
ass ic
ail ability
sex ual
cap tain
cru iser
laston bury
S ony
Ġp et
ac ular
ir us
iv o
qu es
Ġ18 88
Ġinter net
ĠX I
Ġprepar ation
Ġprompt ed
J ava
ap ing
Ġst ability
high light
rele ased
N at
d elta
is che
Ġm m
struct ure
O ur
v are
ut sch
Ġ18 98
Sh er
reg ular
T en
Ġ1 28
Ġcom fort
11 45
Ġsett le
Te ch
ĠAlex and
U RL
j ul
sp er
Ġ18 50
vis ual
Ol iver
w ent
ĠI N
ĠL loyd
ec il
oc o
En t
Ġactiv ation
Ġrob ots
B eat
w he
Ġre son
Ġre ducing
19 04
se att
ĠSt ructure
Ġse ed
f uture
ĠB lo
Ġimprove ment
Ġconsum ption
il is
ĠN icholas
ĠTh ought
Ġcre st
ĠPer iod
fact s
n cdc
Ġe at
Ġan xiety
the ory
Ġun clear
Sp ain
Ber lin
ĠWall ace
sn ooker
S ky
ig o
11 17
Ġinterest ing
La ure
L anc
N ev
ĠT odd
ĠB ah
Ġwatch ing
ĠSus an
W ell
g arian
p ound
om es
ĠT ony
qu ate
ĠU l
Ġret ro
AS C
Ġdestroy ers
H owever
M exico
ĠS afety
Ġno ise
S everal
at rical
Ġd iverse
ĠE ld
sc hed
M ov
ĠW inners
ĠMat hematics
ĠTran sport
) &
A z
B uck
B altimore
D ream
is land
arch itecture
ĠD og
qu arter
Ġdown town
Cont in
S ummer
i q
in ery
ol ith
ĠMc Kinley
s in
t rad
Ġm ood
na issance
Ġopp onents
ĠBatt leship
Ġbomb s
Ash ley
K r
Ġim prison
sc end
met al
rang le
B efore
G DP
az ard
track s
I O
it als
un o
ĠM ul
ĠN ine
Ġmem or
ert ed
ĠEd ge
Te chn
S B
ĠL isa
ah o
Ġsub mitted
ĠSp ears
Ġreve al
acqu es
d id
Ġt ribute
Ġ1 13
ra ud
Pl anet
pop ular
Ġabs or
Ġelimin ated
D iv
in it
Ġd uration
ĠWh ere
0 14
L ocation
b d
n ode
oper ating
Sing apore
p el
Ġf at
Ġh ull
im i
70 3
Ad miral
Ġleg acy
A Q
T a
Y AAJ
d nb
Ġr ated
Ġill ustrated
Ġcred its
Ġcour ts
ir on
ĠL ib
ug ene
0 30
g st
ĠB orough
ling u
67 9
idd les
Ital y
Ġmoder ate
m other
ĠP apers
ĠD inosaur
ĠIn v
Ġ10 4
ĠSp y
ĠAust rian
j ames
m ichael
he ll
Ġh ole
ĠC ass
Ġmeas uring
Min istry
Ġinhab it
aphys ics
B all
w yn
ĠA ustin
os ing
con c
Ġ18 60
ĠHigh ways
Score cards
+ %
D etroit
ĠL LC
39 6
Ġtact ics
4 50
un ches
Sc ientific
Stand ard
K ay
Ġdist ant
Ġsuccess ion
apole on
Ġd ressed
ĠC P
ĠAn y
ĠCirc le
B illy
M itchell
b one
aid en
ĠOr thodox
p it
ĠF C
oc ese
ond e
ins ide
AAAAM AAJ
C ole
D ocument
P rop
r ational
he y
ĠS arah
ig adier
Ġsh ots
L ock
le ans
ĠInd onesia
dis ambiguation
epend ently
Ġrepeated ly
an ing
Ġf led
Ġp arent
ir i
Ġre act
ĠG all
Ġret rieval
ĠCo hen
Ġsol ve
Ġformer ly
, </
D omin
Ġas h
Ġvict im
ĠMet ro
hand le
P ed
h og
Ġm ile
abri el
istot le
= <!--
B aker
S che
as aki
Ġh unt
ĠD od
oss ils
Ġfight ers
Barn es
ĠT ool
ĠAr g
Ġgrav ity
S ix
Ġb id
ne ider
cy ber
Ġrecogn ised
Lin coln
Ġm and
ĠB asketball
ĠK arl
ĠSc reen
Ġdist ract
ingu istics
Ġcompet itive
Ġjob s
innip eg
Ã °
ĠR y
ep rint
sh aw
Ġdef ended
Ġmer chant
an ie
Ġb rick
St uart
mun ition
Y e
d ia
Ġc iting
ĠIn s
ĠU pper
per iod
C raig
Ġw ish
Ġh unting
Ġ1 45
Ġshell s
Ġcateg or
v illage
ft y
70 1
Ġadd ressed
ĠX box
Ġopt ions
disc us
Form er
ĠMethod s
Ġvir us
. :
B eck
d iction
ĠS oul
38 4
cred its
N ative
Ġrepl acing
Ġquant ity
Ġalter ed
Ġca ref
cit eseerx
ĠPeters burg
he ars
og ene
ud ley
ack leton
Ġgr ade
Ġacqu isition
is le
od cast
ĠN ear
int elligence
Ind ependent
Ġdes ired
Ġaud iences
Ġviol ent
c ott
ĠC ategory
eb ack
ĠH amm
ĠH ampshire
38 1
ĠÃ Ĩthel
ĠPhys ical
sem antics
0 11
F ac
T re
Ġc itation
ang ular
Ġcer emon
Ġord inary
,\ ,\
usal em
4 14
k al
Ġterr or
h ism
n m
Ġdem ands
Ġrank ing
AAAAM BAJ
c orn
Ġd iversity
Ġres umed
Ġprep are
Ġs we
Ġg rave
ĠF ood
form al
Ġess ay
ĠSpr ings
product s
ĠKe ith
Hung ary
ĠP uerto
Ġcons ervation
46 8
ĠExper ience
Scott ish
ĠGreg ory
0 13
J ennifer
Ġto x
Ġg rown
47 7
Ġob sc
ene ath
Ġmom ents
Ġflu id
Ġsu icide
H arv
ĠP oll
um es
ĠF reedom
Ġaff air
ĠMcC ain
Ġdoct rine
seatt let
3 48
E rnest
n ia
Ġb anner
Ġg arden
ĠK irk
Ġquant ities
Ġcalc ulated
I tem
Ġf ault
19 24
Ġex haust
br and
Har vey
Ġess entially
ĠBelg ium
T reaty
W ang
ac les
ĠF low
Ġadv is
Do ug
Phil ipp
ĠSupport ing
seattlet imes
Ġs co
Ġrel iability
bor o
202 20
ĠTest s
m ove
ing way
ag les
ĠN ASA
anu el
Ġ10 7
Ġvari ations
ĠIss ue
Î µ
Ġs iege
ent e
Ġun likely
ral tar
Ġplay offs
Ġcl uster
eat s
Ġacc um
Co hen
emp loy
Ġexhib it
Ġconsequ ence
ĠE S
ĠTh ings
Sc otland
light en
AAAA YAAJ
Ġimpress ion
^ \
Ġb inary
ĠB ed
Ġch amber
60 1
Ġ10 3
ĠCl inical
aint ing
Ġtur rets
at an
ac ey
ĠT s
ĠC over
ev olution
Ġrem ark
ought on
ĠRet urn
L ink
t elling
z one
19 03
Ġar bit
no x
eur ogamer
ĠMir ror
fg han
ĠR ichmond
Ġst ores
son ian
Ġso il
arri ers
Ġtemper atures
mosph eric
Ġconvers ation
5 40
on ies
Ġm al
ĠA ircraft
um ism
rit z
apt ist
3 28
k ill
m aker
o j
an th
at ible
ch arg
ĠF isher
ĠSt age
Ġrad iation
Ġeight h
cb c
batt leship
ĠSym phony
ĠPhilipp ines
3 26
ac er
ĠC old
Ġact ed
Ġparticip ation
E ner
Ġn est
Ġl it
ere e
oc cup
97 9
ĠĠĠĠĠĠĠĠ ĠĠĠĠĠĠĠĠĠ
Ġco inc
alt a
oth ic
) ===
R ail
g ang
n ith
ol ence
Ġg ang
ĠL ink
Ġhe nce
olog ia
Ġman ifest
ĠLa ure
Ġscient ist
p us
Ġf antasy
ĠL ag
ment al
Ġsp ending
sc i
sequ ently
ĠPal estine
ĠSpr inger
Ġtrave led
Ġexam ined
L ib
s b
ĠP rior
ĠL iz
Ġsur ve
flu ence
Ġmeet ings
ent ley
ĠD ate
ĠCan berra
H ere
W ol
d ll
at ics
ĠA L
ist le
ĠJ osh
The y
ob y
harv p
ore tical
ĠSt ore
Ġsh ut
arg ate
Ġman ual
Lat n
Ġsynd rome
m our
ic ester
ĠA BC
ĠO thers
]]'' )
Ġspec ified
55 8
ĠCl inton
Ġsent ences
cos ystem
k ov
ĠB ody
archive url
con ference
her itage
serv ices
Ġremov al
3 29
L arry
st rom
ĠT on
Ġg ra
Ġ'' (
ll er
Ġ10 9
Ġrel uct
ĠMac millan
M B
Ġk inds
Ð ´
Ġc ook
ĠAl ong
Ġthere after
itu ary
Ġrecogn ize
Ġbomb ing
Phys ical
ĠUr ban
virt ual
G ra
P ages
AA A
ĠEx amples
Ġcar go
Ġexc ell
M IT
N obel
t ed
Ġw reck
ow ler
cl iffe
w ald
as hes
man uel
Ġ10 2
med ic
ĠMin or
ĠShort ly
Q C
'' ]],
ĠR aj
ug en
Mar ia
Ġsoci eties
c our
s ep
Ġfor th
ĠE ve
ĠV incent
Ġ18 92
right on
47 8
Ġmodel ing
Ġwalk ing
c am
d ance
å ¤
ĠO wen
Ġ10 6
Ġdec ide
Ġteach ers
A US
w illiam
il ib
Ġh urricanes
Ġsh ield
amp ling
ble ms
ĠEd inburgh
Ġlow est
Ġcampaign s
A wards
S av
ĠR osen
eg as
Ġfin ishing
ĠMet ropolitan
clus ively
Ġimpress ed
ubb ard
Ġg ray
Ġcont ribute
att ack
Ġcamp us
I l
w hel
Ġre print
Ġengine ers
3 43
ot us
Ġhe ter
ĠSim ilarly
P sychology
Ġc ues
Ġm oon
ac i
Ġun ve
IS T
ĠStud io
ĠArt ificial
EN T
spir acy
archived ate
G un
S ullivan
d al
ĠC lay
led on
ina e
Ġarm our
ĠBul garia
l ord
is ons
id o
ex ter
Ġafter noon
Ġcopy right
greg ation
Ġbul k
Ġdim ension
C IT
D u
g rave
ĠR eb
ĠH ughes
ĠW ein
Ġar riving
sc ientific
Ġind ependently
ĠAll an
ĠFinal ly
g azette
st en
Ġp hilosoph
ĠA labama
ĠW atch
Ġmon itoring
R ank
34 1
ĠRep orter
Ġrepresent ations
Ġbirth day
Ġeconom ics
dyk talk
L iving
h arm
er os
ĠB ry
per fect
ĠAn ime
Ġval uable
ĠBo at
D etail
Ã Ł
it ational
Ġall iance
erman n
ster dam
Ġconf irm
B or
S U
ar as
Ġm ask
Ġg ift
47 6
Ġaccess ible
rown ed
Ġconc erts
ĠFour th
H omer
]] /[[
Ġs ank
for ward
Ġcond em
Ġorigin ated
phot os
Ġeg gs
O ak
a os
ay an
ald win
ĠCricket ers
ĠLiber ty
l iber
Ġd ual
Ġm it
ith ub
ore gon
oh er
Ġinc idents
Ġadvert ising
i u
ĠS om
Ġ1 40
iz z
ai ian
** **
ĠTrans it
Ġsuc ceed
Song s
oca ust
H ughes
R ain
y ers
ch arge
}} ).
ĠF lag
ib et
ãĥ Ī
ĠPr inceton
final s
Ġhoriz ontal
d ri
p ack
Ġst ick
op ra
Ġproduc es
ept une
Her bert
disc ip
rat ings
Ġgovern ments
Ġaccomp any
wart z
4 16
Ġs aved
Ġex em
Ġ18 94
Ġav o
En vironment
Ġfavor ite
Ho uston
Ġj unior
In c
55 6
berg er
ĠWith out
Ã ´
at ia
ic it
20110 6
Ġremember ed
N ext
c reat
x ml
Ġd ogs
10 01
ver eign
ish i
ec hes
ĠMar ie
Stephen s
Jul ian
Ġnegoti ations
p b
Ġm orph
âĢ ¦
ment ed
ash a
Sp y
Ġlegisl ature
ĠOffic er
Ġincor rect
D T
P ink
t au
ult on
min us
oll ar
Ġph on
Ġbound aries
D ark
F le
r pg
th s
ĠO wn
000 6
Ġext inct
onom ic
P ur
v oy
Ġ Ä
ĠS ex
the ws
48 9
Polit ical
D R
im eter
im ony
mar ines
A ge
F ern
| [
ur ring
ĠM ichel
ĠR uth
per cent
pr ime
mid d
ĠAss oci
Ġpick ed
S H
f un
Ġa erial
Ġ1 18
Ġk ings
46 6
Ġhand le
ĠNor wegian
Ph ot
tra vel
Ġrot ation
Ġtempor al
Ġt ight
ĠAc ademic
igr ants
Ġphotograph s
Ġproced ures
ĠYugos lavia
4 70
l ondon
w t
Ġas ks
Ġse ats
pl us
Ġdec rease
ĠApp le
ĠBow ie
g ow
ĠJ unior
ach t
ĠCom edy
Ro ad
ĠSpe ed
Ġhabit at
L ate
L ou
c ensus
r ho
Ġc m
Ġsh orter
Hol y
Hol lywood
Ġmount ains
ĠTechn ical
ĠBrook s
otyp es
. -->
t ennis
ir teen
ĠF oot
ĠV ari
Ġ18 91
47 9
ul ative
ĠP unk
ĠJ enn
Ġ18 95
Ġmod es
ĠEm my
raz y
Ġfoot er
Ġ es
la us
ĠB ranch
ap ons
oun sel
Ġoccas ions
w allets
Ġw ars
ĠP rice
Ġ'' {{
ĠF un
ort ion
gr c
Ġmembers hip
S onic
ĠA viation
ĠF inn
go og
it ro
ch ief
ĠAll iance
Ass ociation
utt ing
ĠConstant ine
m ot
Ġt elling
am o
Ġd ro
hen tic
ens ing
sh ot
ĠĠĠĠĠĠĠĠ ĠĠĠĠĠĠĠĠĠĠ
Ġemp ire
Gu y
ĠBut ler
Ġmamm als
lighten ment
V iet
f inger
iss a
Nic ol
it ches
ĠC anyon
Ġfor cing
Ġatt ributes
De ep
Ġsec retary
Ġassist ed
utt le
Ġther eby
es ar
ĠH ong
97 6
]]'' <
ĠTr uman
Ġfin ite
str ateg
ĠStef ani
M os
Ġ 02
ĠS ay
80 2
Ġrel atives
Ġleg it
n intendo
t otal
od an
Ġcon ce
Ġsp end
Ġ|| [[
Ġen force
36 3
Ġam munition
Col orado
Ġox ygen
Ġre ly
ul se
ans en
Ġcan al
48 7
Ref begin
Ġconf usion
inet eenth
Ġw ings
as ive
ĠN one
ann ers
Ġreport ing
Ann ual
8 70
C art
F R
25 20
% "
g as
st ad
ent ional
Ġex ceed
Ġcomp rom
Ġcons olid
Ġdesc end
Ġgu id
Ġfoot age
ĠMiss issippi
ĠFried rich
/ }}
4 10
ĠE P
ĠK ir
57 5
arr ant
Ġinf rastructure
Ġcann on
il ton
ĠS lo
Ġ1 12
Ġg athered
Ġsp oken
ern ess
ĠAl ice
ĠArch itect
Ġstorm s
F ive
M oon
w el
Ġt ort
Ġr anks
Ġman agers
ĠAll ies
Ġcamer as
Ð¾Ð ²
sj id
Ġp article
ĠF IFA
Ġback ing
Ġbas in
Ġdistinct ive
= .
M N
b iography
ic ia
ent ine
ĠEx ecutive
Con stitution
Ġconcept ual
Ġeffic iency
Ġg auge
Ġbe am
Ġcon ven
ij i
ĠDemocr ats
ĠC ant
ĠC ognition
ĠM iami
49 6
lin ary
ĠPl anning
los ure
Ġflow ers
ĠBoy s
p ublished
it ic
ĠS ab
Ġperson ally
Ġem bedded
0 16
B udd
p ine
ad venture
ub ert
Ġrem ix
str ument
20110 5
ĠOb ama
histor ical
Ġtempor arily
J a
c ounter
Ġto oth
ct ive
ant le
Ġcl imb
ĠAngel ou
Ġmaintain ing
H ey
Ġs atellite
Ġre ct
ĠB our
um atic
ver ines
ĠF er
od on
ĠL iving
ĠE ra
ect ure
E lection
ĠC zech
ĠN a
ĠN ag
Ġsh aring
Ġsc reens
reat ment
Ġreal ized
Ð¸ Ñ
Ġautom atically
Ġrecon struction
Ġserious ly
Ġc arv
}} :
lo o
ith s
av ian
Ġj uris
the y
ob s
Ġatt itudes
Ġconst rain
Ġconflict s
ĠFight ing
Ã ª
Ġs it
Ġn aming
ĠS old
ĠB irth
Ġch ampions
37 1
ĠMar io
Ġrequ iring
B ert
M ind
O m
48 5
writ ers
Y ale
c ost
ron ics
ĠAr ms
49 5
riv als
aut y
ring e
Ġbehavior al
t ology
ol an
ĠA rena
id ia
Ġsp an
mem bers
4 13
F el
Ġp rices
lo ts
iz a
sh i
ĠTr ump
ĠAnd y
do or
Jeff rey
Public ations
D oc
I EEE
}} ||
ĠC ritic
ĠN orton
''' .
Ġevolution ary
3 44
S omerset
or p
In side
Ġ18 61
times of
Ã¼ n
ĠGib son
Ġlocomot ive
T s
c ad
j on
ĠC raig
ĠM otion
Ġv oyage
55 9
49 8
err ari
Ġspect rum
m akers
as ch
ag s
10 03
all ing
Ġal umni
ah a
ĠAnim als
Ġf atal
Ġcompos ers
Ġcertain ly
Ġjudg ment
ĠConf ederate
J am
P arliament
W ired
w restling
Ġb ranches
ro tt
AN FS
Ġkey board
Cent ury
ĠVan couver
m usical
Â ł
il k
ri pp
qu et
Ġcrit eria
Ġspe aker
B loom
g amer
p ike
ial s
Ġarchitect ural
Ġ ing
com plex
ĠF ifth
ĠJ ason
ĠThe ater
Ġcon vey
est ivals
Ġcre ates
Ġmain stream
ĠMan ual
iat ric
found land
Ġexpect ations
K irk
S ega
ĠO t
can oe
Ġsum mar
erd in
ĠShel ley
R ing
p d
Ġa u
}} |{{
Ġto ler
oc he
Ġcomp l
Ġtalk ing
Ġround s
P enguin
um ar
ric ia
uch y
Ġen able
Com par
Ġgu ilty
Ġlik elihood
Ġhor ror
M un
qu ire
Ġrep airs
Ġlist en
Ġquestion ed
M ason
ĠC arn
Ġby pass
Ġex clud
Ġrel ating
ett i
Ġdevelop ments
ĠOr chestra
Ġcreat or
ste am
G lee
S ociety
b omb
c aps
Ġto ll
ĠR Ã¶
ĠE cology
ĠK ap
Ġlo an
eyon ce
Ġsculpt ure
H it
m icrosoft
ref er
ĠL ar
che l
Ġsup plement
ae us
Ġtro uble
Ġeth ical
ĠElect ric
Ġexplicit ly
D I
al ions
Ġh olid
la k
road s
Ġfall en
zy me
ĠImp act
ĠVictor ian
J erry
Ġbe ings
ĠW alk
ĠW aters
ĠE agle
Ġar rive
Ġ10 8
Ġdram atic
i ref
ul atory
op us
ĠZ e
Ġent ers
Ġlack ed
ĠMont real
4 30
ĠR ab
Ġres idence
Ġcomplet ing
Ġcross es
Ġn et
}} .{{
la ve
10 08
ĠN azi
qu is
ric ts
Ġprov ision
urs day
p id
Ġt rap
in ople
is p
ant om
let ion
." </
47 5
ĠCar ibbean
miss ions
K at
sh ore
Ġcritic ised
Ġdemonstr ate
Ġvary ing
M yst
g ard
Ġb anks
ĠS ummary
ĠB irds
Ġg oddess
Se an
Ġsol ar
Ġforest s
Brad ley
! "
c lo
ĠB ryan
ĠK u
plain list
jack son
sp ects
110 3
ĠWork ing
]]- [[
Ener gy
= /
z ig
Ġa xis
ĠB ach
od g
Ġdis contin
Ġanal og
Pol ish
Ġpen alty
C arn
d og
v ide
Ġbe ach
Ġall ies
Ġco at
she et
Ġsla ve
Ġinstrument al
A ction
N azi
T al
ent ries
ĠC yrus
ĠH ugh
Ġpolit icians
Ġcru isers
Ell is
ethe us
4 18
b illion
t cr
v g
É Ļ
or ia
Ġh ippocamp
Ġ1 44
Ġproport ion
Ġconve ction
Lex ington
'' ).
us k
um ann
pr im
Ġbo ost
urren ce
Ġmilit ia
A ustria
m ask
Ġt orn
ps wich
Ġcompet e
Mat hematical
Ġvar ied
E ffect
I U
a ire
d ered
p les
v on
or o
ub ble
hav i
c ia
o il
Ġ 06
om ent
Ġgar rison
9 171
B os
I reland
Ġmod ule
ĠShip s
Van couver
ĠStrateg y
ĠArgent ina
Ġa mp
ag i
Ġr idge
def ined
Histor ic
Ġopin ions
simpson s
. ]],
B ooks
Ġp rize
ĠM ich
ĠB lock
ĠG rove
ud wig
austral ian
b row
c row
60 2
39 1
Jer emy
Ġbeaut iful
Ġn ervous
ĠM ut
90 1
Ġanal ys
Ġdr ums
Fried man
d rop
g ithub
Ġd iver
ay ette
cl imate
Ġup dated
Ġsepar ation
Ġsens itive
high beam
cest ershire
Americ a
N P
d k
d ar
Ġp ull
read ing
Ġamong st
eb ast
ĠB reak
art ime
est one
49 3
59 9
Ġcre ws
Ste in
fact ory
Person al
Ġerect ed
ĠT yp
av an
Ġinter ference
45 2
Ġbelie ving
Ġsett ings
Ġpred omin
Ġesc aped
transl ator
ĠOk lahoma
commission ed
c bs
Ġ 03
re as
att y
Ġequ ally
Ġjo ining
ĠTy phoon
ĠAnton io
4 23
b eck
h s
Ï ĥ
ä º
Ġre venue
ĠH ope
Ġcon sole
ab ul
Ġqu iet
ĠPro per
Sc reen
Ġread er
digital spy
rif ice
ĠDer by
m argin
Ġw edding
Ġ1 17
ĠI ran
Ġind irect
Ex p
ĠStat istical
M iami
T ak
Ġ 07
ĠP earl
ep age
ud ed
ĠPro fessor
alle st
b ay
Ġam big
oph one
script ions
ĠBrad ley
ĠAut om
ĠHend erson
0 12
4 27
P ittsburgh
on ey
Ġtalk s
Ġfl ash
ĠRoman ia
Ġvolcan ic
ĠScient ology
N BA
ĠI S
Ġal ive
ĠV erm
ĠInd ependence
Ġarrang ements
Ġbad ly
ĠProt ection
ĠT ogether
Ġsp l
pl ant
Ġstri king
g aga
h d
n em
ro le
10 98
ĠOr leans
lic an
world cat
FC FFF
Common wealth
Ġr anging
ĠV ision
Ġneighbor hood
H ob
ĠH om
Ġadministr ative
psil on
B ennett
en ary
Ġm int
10 73
ĠW isden
ĠN ak
Ġinter val
Ġcan on
ĠRe ason
Ġwhe el
ĠEconom ics
p review
Ġn inth
ian e
Ġres erv
R ichmond
eb rand
Al g
Ġvis iting
ĠBer keley
Ġestablish ing
research gate
m ology
Ġt rend
ch anged
ĠG ary
est yle
ud dy
Ġra ids
ĠAss ociated
Ġprom ised
Pr im
Ġenter tainment
ĠBrazil ian
Ġmanufact uring
' .
Ġw ait
Ġ1 46
ĠC ox
ian ism
box es
ĠArch aeology
Ġchalleng ed
A ug
B ath
ĠL en
ill ance
Ġacc ord
Ġreview ers
Ġarm ies
Russ ia
Rout e
olymp ics
F B
ĠH ind
ĠInd ex
class ical
Ġgu ests
yl ie
ĠBu ild
) }
f eb
is an
ĠM oscow
ĠB illboard
av i
Ġor chestra
ĠPro fessional
t ur
er ie
ath on
av in
Ġ18 85
Ġag es
Th rough
lin ux
log y
Ex per
Ġcelebr ated
Ġvalid ity
S el
c od
d yn
n obel
ĠR ise
ĠE s
ine e
oh l
Ġass embly
55 5
ĠTe le
Ġinvestig ate
Ġdefin itions
Ġhous ing
es on
An on
ãĥ ©
run ner
ĠOl iver
ĠP ath
ĠF ile
Ġcol ors
mid t
Arch ives
group s
ĠEv il
v as
it us
Ġa ims
Ġf ill
Ġm olec
hy per
45 1
Ġab und
Ġdet ected
f old
Ġp ace
ac ial
ip es
M oh
R andom
T rad
Ġ 09
ac co
Ġh orn
ir ts
gu itar
ĠGre ater
Ġsusp ended
deb ut
m ount
n ut
ch annel
il iation
Ġcon gress
Pro v
Ġclos ing
T ribune
x y
ad ers
ĠB us
Al b
ĠRobert son
week ly
Ġimpl ies
Vis ual
radi ohistory
# "
Ġch orus
ph ic
58 7
Bul letin
Ġacknowled ged
ion ary
Ġ1 16
Ġrem ote
Ġvers e
Ġdr um
Ġdr inking
ĠRichard son
ĠMal colm
Ġcanc elled
cel and
ĠHop kins
Ġstret ch
B ird
Ġ u
id ad
Ġre ven
ĠI T
com pos
ĠTr ain
ĠHol mes
que z
Ġge ometry
hollywood reporter
g i
el ia
ĠM ust
ĠP ope
ft s
ĠRe le
49 9
ser ve
Ġbi ographer
Ġassum e
gl ades
Ġver bal
0 20
Ġ1 14
ult an
Ġper mitted
Ġsever ely
ĠDe velop
Ġproper ly
ĠChar acter
5 17
Z e
us gs
12 14
Ġport s
Air Date
hard t
h anna
m art
Ġp hilosopher
ĠS ud
ĠB ear
ĠH ad
uff y
olumb us
Mass achusetts
n me
19 02
vent ions
ĠHow e
Ġhost s
Ġhighlight ed
Ġconstrain ts
B owers
M icro
p unk
ĠF ull
if ax
ung ie
Gu ardian
T ed
h ower
um ped
all ica
Ġint r
ĠPro blem
Ġexam ination
odan sha
A y
s es
t ake
w m
ol ulu
ĠT ask
200 50
sf ield
Ġsc ales
Ġcons ervative
202 11
ID S
Ġinteg ral
F lo
F ound
Ġart work
ĠChrist ians
ĠPort ugal
Ġf ung
ĠH aving
ind ian
work ing
70 2
Ġemploy ment
Ġexpl oration
Ġpul led
semantics cholar
''' [[
Ġfr ames
Ġinvest ment
ĠOtt oman
Barb ara
Ġtick et
4 17
4 29
I ss
M ess
in j
Ġb are
ĠC ool
Ġreg ime
ret urn
ĠRo om
Ġlif etime
estab lished
4 25
F raser
t ask
Ġt ip
Ġp riest
ĠS uff
ĠP ad
ĠD ise
ord inary
ĠSc ore
Ġend ors
;"| {{
Ġstar red
Ġmix ing
Ġcomplic ated
m ake
ĠD iss
ĠJ oint
Ġcon fer
sc ient
Ġexper ts
onn ie
at um
ĠC atherine
19 01
System s
: ''
t le
Ġs ick
ĠT otal
ĠR angers
Ġso vereign
oy ota
Ġfound ing
Ġwar ships
iff s
Ġnomin ations
f ol
z ac
an an
ĠB eyond
ious ly
Ġassemb led
S et
st ill
ĠS A
ĠP il
]]'' {{'}}
Ġcommunic ate
Ġcart oon
E U
Ġp seud
im g
Ġl ie
ard ing
ev a
Gu ide
Ġedit ing
Ġb oss
et ric
ĠF el
ĠN ord
res hold
St ewart
tr ain
eor ology
ĠAtl anta
timesof india
n ol
Ġin scription
ĠC ow
et z
10 10
Ġqu een
rel ief
hel sea
Ġlay ers
Ġpen et
Ġlabor atory
s ic
iz oph
Ġabs olute
Ġfif ty
Ġcir cles
3 46
F olk
M and
ab ric
Ġr id
ave l
St orm
44 2
New ton
aa a
Ġregard less
ĠLeg al
Ġsla ves
E c
d ell
ri ot
ĠN ik
ey mour
Ġrec ruit
Ġqu e
che ss
Ġdisplay s
Ġreported ly
Ġapproach ing
engine ering
4 12
s ac
ut z
ĠR oll
39 2
Ġconsider ation
Ã§ ois
ebr ate
| #
Ġ 05
Ġ 08
ĠC loud
ĠN J
Ġj a
ens ch
Ch arts
Ge offrey
Ġprint ing
Ġw orn
ĠS now
ĠP ap
ĠH unter
ps i
Ġpres ents
Ġcolon ies
Ġty phoon
B urg
L earning
M O
Ġb aby
Ġm arry
Ġdis k
child ren
opin ion
l io
ĠT HE
ĠB uffalo
38 2
Pro gram
Ġdirect ors
ĠHer bert
Ġmark ets
Ġneigh bour
K rist
Ġw ine
ĠB rew
ĠE isen
Ġcol lections
Ġeffect iveness
Ġprom in
Cont ent
Ġwa iting
ĠGriff in
Ġconfig uration
olith ic
H F
P enn
p relim
ĠS oon
''' "
Ref end
Ġprec ise
R y
n ormal
he avy
Con nor
ĠGard ens
Ġtrib es
/_ /
B irth
f al
la z
met z
met ic
ĠChar lotte
econom ic
Ġvillag es
at ar
ok o
ĠCon vers
iqu ity
comm unication
ĠAss essment
down loads
stro ke
axon omy
ĠSpec ies
R O
Ġv align
ĠCh ampion
ãĤ ¯
van a
Ġaccept ance
Ġstri p
Nor way
=# {{
Ġargu ing
g raph
g aming
w inter
ak arta
Ġadvert is
N avy
t orpedo
]] ?|
Ġm ature
et e
log ic
Ġins isted
F ig
i Äĩ
v ideos
st ra
Ġn a
ĠS um
ĠM ort
Ġpro hib
ĠAl manack
57 7
Ġhuman ity
sequ ence
Ġspe akers
Don nell
Pl atinum
Ġeduc ated
" ).
3 80
I ON
W iley
j am
Ġw ore
ĠI BM
ap est
ĠG overn
Ġch annels
Ġdon ated
Ġsurg ery
A h
K o
s ilver
w ere
or c
ol in
Ġl ib
", {{
ĠRe ading
ĠHol land
Ġclos est
ĠOver view
ĠSte el
Ġfeed ing
izoph ren
is ive
ĠC reat
Ġl ieutenant
47 4
Ġesc ort
ĠSy ria
Ġw et
ĠK it
ib e
âĢĶ ||
Ġmusic ian
Pr incip
ĠAm endment
C irc
is ations
ow ards
ins ic
Ġinit iated
las gow
Ġsus pect
Ġrul ing
t om
Ġc hemistry
ĠU ran
con serv
Sh aw
Ġsign ing
Ġreview er
var phi
Î »
Ġh alt
ĠRe ed
ĠSch uster
Ġbi ases
ĠPe ak
Br ain
Ġestablish ments
E ss
f le
en ix
ir an
ĠR alph
Ġover whel
know ledge
J e
T erry
Ġb ore
con st
fore st
69 1
Ġhealth y
Leg acy
m x
em ann
10 88
Ġv ital
pr act
99 9
ĠTy ler
t m
w ave
Ġg ard
ĠD ennis
ĠSur v
Greg or
F er
ag ons
ĠG ener
est e
90 2
hol m
Ġpref er
R un
n ob
s ays
Ġb eneath
ĠS ax
eb ral
ag raph
oth ing
Fried rich
P oint
h in
Ġc abinet
id n
ĠB io
Ġrock s
ĠLiter ary
Ġfif teen
S ac
T odd
g ay
ĠS K
ĠS ales
ĠM ak
ĠP ine
end ix
ĠK r
ative ly
Ġorgan ised
F I
r ating
u vers
y ah
ac rosse
Ġ1 22
ov an
F O
N L
f ax
m anga
ĠM ade
Ġhe lic
pro p
Ġrad ius
ĠGr ace
ĠPort rait
Class ical
4 26
w inning
Ġc ous
ĠT ales
os igned
cc c
Ġco ined
Ġabs ent
Greg ory
Ġnick name
4 24
w ales
Ġthe ater
Ġp arks
Ġ1 35
Ġ2 20
An na
isc ount
Ġsimilar ities
Ġemerg ing
G ulf
en b
ed ed
201 31
AR T
Ġtradition ally
Serv ice
ilib rium
Ġre pro
ĠCh ile
Ġag ricultural
Ġev ident
ĠBe hind
dat abase
aud io
Ġpurs ue
Ġcruc ial
ar ms
Ġs oph
Ġwas n
ard ment
the ir
An ti
Met ro
Ġaltern ate
5 18
C ond
T able
g t
h alo
Ġf old
Ġre lay
ĠP ink
97 7
Ġcomp eting
Ġt ub
10 29
Ġst arring
ĠW at
ĠG i
Ġex clusively
pr ises
Sh ar
Ġmet a
rep resent
L ore
ĠT ax
ib us
so f
Ġun w
pl ane
Ġread s
ĠLeg acy
clus ions
M ot
T ele
Ġ\ ,
Ġconn ecting
c ust
om ber
ir is
os ium
Ġcomp ound
ans k
Ġret ail
Ġem pty
Ġdisc rimination
rn st
W ein
it oba
ĠM ix
Ġun expected
ier ra
Ġob server
Ġvis its
ĠClass ical
Play er
look ing
ĠNev ada
erdin and
E X
n ih
Ġre aches
sc ribed
vert y
Ġreg istered
Ġautom atic
Ġminor ity
Ġwealth y
^ {\
k top
m ut
le ck
and roid
ro v
tp h
ĠB rief
ĠTh orpe
Ġoccur ring
Ġexpress ions
Ġenh anced
et hel
ĠM rs
ĠN uclear
80 1
go al
eth ics
Sw imming
Ġdeal ing
cles iast
ĠEll is
ĠAcc ount
Ġlocomot ives
G all
d ependent
el ius
ut ical
the tic
Ġdeb t
ĠDavid son
ĠSus sex
k C
th al
Ġl iquid
ark in
Ġen abled
Ed mund
Ġill ustration
ĠGl ass
ĠBC E
eban on
A J
R ich
Å Ħ
in ated
ĠS ox
ĠC ult
cent re
Se a
Ġdev oted
D NA
er cis
Ġf ont
ew ise
Ġcount ies
Ġfact ory
mon ey
Ġconf used
quir er
in fty
st re
Ġd ict
ĠH ass
Ġbe aring
ab ol
Ġri vers
Ġsw imming
Bel g
Brook s
ĠFle ming
Ġinhabit ants
B an
ĠP el
ĠD ig
rom ag
Ġint elligent
Ġchar ter
Ġcent ers
Ġfe ud
202 30
Ġlik ed
Ġjudg es
ĠWrit er
ĠChap el
Ġcooper ation
N T
_ -
ĠI o
44 1
val uation
Ind o
NY int
ur ry
Ar ts
Met roid
wa uk
Mont real
Ġdecre ased
Ġt ape
Ġn ut
Ġd rove
Ġ1 21
Ġup date
Ġoff ense
met ro
Ġgen es
ieg el
N Z
in ternet
ent o
ĠP ack
ĠN umbers
os port
op ard
ia e
author ity
Ġ18 00
vel s
mar tph
Ġelectric ity
z ap
Ġin sect
ĠF riday
bo th
land o
ĠLe ft
Ġtechn ological
ĠKen neth
Ġf ishing
ĠN ovel
ust ain
ang ered
12 16
5 15
D ocuments
Ġre hears
Ġcon ceived
Ġsh arp
Ġar ray
under land
Ġbreak s
Jim my
F eb
H ein
P os
R ome
S ter
Ġ1 000
ĠC elebr
47 2
Ġra ising
cer pt
ĠTrans actions
Ġdocument ed
Ø §
Ġex clusive
ĠU EFA
"/> }}
Pr ime
ĠSchool s
Ġthreat s
ĠAdv ance
ĠS ar
ĠC os
ill ustrated
37 2
Ġco ff
iqu ote
aut s
ĠLind wall
c atalog
ic ite
Ġs ending
Ġc ite
ol arly
Ġunder ground
ij ing
Ġ uranium
ĠJ un
ph erd
co in
Ġinter cept
pro fit
ĠSc ar
uff icient
AS T
Id ent
ĠCard iff
ĠAppro ach
od ied
ach ute
Ġtr igg
Ġatt ending
Ad d
Ġorgan isms
Ġrepl ied
ĠHar old
Ġfriend ly
Ġinnov ation
Ġj unction
ĠY ard
ĠSc ot
uss ian
Ġcorrespond ence
Ġrac ial
ercis es
d in
f ran
10 70
ĠG aming
ĠO pt
amer ic
game Id
Ġput ting
lyn n
T unes
W y
b ra
en ic
ĠW ang
Ġ18 87
Ġexp lore
Ġdifferent ial
Ġobject ives
Ġrequire ment
C enter
l atest
p uts
an throp
ĠM ake
ist on
ĠH um
ey ers
ãĤ ¢
ĠRoad s
Ġlingu istic
à §
ĠA qu
Ġan ger
Ġcont ents
Ġam pl
lev ard
ĠIm ag
Ġsla very
econom ics
Ġment ions
Ġannounce ment
r acing
u ition
ref erences
56 8
ĠZ o
Ġair port
mod el
J esus
M es
c p
own ed
3 21
ch in
ĠC red
ĠB roadway
Ġim plicit
ĠInd ustrial
e q
p arts
st v
Ġb ay
te le
aw son
vert iser
Ġship ping
Ġext ending
ebec ca
H om
K ath
R ap
w C
Ġin clusion
ac ier
ĠJ u
se vier
Ġrel ativity
Ġext inction
Ġrece ives
ĠReg ional
0 15
m otor
Ġc ourses
Ġ1 24
ĠT am
ĠM atch
up date
Ġla bour
pos itory
for bes
Mar cus
Ġhead ing
Ġwithdraw al
3 97
B ased
la unch
ĠL ap
und ers
ack Down
ĠHe aven
ĠLiber al
Ġhydro gen
or ship
ĠS ources
ĠP enn
ass ets
ĠMar ines
ĠObserv atory
N one
e i
Ġ ibn
Ġ1 26
Ġknow s
Ã¶ ner
ĠMag ic
ĠGram my
D ictionary
R est
p owder
ĠS ic
ul in
ist ol
ĠN ames
op hil
ĠK on
att a
Ġass ists
i oc
am ation
ĠN BC
ov o
ov ed
ĠCom bat
uff ington
Ġent ity
** *
ĠBi ological
haus en
J oint
Ġt aste
pl ato
ener ated
A ustin
p ay
re z
Ġa de
Ġh ind
add le
Ġcoin age
rent ice
4 40
T own
Ġs inking
Ġb ott
om al
ol ie
Ġsc attered
Ġaff ord
imb ledon
ĠWild life
Stud ies
fghan istan
C row
c ritic
it ched
Ġf o
ĠS ad
ĠA er
att ing
ject ive
B ry
w il
an aly
he ter
Ġmot iv
Ġcust omer
ĠFl ash
Mult iple
. ).
P D
m r
Ġre built
ĠR oth
ri o
Ġher itage
tr act
ĠMar itime
her it
ãĥ ª
Ed inburgh
Ġmot ivated
Ġpred iction
Green wood
4 22
S olar
th ink
em e
ri eg
to le
Ġag gressive
==== ====
Ġprot otype
ĠBrit annica
Ġattract ion
ĠL uther
ant astic
Ġpl acing
Ġfollow ers
Ġdem anded
unt ary
Ġsett lers
Ġachie vement
Ġdepict s
Ġextensive ly
Ġpal ace
A E
al in
ĠT reaty
ĠP rison
ĠI GN
Ġrepresent atives
hold er
ĠStr ong
grad uate
ĠPot ter
) )
V ers
on lin
ĠE y
op p
igh bours
Ar gent
aut iful
Ġinvestig ated
M obile
ht on
ol esc
id em
ot er
ĠB ran
ill on
Ġinter views
ĠX III
Ã¼ ller
Ġfocus ing
ĠFr ame
B ecause
Ġt rick
Ġc ash
as utra
ĠN ova
]]| |[[
comp et
arian t
ĠPh ill
Ġoppos ing
Ġsitu ated
Ġdisp ers
ĠSound s
ĠWol verines
ĠES PN
57 8
58 5
erg uson
Ġevery day
ĠPar sons
pre vious
Ġdaught ers
Ġsust ain
D ur
Ġp ole
ĠH its
10 14
ĠF ather
Ġbre ast
AAA QBAJ
R ogers
p itchfork
st adium
ill iant
Ġent ities
FF FF
exp lore
ĠPerson al
0 90
4 28
P ad
d irection
Ġw aste
Ġs lo
Ġh ol
ot ation
web citation
ord ination
Ġlaw yer
ĠLaw s
aven port
. âĢĿ
0 22
C arter
K am
m atic
Ġh a
ĠC ell
ĠB urns
az a
Ġen compass
Ġdep iction
arri ed
ĠBay esian
ĠWeb site
Ġconcent rated
c ases
f ashion
h agen
re x
Ġin cl
et o
ad os
ĠP earson
Ġis n
ak ov
ĠK o
Ġim aging
pro ve
ae a
Ġprocess or
Ġprom oting
Ġcut ting
Ġexplain ing
ĠOrig ins
l ived
t ol
st ration
Ġc orn
'' "
ĠR D
Ġen listed
Im ag
Ġfriend ship
Ġrecon naissance
Ġcommit ment
N orm
ĠPro gress
inn ess
ĠMem bers
Pl an
ĠCons erv
Ġign ored
Ġqual ified
Ġdise ases
ĠPan zer
B orn
R osen
f urther
le en
ĠS askatchewan
Ġh ang
ist o
ĠUn ivers
Ġdist ributions
BS D
ĠAntar ctic
V incent
im ination
ĠH okies
ain es
ĠUn iverse
ĠCom plex
Ġsub sid
Ġrece iver
ĠHay es
Ġris ks
0 18
W ales
at ian
us ions
ct ors
12 15
ĠAn na
Ġind ustries
Ġpref erence
Ġir re
cap ital
Ġbom ber
Ġdescript ions
, -
w oman
il ian
Ġpro ven
av our
Ġdef ines
Ġfail ing
Ġrev ival
Ġburn ed
ĠLanc aster
Imp act
: *
R etro
ĠS ep
ĠP S
ĠB irmingham
ist ically
59 8
ĠSe as
Me thod
ĠNic ol
p aul
ĠI EEE
ĠH alf
Ġv oting
pro ducer
Stat istical
A rizona
B lood
G lossary
L ocal
R PG
w al
ur ers
ĠM oh
ĠN om
Ġcomp rehensive
ĠPro file
59 6
ald well
Ġhand ling
ĠRepublic ans
Ġsem antic
ĠSte am
wauk ee
H alf
L G
R AF
k el
ĠAl t
55 3
Al ice
Ġfe els
Ġremov ing
Ġcreat ivity
found ation
Ġdecor ated
Ġupgrad ed
b iodiversity
f estival
Ġ artic
Ġb log
ber y
ich ols
Ne therlands
Ġedit ors
Swed en
Ġm apping
ĠP owers
ĠR ange
Ġafter math
49 4
Ġimpro ving
Ġill usion
ÃŃ n
Ġedit ions
Ġfavor able
H ind
Ġ ~
ĠU krain
anc ient
lin ing
Ġpack age
Ġpartn ers
Ġremn ants
Ġc up
Ġc hest
Ġf ungi
id an
Is aac
r ugby
Ġ 04
Ġt ies
ews ki
Ġ18 77
ick er
ĠMar c
Ġeng ra
aged y
For bes
Rob in
Ġvarian ts
Ġvo ices
ĠPed ro
1 100
Ġo verseas
ĠP ut
Ġcomp utational
Ġ18 65
Pro t
ãĥ »
Ġerupt ion
p nas
it unes
am oto
ĠR io
ĠF raser
Ġport ions
Ġdr ink
ĠMarsh al
rews bury
H g
L iter
T an
z ero
Ġs alt
ĠW onder
ĠK ur
Ġor al
ond a
ipp ing
ĠAnn iversary
Ġil legal
Ġrebell ion
C ost
re uters
Ġs in
as se
ĠL ie
ĠE pis
Ġhe ir
ath let
Ġsh ares
ins ki
inn ings
Ġview ing
sch olar
6 16
C ongress
K el
O wen
c ov
m cc
Ġs isters
Ġc la
Ġj ury
18 96
58 8
ĠArt ist
f ood
Ġt ack
ĠO il
13 00
ĠTh under
ĠTh omson
Ġreg ulation
ĠMod els
Ber keley
ĠJeff erson
Aud io
0 50
p rice
u h
Ġb orrow
Ġd imin
ĠC R
ĠW alt
ari os
po em
Ġdeep ly
ĠFin land
Hild ebrand
V R
d raw
o ons
Ġe y
ĠB ert
man ual
the me
Ġoper ators
Ġcut s
H orn
ĠT ake
ĠLe on
ĠZ ero
Wh ere
P W
b reed
m and
is o
us ers
ĠA chie
Ġcom ed
head s
Ġpurs uit
lad imir
Ill inois
ethel ess
A G
N ashville
Ġf iled
ĠP au
Ġshe ar
ĠSh ield
ĠCo al
Ġpar ish
ĠQu ebec
Or ig
Ġemp irical
Ġstation ed
Ġsqu ares
uche ss
5 11
b red
n en
Ġf ossils
ref s
ĠC risis
ĠR aid
ĠL ives
ĠL arge
Ġ18 30
Ġ18 40
St ars
osph ere
Dr agon
Ġdefeat ing
Ġqual ities
gam asutra
Ġce ased
P le
S even
_ (
w ords
y oung
Ġ q
Ġk iss
ĠMan hattan
Ġmoment um
Ġrecon struct
Ġpremier ed
T ree
Ġf Ã¼r
ĠB lair
ĠW ins
Ġad venture
oy a
ari um
ĠSm art
= (
Ġw orse
ĠC avalry
ĠR ich
ver age
artic ip
Ġpol ar
rel ation
ĠSw ord
Ġbatt alions
CD C
Aut om
ĠLuc as
ĠB reed
10 15
ĠW a
ĠG arc
ph abet
rad ar
Ġphys ically
Ġdiscuss ions
OD NB
havi our
k t
s cores
u ations
ro ke
ĠS T
id ation
ĠB log
if a
ĠIn stitution
ex hib
Ġrem arked
ĠPr im
Ġterm ed
Ġav ailability
My c
Ġconstitu ency
izophren ia
B eg
ic ing
ust av
pro d
Ġob lig
yr ac
Ġspecial ized
D et
k r
is bury
Ġd warf
ĠJ ets
ann i
ull en
play station
67 5
Ġt or
and emic
ĠT aiwan
ot he
10 30
ĠF emale
ĠG as
ind ustry
ĠAn ti
ĠLe o
Ġauthor ized
omen cl
ĠPal mer
Ġdiv ide
Ġrul er
Ġvarian t
ĠThrough out
Spec ies
o ley
Ġ1 23
ub ic
ĠE rnest
Ġhigh ways
Ġbr ings
ĠBe th
Ġrest ore
Ġdem olished
ĠMon ey
not elist
Eur ogamer
6 15
b ane
ĠP ra
ĠB ab
od nb
Ġr ings
edit ions
"> \
20120 7
Ġnorm s
Mal colm
Rel igion
ĠTw enty
Ġvert ebra
f ried
g ration
w restler
Ġ ×
Ġ {\
at ops
}} ''
ĠR enaissance
ĠF lood
ri am
11 18
ĠK y
ge ology
Ġnot ation
47 3
ĠJoy ce
) '''
G lo
J anet
Ġc ov
Ġm arg
ĠC inema
ok a
ĠSc ots
ĠWorld s
ĠNe il
Ġcirc ular
Park er
ĠInit ially
C W
L R
el o
ĠP riest
11 46
bo ats
Ġcap ability
68 7
ĠX X
ĠBl ues
Ġpers pectives
Ġrecept or
appe ared
W is
n sf
Â £
at oon
ĠS exual
Ġth row
Ġpro fit
ĠPro p
ãĥ ĥ
Ġbur st
Ġtrib e
C ouncil
at ri
om p
am itsu
ĠW ords
to o
co ast
Ġsub division
ĠBr un
Ġtri ple
ĠRel igious
Ġsuppl ied
ĠStein metz
F un
w itz
á º
fl ash
Ġassum ptions
Ġop ens
C all
å ħ
Ġm inds
Ġ1 29
10 18
Ġg host
art e
ĠO F
Ġse al
Ġ18 84
Ġag encies
Ġinst ances
B ond
O pp
Ġp yramid
ĠA ur
== ===
alt ies
Ġconduct ing
Tim othy
Ġvolcan o
ãĥ³ ãĤ
" '''
A my
is ource
ic ious
ĠH anna
ast ery
ĠV o
Ġact ively
Ġmay or
Ġsk etch
ĠRem ix
Ġstrugg led
Ger ald
aleont ology
Ġavo ided
m ort
p ent
re spond
Ġf urn
ĠN y
Ġv aries
Ġsh allow
pl ural
Ġcol ours
Ġdef ining
Ġenc oding
ĠVol can
Ġdeter ior
ĠRÃ¶ hr
H ockey
h of
at iv
Ġre ass
Ġag greg
Ġdec ides
48 4
Re id
rec reation
Ġliter acy
Ġcontext s
rie ve
keep er
Ġcul min
I ron
J ct
P owell
s ummary
ĠG ets
Ġem br
Ġaud itory
> -
it ure
ĠS in
im ag
arch iv
ow ed
iss ions
Ġ18 62
ĠCom b
bor iginal
stud y
lovak ia
avil ion
Ġc ock
sp a
ath am
ld ots
the hindu
Ġcomp iled
over view
ĠAl pha
ĠNorm andy
ĠFriend s
r ays
ir vana
ĠD ublin
Ġde ce
Ġor chest
Ch arlie
ĠAl aska
Ġmem b
ĠCr us
sound ers
ĠPers ian
Ġexplo red
6 18
w ii
z an
à ®
ĠT igers
ĠC uba
av ers
iz on
Em peror
ĠMont gomery
ĠTre asury
Ġreflect s
Ġbeaut y
C zech
h appy
p atch
in st
'' {{
Ġm art
ĠJ uan
Ġadd s
P hilosophical
W atson
Y ahoo
] ".
Ġs ad
Ġb ra
Ġto uring
Ġwh atever
av club
ft en
Ġvict ories
Ġmiss ile
epis odes
ĠHung ary
Ġiniti ative
6 17
j er
ĠC hemical
ess ex
Ġ" ...
Ġv illa
ĠAd elaide
ĠPar ad
Ġsymbol ic
ĠAthlet ics
L amb
]] .</
}} &
ol ut
Ġpropos als
Ġprior ity
Ã± a
cru isers
Ġmush room
5 27
L I
Ï Ģ
in vest
Ġs id
am ents
ĠS outheast
ag ic
ie v
anc ock
Ġsim ulation
Ġprov incial
arr ative
Ġsimilar ity
ĠPort uguese
vis it
Ġsing ular
O p
P earson
ĠM ills
ey n
Ġdirect ions
Ġknow ing
Ġmed als
key s
histor ies
ĠDec ision
Ġderiv ative
D ANFS
H ip
T oday
V e
m yst
Ġc ensus
Ġin quiry
ĠM P
ĠI X
ĠAr bor
por al
ĠÃ ł
Ġhost ile
Ġlimit ations
ĠVen us
ĠProcess ing
flo at
ĠF ine
Ġat omic
Ġor ange
Ġpl ates
arv in
erm uda
ĠRe ve
58 9
abul ary
ĠS ed
ĠC abinet
ĠK epler
Ġ18 76
Port rait
Ġbow led
rev or
tim eline
Olymp ic
Ġexcell ent
8 50
st ones
Ġc od
Ġin fo
Ġfor b
Ġfor ty
Ġg ains
ith metic
Ġj ersey
Ġam ateur
Ġren der
N ord
es ch
Ġs ed
Ġd ivers
el in
ĠP akistan
Con temporary
Ġrestrict ions
Ġanch or
b labbermouth
}} <!--
Ġ1 19
ĠM axim
ĠR ugby
ant is
ron es
ĠDe al
By zantine
C ulture
se ven
ob it
ans son
Ġpres erve
Ġcor ps
Ġcivil ians
Ġdiv ine
ML B
on ica
ĠS aturday
ĠIn side
Ġpre val
Ġcl ient
inc lair
Ġadv ised
Fran ces
ĠSw iss
games py
ĠOut standing
Ġple asure
C ountry
K ings
R aj
S on
ĠB ass
Ġcommand ing
dec rease
6 42
K urt
O pt
ĠB og
ĠI mm
ri arch
op ods
oc c
Ġ18 86
ick ing
eat ing
ãģ Ħ
inds ay
inem at
ĠCle opatra
Ġcho ices
} _{
ĠB arr
form ing
Ġover come
ĠFor um
oper a
ĠStrateg ic
w ine
ry ing
ll Bot
Ġ17 5
yl us
Ġmer ch
Ġrob ust
relim inary
D est
ar med
ch ain
Ġ1 70
ĠM IT
Ġex ercises
air date
Ġphot os
S ar
m ons
Ġ1 27
ĠC ov
Ġpass ion
ĠBack ground
desc ription
Ġtal ent
Ġvulner able
ar ians
am ic
Ġsc andal
air d
Ac ademic
ĠAnt io
S K
Ġsh aft
Ġres id
Ġsub marines
69 5
ĠJohn s
cont ext
Ġaut o
Ġearn ing
ĠHead quarters
M ean
o date
}} ||{{
Ġe ar
ĠR u
ĠK ill
ik es
Ġsp ont
Ġsp otted
Ġclo thes
ĠNe ed
Ġsm oke
Ġterrit orial
ĠPruss ia
ard i
Ġbo iler
Ġcons umer
Ġreview ed
b ec
w ight
Ġt ut
Ġt ales
ĠT ank
Ġe ating
eg u
ĠAl i
Ġfinal e
Sfn Ref
Ġencour age
Cle veland
Ġcert ified
Desc ription
0 17
C ount
Ġ1 33
ath ing
rit ion
Ġsur pass
ital ic
urric ulum
ĠGl en
Ap J
ĠLanc ashire
ĠConstant inople
Ġdiagn osis
A f
m ess
ch anges
ac ademic
Ġres olved
An imal
Ġform ations
ĠSh ah
ott ingham
Ġprot agonist
Ġnav igation
D ivision
en heimer
ĠF ern
est hetic
Ġ& =
elf are
Ġchar ity
Ġflag ship
orpor ate
ĠEss ays
Ġelabor ate
Ġt issue
Ġb ull
ĠW ed
Ġcommand ers
Ġcop per
Ġbon us
= _
B oth
F an
G L
V ice
b org
f org
ĠS E
us p
Ġth orough
Ġe cology
ĠB ud
ĠW ord
row ne
sc ill
Ġover lap
ĠRe agan
All music
0000 00
Ġtax es
ĠWay ne
Ġsquadron s
Ġunivers ities
again st
Ġrestaur ant
ASC AR
c C
s and
am us
il o
ĠF org
Ġcon qu
Met ropolitan
Cal gary
uda ism
Hen ri
ĠEld er
D od
W alt
Ġp hylogen
ĠP os
oc hester
Ġsh r
Ġ18 75
Ġ18 71
att on
articles how
ĠTr uth
Ġinf inite
PN AS
Ġsail ing
Ġexhib ited
Ġfair ly
'' (
ol ent
Ġr ide
olog ie
56 6
Ġident ifying
don ald
Ġcollect ive
ĠTechn ologies
E AAAAMBAJ
Y Y
Ġin cons
Ġst ones
Ġsh ock
Ġrel ie
Mar ie
Ġmet ric
Ġcompos itions
Ġprote ins
Ot to
Ġphilosoph ers
9 30
H ew
ĠSt yle
ff er
Ġfe ared
uton ium
B ang
c all
Å ¾
18 98
Ġ18 48
Ġover view
Ġpre view
edit ation
ys elf
Josh ua
5 14
F reedom
H indu
Ġw onder
Ġm asc
ĠP ic
ĠL akes
Ġun cle
sh uman
Ġ18 64
oh r
Ġmatch ing
Ġtermin ology
5 67
G I
m t
ĠM arg
10 11
os ity
Ġr ugby
13 71
Ġam id
arr ass
Ġadv ances
gr ated
MI int
V II
á ¸
ur assic
as is
uc ci
18 90
ater mass
rand om
ĠMon ument
par am
augh an
Ġdemocr acy
ĠBou levard
W ars
e ight
x im
Ġp etition
am ph
Ġre organ
ĠB uch
ĠN et
ran king
man chester
ĠBe ing
apt ive
amer a
Ġsyn thes
Ġdeterm in
ĠTur key
Ġburn ing
ĠJer usalem
nol ink
ut a
Ġst eep
Ġmon itor
Ind ex
ĠInter ior
Ġadopt ion
Ġprepar ing
C atherine
b owl
Ġ1 38
la very
ĠW ey
ĠG enesis
Ġtr ace
Ġ$ {{
ĠEv ents
AAAAI AAJ
Polit ics
H udson
L loyd
r ne
s oci
Ġp ri
ĠM agn
ure a
Ġpr ayer
58 6
Ġtran sportation
Ġacqu ire
Form at
IPA c
ĠHem ingway
G rey
s burg
Ar k
Ġpe er
49 2
ony ms
Ġtra it
aint ed
full page
ebr aska
} (\
im acy
ĠL ion
ack down
ide a
ĠV iscount
sc ott
Mar ine
Ġconf ident
En terprise
ĠArt illery
utch inson
script s
ĠFight er
C itations
T arrant
re ction
Ġc yl
ĠL ower
de al
Ġatt orney
ym n
Ġpun ishment
B irmingham
w isden
Ġth rew
ĠB ren
ĠG amer
ĠIn nov
ick ers
ĠNew man
ĠVer lag
5 22
C ong
T T
Ġ à¦
Ġe agle
ĠD ak
ap ped
/> [[
55 4
Ġstrong est
Ġyoung est
Ġsym metry
Ġcompet ed
Ġpay ment
Che ss
ĠFl ames
Ġimag ination
ĠGib raltar
5 16
N ight
r ag
ĠA ug
ĠB ak
se attle
pr imary
eck er
ĠDo es
Rep orts
ĠRay mond
Bat man
A pr
B ody
is ure
'' ],
ĠS ymp
ir ce
ĠM ond
Pe ace
Ġseg ments
Ġassoci ations
Ġterr ain
5 12
j ones
l ades
Ġ1 37
Ġind igenous
ĠSh ackleton
Ġorgan izational
Ġproduct ions
Ġten ure
Ġrein forced
ĠMov ies
Card iff
L aren
W a
ing en
ĠL ex
97 0
ob ia
sc ienced
Ch ron
ev ille
Ġshift ed
Ġparad igm
Ġcoeffic ient
|âĢĵ |
L aura
g rove
Ġt enth
es que
Ġs af
ĠH ur
ĠF ly
ĠSt an
ern on
Ġshe ep
Ġdef ending
Ġlight ing
Man hattan
ÅĤ aw
V C
n is
s igned
Ġa ug
Ġp ap
Ġp ione
Ġm olecular
ĠD udley
Ġtr uly
Ġman aging
Ġphot ography
rid or
High way
ĠProduct ions
celebr ity
Strateg ic
> '
H amm
L an
N ag
T yp
it ated
ĠM illion
sp ac
Ġr anges
ĠAd venture
Ġpat ent
ache lor
Ġquarter back
M ath
Ġt ons
Ġm ines
Ġde als
sy nt
t ank
ess ed
Ġl anes
und es
ĠK ant
ach ers
Ġlack ing
Ġpersu aded
Ġspac ecraft
Ġcorpor ate
er es
Ġg est
qu ality
ĠK el
Ġsh irt
John ston
world radiohistory
Ġfac ial
ĠBur ke
Ġwarn ings
Ġmus cle
Z hang
l is
an imal
Ġb ars
Ġe cosystem
ĠG ot
Ġdes ert
ick ed
edit ors
cc n
Ġ14 1
]]; <
Ġcru ise
Ġcon quest
Ġv oters
ind a
Ġ8 00
Ġsuggest ion
Wil helm
Les lie
ĠMu hammad
per ate
Ġwe igh
Ġhead line
head er
uten berg
Ġcelebr ation
mad onna
c ould
Ġ1 47
ĠF u
Ġcomp aring
Ġ18 78
Her ald
ĠWood s
Res ults
Stat istics
Ġfract ion
ebast ian
K u
N ever
p rem
Ġw artime
eb e
ress es
man agement
Ġmar ine
Ġaccur ately
n w
ac ion
ĠR an
iv ic
ge org
bo ys
Ġ18 63
Com ic
bol lah
Ġemploy ee
acc ur
T H
ĠD anish
ĠF oster
Ġpro ceeded
ingle ton
Ad rian
Ġgrow s
Med ieval
ili ary
rend ered
ĠIslam ic
dri ven
c ricketer
g C
Ġin land
ad ia
00 33
ĠV ill
000 3
lin er
ĠTr acy
Black well
Ġ-- [[
Ġresident ial
å ®
al is
Ġs ect
Ġp ink
Ġin equ
ĠN ash
Ġj et
St yle
ĠSp eech
ES CO
def inition
Ab raham
ĠGal axy
Ray mond
Ġfrag ments
Ġsole ly
unning ham
B oeing
b ey
l span
s ecut
ĠP itt
Ġas ym
Ġcr imes
ĠEngine er
G ree
N athan
un ct
ĠA le
ap iro
ĠK urt
oll ston
ĠSound track
Dist inguished
Ġbats man
Ġurg ed
ĠA N
ig ue
Ġis ot
ĠN az
qu ency
amp son
ene z
110 8
Ġsal ary
Bay esian
ĠChall enge
M end
Ġb ell
Ġ= {{
ĠT ang
ĠB lake
iv ities
Ġnot iced
ĠY outh
ret ro
ĠHar per
Ġwest ward
ingu ish
Tr ue
Ġcompan ion
] .</
r w
Ġd y
Ġl iner
ĠD rama
Ġ18 82
rib le
rop olis
57 6
IS O
Sec ret
F ight
h ours
st ed
Ġd ust
ell ip
ong ue
Ġun conscious
Ġcl ar
gu ides
aterial s
Min or
ĠElect ronic
Ġenthus iast
ĠArtic le
> &
F itz
J acques
ur red
ĠC ut
ĠC ath
ess es
ind y
Ġcomp ilation
be hind
Ġprot ests
Ġfr igate
ĠStaff ord
Educ ation
ollston ecraft
M i
W atch
Ġp owered
Ġm isc
ĠM eyer
sp rey
Ġcon clusions
ari ate
Ġunder went
Ġprom ise
Ġtem ples
Ġfre estyle
harv ard
ĠAstron omy
ĠExpl orer
Ġaccomm odate
G ay
l arge
Ġ18 73
cont rolled
vir gin
Ġgr id
Ġstri kes
avor ite
D al
G uit
Z ero
s sf
Ġ ,
âĢĵ [[
In v
Ġsc r
Ġann ex
120 7
ĠPers pectives
ĠHam mer
Far land
omat oes
er ion
Ġ1 43
ĠM TV
Ġg ro
Ġcommand s
He art
ĠConf uc
ĠHard y
Ġvolunte ers
B and
g ust
s ized
ar u
ed i
ac ademia
Re uters
Ġlight s
ĠSym bol
ĠOs lo
Ġnucle us
N J
ist ocr
10 21
Ġg ust
12 17
ict ions
Ġinter active
leg es
cont ribution
Ġpositive ly
ali yah
Luc as
K ap
M innesota
Ġm igr
ct ica
Comm unity
Ġsubject ive
ĠMore over
Ġholid ay
g ross
Ġ lying
Ġf usion
Ġj ump
18 99
ĠCh al
ĠDis covery
agg ed
ĠDev ils
Ġsusp ected
Ġinvent ed
ĠSco ut
yth on
ĠRol ling
midd le
* <
f tp
ĠL uke
Ġle af
Ġar c
Ġlist ening
Ġshould er
pol ice
Ġdiss ipated
Ð ¼
ĠH at
ĠL etter
ĠJ udge
ome ga
ick et
ild a
let te
46 3
me thod
Ġ13 2
;"| [[
z bollah
Ġw arri
Ġm elt
ĠNorth west
Sec retary
G irl
L en
n ar
s olar
an atomy
ĠT amil
ĠC lo
ĠG rad
sf ord
ĠK ate
Ġch apel
my th
Ġ16 5
ĠLe ader
ĠEn ter
vest on
Ġphys ic
ĠRichard s
Ġautom ated
Ġpreced ing
Wel sh
orce ster
/ }}</
Ġl ung
ab ling
Ġ3 50
Ġoper as
ES T
Ġconstant ly
Ñģ ÑĤ
Ġmerg ed
C urtis
F al
S ant
S ex
b anks
em aker
ĠSc ale
En cyclop
Dun can
Ġparad ox
4 80
h im
v ari
Ġ ur
ĠS quad
ĠM aur
ip layer
Ġdo ors
48 3
omet rics
Ġdeterm ining
Ġsal v
Ġmemorial s
Joh ann
Bet ween
Ġdipl omatic
B T
M F
ĠA h
um en
Ġcom ics
ĠV el
Ġdev ast
Ġfund ed
Ġflow er
20150 9
Ġnatural ly
Ġcommemor ative
P lain
S iege
f aced
w ars
il ogy
ĠR ud
up per
97 5
rop ic
ĠAd vis
Ġcamp s
Ġhop es
ĠProgram ming
daily news
Ġscen ario
Ġaccomm od
% |
}} '''
ĠG ang
ge ant
15 00
sh ine
ne ver
Ġred esign
ĠVen ice
school s
F il
S exual
un ts
46 2
69 8
Ġent ries
Ġweek ly
ĠMet eorological
ened ict
Ġap artment
ĠRon ald
> âĪĴ
v ic
'' )<
ul ing
op sych
ĠĠĠĠĠĠĠĠ ĠĠĠĠĠĠĠĠĠĠĠ
ject ion
Le on
Ġconsist ently
Ġconsider ably
Ġtransform ed
Dar win
C ricinfo
j ar
s ay
ed o
ĠP owell
Ġg all
ĠD ub
qu antum
Ġsh aped
atal ie
Ġstrengthen ed
Ġcous in
ĠK am
Ġ18 83
ĠPro testant
Ġgener a
Ġaffect s
á» ĩ
, +
F isher
N i
P reston
R ace
S eries
Ġthe atrical
un iversal
ak h
con cur
St an
nt z
P oll
i ors
Ë Ĳ
le igh
ĠB altic
10 12
ear y
ĠV ic
eg al
old s
67 7
Ġ13 4
5 13
h ai
r ss
ro sc
Ġth reshold
eb ula
10 22
ĠD iffer
Ġpre tty
my thology
56 9
isc hen
g d
re ated
ĠS weet
ĠA thens
ĠC ort
ĠW ool
ĠN ap
Ġfunction ing
Ġwarn ed
CIT ER
N ancy
T itan
n id
Ġmain land
Pr int
Ġult imate
Pop ular
Ġhy brid
austral ia
il st
ig on
Ġg aining
Ġg entle
od ont
so hn
sh oot
-- >{{
Ġext ends
ounc ing
Ġtransport ed
ĠBudd hist
O cean
d iss
Ġ1 31
ĠM ing
Ġeng aging
rel igion
iritual ity
Ġevac uated
0 70
S co
c ampaign
c ambridge
and in
and ro
Ġc hem
ĠC ust
Ġst y
ĠJ erry
Re ed
Fran z
Ġreal ism
Know ledge
C ash
z ym
th ings
ĠP ound
sf er
ugh lin
ĠTh ames
ays ia
Ġaut umn
pop ulation
I E
l anc
Ġd ying
Ġh ip
ĠG Ã¶
Ġse ized
59 5
Le o
Ġbl ank
ĠPsych iatry
obi ographical
6 14
D iss
p adding
il ight
ĠC hester
ĠP hilosophical
ĠH ey
gram my
May a
Ġben ch
fac ulty
Ġshel ter
il us
atter y
ush rooms
single chart
Ġcompar able
Ġbelong ing
P earl
g art
h ouses
Ġ rivals
Ġt on
ĠC arr
Ġat tained
aut om
wik icite
Ġgener ations
ĠPh oenix
Ġchalleng ing
Ret urn
Ġposter ior
J P
u u
v als
Ġf raud
ch all
ĠI van
Ġpol y
comm and
ĠBul garian
Ġr ats
Ã© r
US D
Ġarch aeological
Ġmeaning ful
Ġrevol t
R ound
c ouncil
at ab
is exual
ĠB eyoncÃ©
ĠR if
Ġsp her
pl aces
ah u
ĠX II
ĠTran sform
ichol son
Atl anta
b rief
ar ound
Ġw ished
ĠS aints
ĠM other
ers c
Ġg aming
ern et
ĠMay or
do es
ĠEll iott
Ġpan els
Batt leship
Ġconj unction
H old
g rav
h ur
z omys
Ġh oles
Ġlo ved
ops is
orts mouth
Ġdeploy ment
ĠBa iley
Ġcoeffic ients
B road
M ick
M otor
k otaku
st ep
ĠT erry
ĠI P
od or
sp eech
act ivity
Ġsp here
ov ic
Ġ/> (
Ġinter mediate
Ġreg ulations
Ã¡ r
Ġweek end
Ġdom ains
ĠGram mar
M G
P ast
h oe
l ittle
p ox
Ġc inema
Ġad mir
Ġar ise
Ġdist ances
lot ter
Ġrelig ions
Ġcle ared
rig uez
Ġscholar ship
Read ing
R v
W ind
u en
le ading
ĠP orter
ĠF letcher
Ġsc ar
Ġme at
Ġlearn s
ĠMet al
sec urity
brit annica
Ġpropag anda
Guit ar
5 50
G azette
J enkins
Ġs ung
ĠL ords
ĠG ross
Ġ18 81
Ġrev ision
agon al
Ġdri ft
illing ham
ĠPers pective
Kore an
wreck s
7 50
S unday
w es
ing ing
ol ves
im ated
our cing
ĠJ e
Ġcomp ounds
ĠHe arts
46 4
mon ton
Ġpost s
Ġfac ulty
offic emo
Ġtravel s
Ñģ Ðº
Gib son
ĠIdent ity
officemo jo
Ġf lee
ĠS uz
ĠEn terprise
ĠTr ue
Ġprot ocol
IT A
nobel prize
B ryan
T erm
Â §
it ian
op old
Ġwh ilst
ast ed
ik s
18 00
Ġ18 68
Ġper ceptual
Ch annel
Ġsub stit
46 1
68 4
Ġdestroy ing
Ell iott
Ġhapp ens
N y
Ġc ites
Ġin complete
Ġ1 39
im us
ĠCh andler
ĠAn imal
Ġprov inces
talk s
Bob by
Ġsudden ly
D om
M ak
} ^{
á ĥ
Ġ| {{
ir p
el ope
ĠW ii
Ġ18 67
ann iversary
Ġcl usters
56 5
bit stream
Ġtele phone
ĠCraw ford
omencl ature
J uan
Y ellow
b ear
Ġf asc
as ma
ch ampionship
ĠA ber
ir able
el ibrary
ĠB loom
ess a
Ġas ide
ss es
ram er
ĠSh erman
ĠCon flict
Ġcarri es
Ġslow er
itud inal
ĠIss ues
ĠLic ense
Merc ury
m its
at oes
ĠW indsor
ord e
18 97
ern s
Ġ18 72
St reet
Ġlo aded
ĠWar fare
48 1
Ġser ver
Min ister
ĠUnder ground
Mem bers
ĠPrint ing
G O
k ernel
Ġb anned
Ġh itting
ĠA P
ĠT ol
ĠB anks
op olit
ĠY et
Ġco aches
68 8
Ġloc ally
ĠCo in
Ġobserv ers
open ing
hold ers
Ġdiff ers
Viet nam
s ent
ĠT ob
ot to
Ġl ad
te in
ĠCon cert
ĠMar qu
ĠPer cy
Ġinterpret ations
C lay
C ox
T okyo
Ġa stro
ap hor
od ium
und a
ĠY am
57 1
reg ister
Ġcor on
ĠArt ists
Ġsexual ity
ensor ship
. +
C raw
] âĢĵ
d ish
s ens
s ner
ig i
per formance
ris k
Char acter
Ġpit ched
Ġassign ment
ĠPrincip les
n ost
v id
ĠA ub
ĠF ellow
ĠL ithuan
les h
link s
rel igious
Ġmov ies
Sur v
Os lo
Ġweak ness
Ġsufficient ly
Ġven ues
U pper
m ma
p ard
ch rane
Ġn an
ĠS aw
ĠV ictory
Ġ18 69
vol can
Ġdiscuss ing
AD B
Ġlegisl ative
Gl enn
Ġmut ual
Ġpla que
Victor ian
0 60
4 33
c ongress
l ate
as b
ĠD ale
ĠD iamond
Ġr hythm
Ġk il
sh ould
Ġcomm enced
ĠGu atemala
Ġpar as
Ġcontem por
F i
Ġl ibraries
com ment
ĠIn sp
Ġ18 66
Ġmin i
load ed
wick et
Ġmix ture
ĠHend rix
h f
ĠS ter
Ġh ills
000 2
min or
Ġintro duce
Gr Ã¶ner
pin ion
ols hev
Ġwithd rawn
Ġcat hedral
Ġfast est
brit ies
names e
D in
V o
k ent
Ġc ort
am ination
ew ell
ĠP ierce
ĠB od
af ayette
Ġarri ves
Ġtarget ed
Ġrival ry
Ġpriv acy
ĠPatt on
ĠRey nolds
l ings
Ġs ear
Ġn am
ol ine
ad ic
Ġre bels
ot om
box officemojo
ny der
spe aking
L D
S weet
Ġp g
um my
end en
ĠV ery
ator ies
ograph s
Ġnorth ward
Ġreal istic
Ġearth quake
hetor ic
Ġrend ered
5 25
P ap
14 67
Ġclos ure
ĠEver glades
F ast
K y
T ucker
U M
ad vant
cl iff
Ġsm art
yrac use
Ġc emetery
ver ge
ik ovsky
ater al
cc ffff
ĠLe igh
min utes
Ġimp air
Ġcontract s
Ġautom ation
appro pri
Ġcompla ined
ĠJenn ings
K ate
R achel
d ad
g il
v ine
on ing
Ġf ires
ro bert
ĠM k
ĠM ental
ĠP ri
ru ff
Ġ18 79
urn ame
ĠMan a
ĠMcC artney
Liber al
A aron
F E
P rior
l ance
ar in
ed es
Ġb row
Ġto urs
Ġre jo
olog ic
66 6
ape ut
Ann apolis
Ġpurs ued
Batt les
Ġelimin ate
Rh odes
Ġcoll ision
ĠFlo rence
Ott oman
S hel
V irtual
y ellow
Ġt ension
ĠS uccess
ĠM ann
Ġst uff
Ġst ops
Ġst reak
ĠW ire
iv ier
oc io
Ar g
ĠAg riculture
M iles
ĠG ender
ae ont
itu ation
Ġaccept able
Ġcelebr ate
Ġtrave ling
Ġlic ensed
Y am
b ee
Ġf ert
ĠCh an
enn er
Ã© l
Ġgu arant
Ġins ight
Ġrecon c
End ers
0 40
w i
w ed
al ex
Ġm ouse
com be
ĠG oes
58 2
Ġart if
ĠHol ocaust
Ġpay ing
ĠMont ana
Bas ic
V ir
u ates
Ġn ose
ĠC ore
ĠR umble
ant as
ef er
ans ing
Ġdo zen
Ġnumber ed
ĠAt mospheric
gu y
ĠCar roll
Ġtrad ing
lav ic
run s
Ġang ry
Ġscreen play
Ġwitness es
Tem ple
M arg
U D
he et
ĠS inger
ĠT ar
ĠG P
Ġac o
Ġform ats
55 1
Ġsur ge
Con way
ront al
str ate
ES S
Ġhistor ically
Ġaut hentic
ĠForm er
Ġgrad uated
Ġsearch ing
u cestershire
ed ar
Ġ1 36
ĠW ander
ĠK an
Ġj ud
Ġlo ud
Ġy ard
ĠInd onesian
Ġgu idelines
Mc K
Ġspe eds
Ġtrack ing
merg ed
format num
ĠRob in
Ġcorrect ly
iti ative
B uffalo
D inosaur
N ap
R R
el tic
ut land
Ġar ose
Ġref ug
ĠAt las
On tario
Ġann ually
Ġportray al
Ġantic ipated
B entley
L ap
N etwork
ĠC ameron
ĠR ear
11 30
18 89
Ġper pet
ner y
adem ics
Ġsail ors
lades h
B us
an ian
ĠJ ourney
Ġrele g
ray er
Brit ney
uther ford
Ġtravell ing
Ġhier archy
Kir by
ĠAlexand ria
% ,
P ale
W ayne
Ġs izes
ĠB road
11 14
cl amation
ron s
aw k
2010 06
fe ed
Ġprison er
Ġb alls
Ġb orders
un ge
Ġth anks
ĠM ath
ĠI C
The ory
ĠNor wich
Ġjo ins
def ence
Ġsepar ately
ĠDev il
ĠCirc uit
Ġmir ror
Gard iner
r iller
er ious
ĠF ace
ĠV arious
Ġsub species
ĠAs hes
Ġdisc overs
scious ness
Cap ital
ĠChap man
oxford dnb
Ġbacter ia
M ars
P rize
S z
j s
r imin
at op
Ġh urt
ĠT itan
ĠH utton
art ments
ĠG raph
Ġse as
Ġro d
Al t
sm h
Ġqual ifying
ivor ous
Ġd ash
Ġm igration
ĠC rane
ĠG host
Ġsh adow
Ġjournal ists
Ġlast ing
Ġlo d
Mar io
Ġcaus al
ãģ ¨
ĠPh on
Do uble
Hol land
After math
Ġcivil ization
harv txt
Ġprec ision
Over view
Hend erson
0 80
O x
R oth
ĠA way
ment ation
ik en
ev al
leg acy
Ġmark ing
Eng ine
oz o
ĠAtt orney
Ġfacilit ate
C ov
S aturn
W ii
at hetic
Ġb inding
Ġm ax
res c
Ġj uven
ind ers
Ġfun ny
ĠCont ext
ĠAdv anced
Ġadvoc ated
dun no
ĠHeavy weight
H ad
f unction
oc on
ib ald
pl ates
Th under
Ġtri umph
run ning
Cyber bot
Ġec ological
Ġguid ance
8 15
Ġf ee
ĠD allas
ear ance
av ier
]]'' .{{
vent h
Ġless ons
ĠDr agon
Ġactiv ated
Mon thly
elect ronic
ĠCru z
lingu istics
ĠEisen hower
n ws
s ummer
Ġc able
Ġf ro
Ġp ale
Ġbe ars
ĠL amb
ĠY ale
news id
Ġfour teen
ãĥ ķ
Ġnever theless
Ġsw ord
ĠBar ber
Good man
official charts
Ġamb ass
ĠBeg inning
P V
b m
h off
t te
t ail
Î ¸
th yl
ĠC ab
ĠC arm
Ġpre st
ĠSp encer
Ġgen res
Ġdeliber ately
Child ren
Ġs ummit
11 13
oun s
18 80
ival ence
asc al
Te chnology
ĠSer bia
ĠBur ton
Ġliber al
Ġperce ive
ansk rit
W J
Ġf ame
ĠP riv
ĠW orth
11 12
by e
69 9
ced ing
Ġfin ance
eal ous
Med ical
Ġdocument ation
Ġcondition ing
ĠWrit ten
ĠInvest igation
Ġelder ly
Ġr ig
ast ered
Ġen orm
Ġacc laim
4 35
S tern
ar ck
le an
Ġto ured
ol ving
ĠG ene
up p
ra ven
Ġmon uments
ĠCr ime
Ġcloud s
P i
Ġin puts
ĠP ick
ĠB aldwin
ap pl
ud es
Ġhe mis
ĠRe id
Ġ15 8
Ġdisc ourse
Ġins ufficient
Ġflow n
Sup reme
Ġlay out
hab ilit
Ġfolk lore
Ġdub bed
Ġsoph istic
Ġin flict
Ġn oble
ĠC O
ĠC ong
el da
ĠM olecular
ob iology
ext ra
Ġag riculture
ou x
Ġab road
enth al
Ġcur ves
synt ax
F ictional
W V
c loud
m os
he e
Ġd ancing
ep hew
Ġsub stance
Ġob st
ling er
ĠCl imate
Ne al
20080 9
Ġansw ers
T ool
ly ph
ĠH ull
ĠH ubbard
Ġex port
ris ing
Ġterm inal
blog spot
Ph oenix
item ID
Ġattract ive
program s
havior al
ĠFre eway
ĠMain e
Ġassoci ate
C hester
P aper
n ie
as uring
ne cess
tr ade
aren cy
Mac millan
Rec ording
ĠLeg ends
Ġvirt ually
! ''
B ible
L ess
ĠH av
Ġ2 40
uc n
man y
Ġdist ribut
for um
ced es
roy er
umm ers
Ġins ign
ĠTra vel
Ġdisp uted
Ġemerg ence
Ġmar sh
Ty phoon
ĠOrig in
Ġpoison ing
" âĢĶ
J oy
p oll
å ı
ent ric
ĠG onz
ty p
Ġsur rendered
John ny
Ġback ed
Ġhand ed
Ġsol ved
ĠSal v
ĠBas ic
ĠHor ror
Ġo scill
ew all
Ġg ear
ong s
ran o
In stitute
pe ace
Sc ient
We ather
Ġtransl ations
Ġc urrency
Ġd iamond
ay e
11 22
av ailable
sh are
48 2
Ġreal m
ĠEm ily
ĠOriginal ly
Ġexpand ing
Ġaccompl ished
romag netic
4 36
H unter
P orter
X iv
s ociety
th ouse
Ġ( \
ĠW ave
ĠL anka
ex clusive
Ġ18 51
Pro duct
ĠMc K
Ġsee ks
ele ment
Ġmist ake
Ġconstitution al
4 60
I van
U tah
d ies
Ġc atalog
Ġb in
Ġ|| '''
87 8
ĠOver all
Ġblock ed
Aut o
ĠLyn ch
Ġtick ets
Ġintens ified
anche z
% ;"
T urn
] ",
ĠP DF
ĠD ynamics
ap ist
light s
Ed gar
Ġtrad ed
Ġsuff er
Ġcal endar
ĠPan thers
Ġbroad er
Ġtim ing
Ġcontribut ing
D ale
p ref
p arliament
Ġe mer
ich olls
Ġcomp ass
ĠRe ad
Con c
Ġinf ection
ĠUnder standing
Ġpriv ile
U lt
er et
am ette
'' {{'
az ar
ĠTem plate
L ook
re ys
ĠSt ruct
ob server
Ġpl ural
Ġpr ay
ung en
Ġcricket ers
gold en
auf man
3 42
B yr
G ene
U B
b aby
d readnought
le ader
ĠP ent
ĠJ amaica
oc ate
ĠV egas
eg er
Ġ15 7
Ġworld s
Ġadv ancing
ĠMon roe
Ġadapt ive
Ġcollect ing
Trans l
Ġelev ated
Ġsurpr ised
4 45
m ichigan
et ches
ĠL GBT
ĠV ert
18 95
ĠCom ic
ĠWar ning
inn ed
rop y
Ġ15 9
ĠAd ventures
69 6
ĠPl atform
Cl ub
ĠCap itol
ĠVol unte
Ġâ ī
Em ily
ibl io
rovers y
Ġflood ed
S ection
p ictured
Ġm yself
ĠB ron
ĠL ik
ĠSt ra
Ġinter ven
fl in
Con nell
Ġfre ight
Ġenter prise
AN D
sur v
ĠCard inals
clip se
Part y
Ġmill ions
Ġfung us
_- _
C arm
O ri
ip ients
Ġapp lies
Ġspec ulation
lev ant
Ġdr ain
Ġput s
hic le
ĠGib bs
Ġpossess ed
Ġrib bon
C os
p owered
is or
ch or
ra red
ĠCommission er
Ġflight s
Ġmach inery
Ġgram mar
spr inger
; =&
B omb
B roadcast
F riend
L ar
c arbon
p rivate
r ina
Ġto pped
Ġm ad
ĠS or
ĠM ik
cl ad
ft w
Ġup set
ĠSp ider
head ed
ĠNe ural
ĠSim ilar
ĠBl u
Ġparticip ant
Ġbar rel
Ġvisit or
Ġcreat ures
Jeff erson
Ġinher ited
ĠS alt
Ġth irteen
ĠM iguel
ag re
12 30
lin son
flag I
Tim eline
ĠEvent ually
K az
V M
a qu
m arch
o ids
Ġa ux
ĠM C
ĠB ibliography
Ġsh apes
Ġse ated
Ġk ills
Ġdist ricts
ym d
As ian
Ġpark ing
Ġinform al
ĠNative Title
hematic ian
Ġunve iled
p itch
r ained
al us
le ston
Ġp andemic
ber to
ĠF uller
op l
end um
ĠK nox
]]'' ),
ob serv
ĠCon way
Ġ15 6
Ġdifferent ly
ĠMe eting
jp eg
Dis ney
ĠBro ther
ĠAust en
jud ice
S alt
t itled
Ġs av
et r
Ġrem in
Ġmethod ology
ĠTra fford
ĠCorn ell
Tri ple
vare psilon
ĠM ick
lo id
ĠN eptune
11 36
Ġr iding
Ġen erg
49 1
Ġsur faces
Ste vens
Ġfore ground
She ffield
ordin ate
ĠStand ards
Brook lyn
Ġinstall ation
Week ly
5 10
8 17
Ġc odes
Ġc osm
Ġst ake
hen g
pr ising
rap p
pro per
ĠAt omic
ĠMar in
Ġconst ellation
Ġmag net
Wall ace
Constant ine
discip linary
O ry
l ccn
Ġt ends
ug a
est het
ĠSt op
ĠAr med
ĠMan or
ĠInter state
ĠDes ert
D iamond
N omination
a ic
s old
ĠA st
Ġsp elling
Ġcont rolling
Ġpres ervation
ronic les
Ġpredict ions
clesiast ical
H yd
i Tunes
lo ch
ĠF landers
if iers
Ġun ity
Ġsc al
tr ust
min istr
dep artment
Ġsil ence
Ġpure ly
Anal ysis
A ri
h ung
h anded
ĠS ri
ĠG ogh
ĠJ ung
res cent
act ing
ond o
ount ers
Ġdis band
Ġtr uck
Ġrec urring
ram ento
ys sey
appro x
Item id
4 39
5 26
r ade
on struction
at omic
Ġo dd
Ġd inner
ĠM all
Ġe ase
ri fic
ail and
ann ounce
2010 05
comp an
Ġfail s
Ġproject ion
ĠGl enn
fort un
ĠHung arian
Ġassert ed
Ġreinforce ments
5 23
C ob
l f
y y
Ġa ft
Ġin duction
ri ar
ond s
Ġ/> }}
Ġ18 74
other apy
af ric
Ġhel met
roll s
contin ental
CITER EF
L uke
T am
V III
r ors
an ical
Ġs lop
Ġb io
arch iver
ĠP ittsburgh
com fort
ip el
St argate
Ġar ous
me chan
Ġbattle cruisers
Ġneur on
aud i
Ġoccas ional
L ion
S om
h ler
al ach
ag ogue
lo ys
ĠAugust us
ĠWest minster
ĠÃ ī
Comm unication
urt le
Ġsens itivity
Ġathlet es
/ -
4 37
M aurice
m ix
Î ²
Ġt ended
'' .</
Ġ1 42
ĠA fghanistan
ut ral
em erg
ĠR ush
18 70
ph on
br ad
67 6
ĠAmeric as
Ġcenter ed
Sup ernatural
merc ially
Ġren ov
ĠDirect ory
IV E
D L
E ight
r uss
Ġg allery
ĠF at
ris bane
67 1
Con struction
Ġaut obiography
Ġarm ored
20120 9
Ġdiv orce
sound track
Ġhop ing
Cla ude
Ġreform s
pq archiver
O h
P F
in qu
}} ...
ĠL is
se lect
uc hed
ph an
ets u
ãģ «
astron omy
R u
r atic
Ġc ele
ch oice
el ic
com bat
ath a
ev sner
ĠMar x
gu ard
ĠStud ents
ĠTo o
Play ers
ĠFinal s
ĠSing h
ĠTur kish
Ġachieve ments
Environment al
Ġmolec ules
H urricanes
K ansas
c et
m f
m atters
z t
ĠF eb
ĠL ocation
Ġcont roller
Ġass ets
Ġfre ely
Ġfall acy
ĠWill is
Ġrul ers
aph ael
O F
k ind
u ctor
Ġf ed
13 15
Ġres olve
Ġpre lim
ah r
Ġpr ince
sup p
Ġfav ored
Ġdemon stration
Ġinstruct ed
Ġhous ed
Ġveter an
H as
M ik
Ġf ram
man ager
Ġacc idents
Ġmet re
Ġprop ulsion
Ġut ility
Mem orial
Louis iana
Gre ater
Ġspir its
M usical
g all
j et
th ought
ĠP ay
ĠN obel
Ġcont rary
ren don
ote chnology
ĠSh ould
edu ction
log ical
Ġpract ition
Ġestim ation
ĠCricket Archive
ĠTri ple
Ġaddress ing
ĠWrit ers
ĠBehavior al
Ġreson ance
F inn
M ol
is ited
Ġd ense
ĠC ourse
ĠP enguin
ĠD uchess
11 15
eng es
ĠRev ival
Ġsort ing
eyn man
) }}</
. '''
4 38
c losed
f ra
Ġc ave
ĠE cho
unt ed
Ġaut onomous
La ughlin
ĠHard ing
Rad ar
pq asb
Lind a
ĠSymp osium
7 14
B lake
F ringe
Ġt rapped
ĠB ottom
ĠR ivers
ĠK lein
red iff
Sp encer
Ġevent ual
Ġdiscip lines
Ġlingu istics
Ġundert aken
6 26
Ġa qu
eb ooks
ĠU ser
Ġr ub
18 91
med ical
Ġmet res
itu aries
Four th
Ġisol ation
Ġsoutheast ern
ipher al
D id
l ift
ch ina
ĠT ab
ĠH arm
ip zig
ry s
Ġ17 7
ps ible
Ġstr ange
:: :
A x
M aking
P od
T F
s it
Ġh ung
ĠA my
Ġth rown
ous se
Ġim posed
New man
ĠMar cus
ĠPl ate
urs ing
Ġconv icted
Hel en
ĠAsh ley
Ġnick el
M axim
b roadcast
ol ics
ĠR iley
Ġ'' "
ĠArch aeological
emb rance
Ġhon ours
Ġprevent ing
Ġdepos its
ĠRelations hip
g ray
ĠE valuation
Ġv acc
Ġdis lik
ĠPro b
ret z
Com plex
Ġprov isions
cy cling
Ġdraw s
Ġorchest ral
M agn
S in
V irgin
f ans
is man
Ġm ere
Ġh al
ĠR overs
ĠF acts
qu el
ov al
Ġk it
Ġ7 00
Ġla b
55 2
68 6
ugg le
press ure
Alex and
E sc
R ight
T oyota
i encing
l ich
l ifestyle
Ġd ign
ak o
18 88
sh am
Ġapp lying
new york
ĠCanad iens
ordin ates
ogen ic
Ġbatter ies
ĠMill ennium
Ott awa
Ġimprison ed
Ġ _
Ġt ent
Ġ1 49
ĠT erm
ĠM asters
ĠP it
ure v
12 22
Ġob serve
Ġcontin ent
ĠTr inity
Ġdem o
Ġsix teen
ãģ Ĺ
Br ill
Ġrenew ed
iag ara
b ons
v ault
Ġt ables
Ġm unicipal
ĠH ebrew
ĠW r
to uch
Ġcont ing
eg ie
Ġshe et
Ġrest ing
Ġaccompl ish
k ed
p one
ent omatoes
ĠS ev
um ich
ĠL oc
ĠTh an
co ach
Ġtest imony
Ġsyn chron
How ell
Rel igious
Ġcompar isons
Ġpain ter
Ġresc ued
Ġsac red
Cricket Archive
uce ster
h its
ĠT aft
ĠL arry
ĠSt arr
ĠSt ela
In te
Ġsc rap
Ġag rees
ĠHigh er
fig ures
Arm strong
effect ive
Ġdeleg ates
Ġloyal ty
rott entomatoes
c roft
Ġb ath
10 27
ĠJ ew
ĠE tty
ok u
18 93
ett es
ĠIs aac
All ied
Ġbatt ed
ĠArab ic
Ġorb its
6 37
C lo
L O
lo ff
ĠSt ro
Ġsup ers
Ġdec laration
Ã© g
58 4
Ġpoint ing
ĠMe asurement
Ġaffect ing
ĠQuest ion
alg ebra
ĠAchie vement
Ġnam ely
F act
L ag
ĠR ams
if iable
ĠK emp
co ol
ou tp
rel ations
ĠBy zant
Ġdepict ions
Ġgold en
Ġexam ine
Ġwaters hed
ucl ide
Astron omy
] }}</
im press
ep tic
ĠAd rian
Ġcor related
tt i
Ed s
ĠPer ception
Ġenc ounters
ws j
Em ma
sec ret
Ġeval uate
Ġcomprom ise
f uel
n ership
ĠS tern
11 16
Ġch apters
ĠV C
Ġdis pos
ĠCom pos
umb ria
Ġcl ergy
ari at
Ġback up
ĠUS S
Ġpresent ing
Ġmar ched
Ġguitar ist
iddles ex
H orner
N ar
s uff
Ġf ears
op ens
Ġsp ell
Ġob l
cd ots
Bl u
Ġgard ens
5 24
| \
Ġre located
ĠP rivate
18 87
ĠCh arlie
go als
ĠEn lightenment
Ġed ges
ĠÂ ±
Ġsens or
Ġprop ri
But ler
Ġaccompany ing
Ġjuris diction
F MT
S ab
c ats
20 2010
ĠJ udg
og o
ĠCh at
ĠComm unist
Ġmot if
Ġconcept ion
Tran sportation
A W
A st
P E
V erner
W ool
Y E
Ġs yl
Ġbe er
ĠE sc
az el
pro of
sv ille
amil iar
Corn ell
Ġrelie ved
M other
p ii
u itive
in Hg
it ism
Ġc ant
um ont
ĠF alk
hen d
Al ternative
arri e
Ġel ite
Ġbl amed
ĠGe offrey
mo or
Ġflag s
Ġintent ions
Ġcitizens hip
Ġinaug ural
Ġanalys es
p remier
form s
Ġla ugh
fl ix
68 9
Sc ript
Ġtra uma
Ġelect ro
top ics
Ġsw itched
ĠWork shop
het amine
Ġhapp iness
ĠIsrael i
Ġbelong ed
ĠAstro physical
rann osaur
O cc
b etter
f u
n omination
in former
es y
Ġw rest
ic ular
ĠM VP
Ġ2 10
Ġal phabet
erv ing
Ġdis appeared
ues day
Ġequ ilibrium
dis on
Ġcast ing
Ġgrad uate
Ġap olog
Ġcondem ned
0 26
re ements
Ġo wing
Ġ1 48
ĠB ru
ĠIn to
ĠCom ing
ific ant
ĠAss istant
Ġident ifies
ger ald
ĠIm port
open hagen
Cent re
ĠEconom y
Ġmyst ery
ĠEur opa
ĠRap ids
R io
a fer
d riving
m ember
ar ina
it he
ot ter
ĠR ic
if ference
vi o
Ġ18 12
vert ical
oss ip
sports illustrated
Ġdraft ed
Ġw ake
Ġin vention
am os
res ource
Ġan atomy
In s
ach i
Ġ18 3
Ġover la
ollow ay
colla psed
Ġabsor bed
Ġash ore
A re
ĠS i
ĠT u
ĠM i
ĠH ood
ĠD y
Ġst atic
Ġ16 9
af ka
Ġhand led
ux e
Ġfarm ers
ĠVi enna
Foot notes
% )
J essica
N H
N uclear
in yl
ĠV eter
15 23
Ġrel ied
ĠHel en
cop y
D anny
H em
M W
M ember
W agner
ur us
ĠS eymour
Ġh arbour
10 13
vi i
oot s
Ġ15 1
88 8
Ad elaide
fess ion
Ġarch ae
As ia
Ġtro op
ĠDef inition
reck in
xim ity
H ir
f d
| Â°
er i
ĠE lement
ĠK ane
ik er
Ġpublic ity
Ġfe athers
Ġpropos ition
Ġdial ect
unc iation
ĠAud io
ĠEmerg ency
D wAAQBAJ
P red
Ġm erc
ot eric
200 40
Ġ2 35
est inian
ĠTh inking
ll en
ĠAr senal
ĠIs le
comm unications
mat ical
ĠPop ulation
stud ies
lew ine
" ]]
4 97
C BC
D erek
F ood
G amma
V ID
m ens
ar re
Ġp in
ve c
Ġh azard
ĠP oss
ĠG iven
per n
Or ange
Ã¡ s
ĠMin neapolis
Ġdi ary
Ġopt imal
ĠFa ith
nc f
AQ AA
ĠDod gers
H orse
c old
l g
ar se
ĠT ucker
ĠC apt
ĠI Q
10 97
ĠG ates
.. ."
Ġrock et
Ġconsum ers
Ã¦ dia
Ġrevolution ary
tit les
Ġrecommend ations
á»ĩ m
is dom
ver di
ĠW ine
Ġal located
ĠAr men
ĠMem ber
pol y
Ġsens ors
roc od
develop ed
Ġvic inity
Î º
Ġp or
ĠS ig
ĠT ibet
ĠB eng
ĠR NA
ĠW ollstonecraft
Ġ{{ =}}
ĠK enn
rap hy
Ġen zyme
Christ mas
Ġjudg ed
Ġemb arked
Ġpreced ed
Ġtow ers
5 30
R G
a els
Ġf irms
ĠA y
ig ible
ĠM iles
Ġhe ights
ĠZ hang
Dis covery
Ġaddress es
ĠGood man
Simpson s
pound er
E FCFFF
k le
m ars
m arriage
th inking
im db
ĠN OT
if flin
Ġreg iments
by then
nes day
Ġmur dered
ĠFre eman
Ġstream s
Ġcarv ed
bythen umbers
B eyoncÃ©
m ah
r ide
ar ine
Ġin comp
ir ate
ĠP ierre
ĠTh orn
ix el
Ġread ily
Ġmass acre
mult i
Ġdu o
Swed ish
ĠÄ Ĳ
L em
Ġb arb
Ġin verse
ĠS ett
Ġe gg
ĠH astings
ap on
Ġan throp
12 13
son ic
Ġwork er
Ġinter vals
Ġ16 4
ĠZ oo
Ġcapt uring
Fran Ã§ois
Ġkill er
unn els
Ġcorrespond s
ĠJeff rey
Direct or
Ur ban
Ġprofession als
biodiversity library
B ir
c aus
h ighest
t rip
Ã ½
Ġf abric
Ġm ud
ĠS id
ĠT act
Ġpro l
ĠĠĠĠĠĠĠĠ ĠĠĠĠĠĠĠĠĠĠĠĠ
br on
ĠSh ar
Ġlight er
Ship s
Co in
Ġconduct or
ĠRom ans
Ġvirt ue
Ġinduct ed
, &
D allas
M atch
a er
ĠN am
ip eline
ast on
ell es
ell ations
18 92
Ġind uced
Ġpe ers
Ġrequ ests
Mon te
ĠMy th
cha ikovsky
ĠUlt imate
Ġrout ine
P rice
h ub
Ġc oding
ĠMin ogue
ĠDel aware
ĠMil an
Ġlaunch ing
olut ely
" </
B aby
G wen
d avis
Ġ )
Ġa er
Ġs ampling
Ġp ac
ĠB orn
ĠF ab
St eph
my cology
ograp hed
Ġ16 7
Ġmet als
gr id
sw ick
ĠInter pret
par ade
eur opa
Ġparliament ary
Ġhippocamp us
T ang
t arget
Ð ¹
Ġe cho
ĠH IV
sp ell
rit on
=== ''
Ġ15 2
lang le
emb ley
Def ault
Ġassess ed
Ty ler
Ġb arrier
om eter
ro ph
ĠC amb
all i
og ames
ill us
ra ught
Ġde ities
18 09
co e
ob il
ann ounces
Ġ16 3
ai ro
Qu arter
ĠGr ade
Gu adalcanal
ĠCons ervative
Ġles bian
Ġoverwhel ming
M it
N ine
S occer
g or
Ä ĵ
Ġd iving
ut sche
The odore
ru k
ĠV irtual
ĠCh air
Ġ18 5
list en
Ġir regular
Ġsing ers
Ġrecru ited
Ġreluct ant
R ihanna
S to
d j
g p
on ely
ĠT un
ly sses
Ġst eal
ant imes
Ġcomp are
Ġpres um
Ġorgan ic
Ġmass es
ĠSur rey
Ġver b
Ġbow ler
NHL E
I o
L GBT
P in
b ible
Ġre lax
ĠM anuel
Ġ19 5
last ic
Ġ2 30
ĠIn former
ib les
air force
Ġemphas ized
Ġcho osing
NE WS
Ġgather ing
B eyond
M ul
ĠT it
el i
ag ne
10 50
ĠD ame
Ġexp ense
66 5
tv guide
Ġgener ating
Ġfoot notes
scienced irect
B od
L ed
P remier
n ine
ĠB acon
Ġsp ouse
Ġair date
ĠWhit ney
conn ected
ĠFil ip
C arr
F ischer
a un
p ink
v key
in ic
Ġre porter
ĠG h
Ġ19 0
end ance
sc ene
ins ider
tr aining
ĠSe an
Ġocc urrence
rel iable
tv bythenumbers
Ġplan es
Ġthreat ening
Int el
Ġflo at
ĠHaw k
ĠGard ner
ĠBudd hism
Ġceremon ies
Ġaccord ance
F ab
c ussion
Ġre duces
ĠB illy
ĠD elta
up ert
ĠIn vent
18 85
2008 12
Ġship ped
ĠSk inner
ĠMaj esty
Ġdiscontin ued
8 12
È Ļ
ur ious
om acy
as il
et itive
lo ut
ĠP on
ĠN ashville
ec o
Ġex terior
18 94
Ġpre t
Ġ17 2
Ġfound ations
Ġdel ays
ĠCare er
FM TS
Ġdoct ors
K ra
s inger
ur able
la ch
ct uary
ĠM om
ĠB erry
Ġdef ences
Ġtrans it
Pr imary
ĠInter est
Pol ygon
equ ivalent
ĠWin chester
Rey nolds
Ġenforce ment
Ġprelim inary
K yle
K epler
v or
st ial
it as
]] ?}}
ur istic
Ġ= "
ĠT as
Ġst ern
ĠN umism
Ġr ice
Ġk in
Ġ16 8
Ġpres idency
Ġav g
agg ie
Pol and
iling ual
Fore st
Ġmort ality
Ġexclud ed
reckin ridge
B ren
B lair
H ero
Ñ ĭ
Ġt rends
ĠS ays
ig nb
ĠM ead
Ġst abil
ĠN oble
ĠE instein
ĠV ent
978 14
Th omson
ox ic
Ġperform ers
Ġpres c
Sen ate
Ġveget ation
R CD
Ġm ild
ord ered
Ġch im
Ġun aware
Ġview er
Ġcanc eled
F arr
P B
p rec
t ribune
ĠS yl
ĠR ather
ĠH undred
ow ing
Ġplay off
ĠCol labor
Ġemp athy
Ġconn ects
Ð° Ð½
ĠOcean ic
Ġincorpor ate
F DA
s ister
u los
ĠS C
ĠC aus
ĠD awn
âĢ ²
ĠW id
iv ariate
Ġcom mercially
Ġoper ates
Ġtask ed
cal c
Ġstim ulation
Ġgrav itational
Ġmanuscript s
ĠLou ise
ĠCompar ative
5 28
A ur
g ie
u ine
Ġrel ates
Ġmod ifications
Ġ' [[
Ġdesign ers
Ġbreed s
Ġgrand father
Effect s
S now
[ \
h ole
Ġs ang
ĠH umph
our ced
Ġ18 15
Ġpre cis
56 3
ivid ed
Ġgener ic
bas ic
R PM
a edia
g eneration
v otes
ĠP ole
18 58
br ight
Ġ18 54
Ġ17 6
Ġ15 3
str ing
ĠTim or
f leet
p ad
Ð ³
20 30
Ġf le
il ience
id ian
ĠB etter
ĠK os
Ġch rom
Ġrel ate
ĠAm azon
gen us
with out
Ġwid ow
Ġrepe at
Ġce iling
ftw affe
6 13
7 32
D ub
P ath
d ul
t akes
ĠD etails
Ġsp r
Ġatt ribute
Ġ17 9
atic an
Ġequ ality
ĠBy rne
AR CH
ĠDo ubt
ĠGe ographic
Ġdri ves
Int ro
Ġprem ises
Ġmemb rane
B our
b by
w ulf
Ġin scriptions
'' ===
Ġm ail
ess ing
ia o
Ġex ile
ile o
ern ova
Ġper ceptions
ick en
Ġen ables
Ġen larg
Ġmod ification
Ġspec ulated
Ġorgan isations
Ġintro ducing
Ġrev ived
ĠBlack well
Ġopt ical
Ġmaintain s
Ġcoordin ate
icht e
Ob ject
Ġmist aken
Y u
b ett
| /
ĠC ran
yst iq
ĠSh ore
Al pha
ĠEx change
Ġra w
Ġspe eches
5 60
H ab
b w
es is
ĠI pswich
ĠR ule
ov es
ark y
ob l
anc ers
ier i
Ġatt achment
ĠPro blems
ĠCon sequently
Ġaccess date
be it
88 7
ĠBe a
app iness
ĠPresident ial
Ġbomb ardment
riz es
ĠWell ington
8 16
j ee
ĠT ed
ĠC ad
ad get
ers p
Ġon wards
ĠN an
ĠJ ose
Ġpro sper
Ġde ity
Ġres ur
Ġ15 4
vel ation
ugg ed
ĠMc Donald
ĠBo oth
pat rick
Ġdepend ence
Ġpron ounced
W at
j ay
x ide
ĠM amm
Ġ|| {{
Ġkn ocked
Ġsub merged
ĠFran ces
ĠAnn apolis
ĠRoman ian
chem ical
Ġgal axy
Ġvertebra e
Ġaco ustic
n pr
ĠR achel
ĠH MS
os o
ĠL P
ec d
ov anni
aw i
Ġne arest
min ent
ĠMan ager
Le an
Ġresearch er
Col onel
ĠTour nament
Ġut ter
R ice
W C
un iversity
ĠP ale
ĠI celand
ĠH il
ĠD ies
ĠL an
op pl
Ġpro spect
Ġit er
ĠV ir
Ġad vent
Ġlo be
Ġunder go
Sc ar
Ġph ases
Ġorgan ism
err ill
ĠOff ensive
ĠMcC arthy
Ġflo ur
Ġflu or
Ġthick ness
Ġdemocr atic
C ase
P ra
Ġ @
Ġc attle
th ard
ĠC H
ap ol
ĠF errari
Ġcon spiracy
iz ers
Ġref lection
ĠHer oes
omb ia
mir ror
Jul ia
bold symbol
S ah
f lood
g lobe
æ Ĺ
ĠM I
ĠW augh
ath us
orm ick
net ics
On ce
ĠPar ish
Ġdisp utes
ĠAust ro
P osition
T ab
n orm
t ics
u w
st ellar
ĠW ald
co x
laim s
Ġport al
Ġcomment ators
mem orial
Ġbenef icial
ĠDesc ription
ĠDise ase
C rown
T ampa
st een
ar ith
ĠT ex
ĠC incinnati
im on
ĠE agles
Ġqu arters
"> ''
Ind ustrial
Ġgener als
ingu istic
ĠMad rid
ĠTom atoes
ĠFin ancial
crit ics
R otten
le af
Ġn ove
ĠD ifferent
Ġwh er
Ġcons ent
Ġinf ant
Nor folk
Ġflo ating
sl ide
Ġcur ved
Ġrom ance
Ġarbit rary
ĠFrame work
P ilot
a ffect
Ġc ue
Ġc ertification
}} "
ĠD orset
ĠCh ad
artic ular
ĠAl ban
ros so
Ġhon ors
andid ate
mag ic
Ġadvant ages
Cons ervative
K ur
R id
W restle
l if
al an
ic ent
Ġf ib
ĠP R
ĠH ost
11 86
ass o
ib m
pro files
right arrow
35 14
inc rease
ĠCol lect
Ed win
Ġbl ame
Ġaud ition
Ġtour ists
ĠDec laration
Ag AAQBAJ
ĠOregon ian
pers eus
ĠOpp enheimer
Ġc os
Ġb last
ĠN ancy
ĠE ye
Ġwh ale
Ġcomp act
view er
ts n
cc entric
ĠCal gary
Ġdr unk
Web ster
Ġtw entieth
Ġachie ving
rep ren
ĠJane iro
5 29
M ission
t age
in vent
Ġc ounsel
ĠN ebraska
ĠL as
und y
Ġ16 2
sub ject
leg iate
Met al
sm art
Brit ain
Ġcour age
crit ical
Ġhousehold s
ĠRat ings
6 25
O scar
l ip
q a
w aters
Ġs weet
Ġin accur
Ġd ive
ĠM ong
eb ert
ĠB es
se q
ĠK om
ass y
Ġ17 1
upt a
open ed
och ond
Ã¡n dez
ubled ay
Ġexem pl
Ġprecis ely
& _
8 48
G host
l r
å Ń
or ah
ed By
Ġf inger
Ġ( [
ĠR ib
up load
Ġ2 25
Ġ18 57
Ġ18 59
ade th
Ġatt ribution
Ġmin isters
Ġele phant
Ġactiv ists
ĠUp date
Ġaccident ally
Ġwitness ed
ĠTransl ation
K lein
er als
on en
ĠB h
10 24
Ġst amp
oc hemistry
und le
Ġpar agraph
raw ing
Ġcond itional
Ġmean ings
Ġfail ures
cel ona
Ġmultip layer
ĠOtt awa
B log
S ig
f rank
st a
ĠP reston
Ġal ert
ĠK il
''' {{
ĠRe ich
Ġprocess ed
Ad venture
mat ches
Ġneur oscience
just ice
scend ental
RCD IG
E ugene
G ross
S oph
l ash
Ġc as
ol utions
ĠH ear
10 25
op hy
ack ett
ind ustrial
the atre
Ġro ws
All an
Jo el
ĠBob by
Ba iley
ĠMun ich
ĠAstro physics
>' </
7 30
N N
p aid
er ich
ĠS r
ĠM is
ĠCh ase
con cert
68 5
ĠCol in
Re views
NA L
Ġparticip ating
Ġconv ince
Ġbal lot
ĠEll en
Ġswe ep
L AT
S oci
Y ang
Ġthe ology
Ġin line
ac ional
ad vert
ĠB aptist
ĠK in
so ul
int age
arl ane
Ġacc us
me et
ĠAm sterdam
Ġge ograph
tri ple
omorph ic
Ġassass ination
' )
8 14
M atters
U I
it Hub
us hes
um ing
ĠH ous
ĠK id
Ġreg ards
Ġteam mate
Ġdisc rete
umm ond
Ġeditor ial
rank ed
Char lotte
Miss ouri
Ġcaref ully
ĠDak ota
0 27
th reat
ĠL ebanon
bn er
Ġdep uty
ĠEd mund
Ġprom otional
Tr inity
ĠDr ug
Ġapprox imation
Fre eman
Jos Ã©
Ġspons ored
ĠOcc up
Ġenorm ous
K os
g ren
h ous
k ers
m ast
s qu
y ne
Ġto ugh
ig hed
ĠP lot
ĠR ules
ap o
ĠG A
op f
Ġcomp atible
Ġspec ification
los ing
ĠDo ug
Ġinvestig ations
anger ous
Ġexpress ing
ĠGree ks
E b
l ace
o aks
t n
Ġc ad
ch ronicle
ĠC T
ĠB ears
com position
ud or
stat istical
97 1
pl anning
ah an
Ġint act
Con ference
Bu ild
deg ree
ĠChamber lain
abol ism
ĠAdvis ory
B reak
D O
Ġf er
Ġin hibition
ear ce
Ġex agger
ib ration
ĠCom pton
ological ly
Ġgu ided
Ġpost hum
Ġcomb ine
Ġposition ed
ĠTest ing
ĠJust in
ĠField s
lett ers
Res ident
Rev olution
Mur phy
ĠDen ver
Ġmob il
V erm
d inosaur
f ame
Ã ¯
ĠS entinel
Ġh dl
ĠA S
ĠC ave
ig ator
=" {{
ĠD J
ĠE mer
ab o
Ġjournal s
Ġkn ee
ever e
ãĤ ¸
ĠPal my
Ġbroad ly
Ġpitch er
Fore ign
ĠSteven son
Ġscen arios
ĠBattleship s
Ġwher eby
8 98
C ant
S ad
ar is
Ġst ance
Ġst olen
az ards
eg g
pro f
oy ager
Ġreal ize
Ġdeb ris
Ste am
product ive
ĠCla ud
document ation
prob ability
5 35
B ah
K ol
v ice
re volution
ĠN i
18 50
co up
ier o
pos itive
Mc N
Ġless er
mat hematical
Ġhypothes es
ĠAdd itional
ĠCa esar
Ġsatisf action
ĠMax well
Ġpregn ant
D J
P el
on ential
im son
ĠD id
80 20
Ġlo ose
ĠSc ene
Ġcor ruption
ãģ Ł
Ġreason able
Ġmiss iles
agu ar
ĠEss ential
Ġsettle ments
Ġau ction
Alb any
repren eur
H erm
I car
V ert
e as
l ian
| <!--
he ed
em ini
ĠG othic
Ġcon gregation
Ġle mur
ĠUn its
Ġsuccess ive
gr ass
hon or
Hy per
ĠScot ia
B ud
C elebr
st ri
ĠT O
ĠT error
Ġg lob
18 78
Ġ18 7
Ġ18 49
Ġexper iencing
Ġtrans mitted
worth y
Ġhar vest
Ġschem es
? _
P att
R at
k W
al though
Ġa xi
ĠM ifflin
Ġg ates
oc co
12 24
enn es
ĠRec ent
Ġposs ibilities
ours elf
Ġcompet itions
Ġalt itude
Ġimpact s
>" [
emin ist
H ide
p lot
Ð ·
á ¼
la ine
ĠP i
ĠCom mentary
Ġla va
Ġ16 1
tr ump
77 7
ny dailynews
Ġlaw yers
Ġsent enced
ĠRob son
ĠRh ine
uns igned
Ġprepar ations
ĠAlternative ly
Ġrevers ed
5 33
B roadway
N iger
ĠN as
2010 08
Ġdef ault
Ġ16 6
ĠMark eting
Ġexplan ations
Ul tr
ĠBuck ingham
tu fts
4 90
s am
ç Ķ
}} {
us eb
ist ice
ĠN ielsen
ill man
ĠSt ream
ne eds
ĠInd igenous
68 2
dis ney
Qu antum
pol icy
Bar low
word press
ĠQuest ions
Ġcontinuous ly
success ion
Econom ic
Ġod ds
L ic
Q L
d emocr
m ul
ĠA CM
ĠT all
ĠP ul
ist emic
ĠO NE
pp ard
are as
low s
to ol
ĠCom merce
Ġtr unk
Ġrep ly
fr id
que en
Ġins urance
Ġesc orted
ĠEth iop
ĠTor res
ĠAdmiral ty
Ġconvent ions
Lead er
ucc ane
: -
I ran
M ich
Ġs ap
ing ers
Ġp lag
ĠT akes
man ac
game informer
Ġseem ingly
ĠDist ribution
ĠAndrew s
ĠJul ian
Log ic
Cour ier
aci Ã³n
8 13
B ab
en h
Ġw ww
Ġb arr
ol ation
ec ology
11 28
In it
Ġar xiv
Ġdec isive
Ġvari eties
ĠCar penter
110 7
Phys Rev
Ġsil ent
atell ites
care er
Mag ic
Episode Number
Ġmane uvers
8 57
D AT
K O
M ort
c net
ĠG iro
og el
land mark
int ers
Ġco aching
Ġdep ress
ott a
ĠCol or
Ã¶ m
Sm ackDown
) -
C G
C up
ur bs
Ġf la
Ġin ability
ĠR ihanna
ug er
ĠIn deed
ĠTh reat
Ġen abling
Ġout standing
Ġconclud es
Dis play
Ġcalc ulations
foot bl
Ġresign ation
1 200
F ungi
Ġa viation
is ans
Ġd ictionary
ĠM atter
ĠM anga
com ed
ĠL ions
ĠG abriel
ik al
atch er
Ġfin est
met eorology
Ġconsist ency
Ġround ed
Ġavoid ing
Ġbats men
Ġflex ible
Ġplast icity
Ġcompens ation
ĠAssoci ates
C and
P ul
l iverpool
n ative
is al
us sy
ot ive
ĠB elt
ber ht
ĠL aura
97 3
times online
ĠApp lication
Ġbattle field
ĠRail ways
Ġche ss
Ġevac uation
Even ing
B ark
H arm
I raq
Ġc arn
Ġre production
ĠP osition
11 23
Ġr ally
ĠK ath
97 2
Ġres emble
ĠLe icester
Ġfront al
Ġmag ical
hand book
ĠAb raham
Ġtransform ations
ĠDi á»ĩm
Ġep ic
ĠChe ss
Ġemb arrass
nom inees
dist rict
Bu ilding
Ġpredomin antly
Ġreven ge
apeut ic
H ong
L M
P rivate
W ire
k c
å Ľ
ed in
Ġh ide
ir ie
ĠM ol
ul ent
ĠR isk
ĠSt ats
11 27
its ch
ãĥ ī
Ġdr ummer
ĠSen ators
Ġinterview ed
Ġheav ier
Ġfavour ite
ĠYugos lav
Ġexcess ive
Ġanalyz ed
G PT
S ay
T ar
o cean
Ġt um
10 20
ĠL arkin
ĠG ilm
ant z
ĠV ik
oul thard
enc ia
Ġdis rupt
rel la
raw l
ĠWe apons
Car penter
cr unch
Ġpath way
Ã± o
Ġcompris ing
B eth
F W
F ish
T B
e ch
Ġn ice
ĠA boriginal
ĠH ann
ĠD ri
ĠF erguson
oc ide
end y
arri et
Ġdeterm ination
ĠGreen wood
Ð° ÑĢ
Ġprivate ly
Ġsatisf ied
_ .
in os
ĠC ock
ĠC ope
ĠB alk
ĠR andom
ill ar
ĠHe ath
nel ly
Ġprogress ed
Ġgovern ing
ĠEpisode Number
Ġmel ody
ĠHen ri
Ġade quate
ativ istic
. '',
L arge
g h
w restle
Ñ ı
al ternative
Ġw ears
op ot
Ġpro ximity
Ġj oy
Ġinter ventions
Ġbr illiant
Ġgu y
Ġpo verty
ãĤ ¿
Ġport raits
Ġlack s
Ġmanip ulation
Ġst aged
Ġas p
Ġpos ed
ĠSh arp
--> |
ĠTr acks
ĠPol y
Ġobserv ing
mit ter
orped oes
batt ing
Fin land
Ġturb ine
charg ed
" .</
= Â§
G h
w indows
ur se
ĠA x
Ġre bound
ĠD rake
ĠN apoleon
ĠJ ennifer
ĠThe odore
all ic
ust ed
Ġch ances
57 3
sub marine
osp itals
Smith sonian
Ġrefer enced
Mont gomery
Rand all
Compar ison
V el
d ock
t el
Ġw ishes
Ġd ens
ac chi
ĠA CC
10 28
Ġpro ceedings
ass au
Ġar istocr
rib es
Ġpe aking
Le od
Ġcomb ining
ĠHistor ian
Co ord
ĠGra ves
Ġcompla ints
f ocus
g AAQBAJ
le z
ia z
Ġ18 58
ject ed
aw s
Ġsub stitute
ĠPark way
aut og
ĠSch neider
Ġdraw ings
ĠLind a
Jacob s
fil ename
ĠSuff olk
? "<
g it
w olf
Ġt ang
ir s
Ġst ats
ng th
ĠCom et
ope z
Ġunder water
Th ough
Ġdist ress
ĠComp etition
ĠMan son
Ne ed
Ġsm oking
Ġsm allest
Ġdeep er
Ġphr ases
TW C
ĠFeat ure
armac ology
ĠUran us
Ory zomys
U sing
b h
o que
in wall
ĠS aid
un its
ĠA f
Ġth read
ĠE lection
Ġr ab
bo e
Ġad olesc
ict s
ron ts
ors al
ans i
ank ee
Al so
Ġstr ings
87 9
ĠPl ants
Ġgen ius
ĠLeg ion
ĠTra ffic
Ġsch olarly
rip es
in herit
Ġb read
th ood
ĠW essex
New castle
uss er
ĠShe ffield
apt or
Ġsec ular
tra k
Cont rol
Ġcust oms
Ġer os
Class ic
Den is
flight global
reve als
an ist
Ġm ate
ter min
ha al
bl ad
Ġnumer ical
ĠDev on
Ġadmin istered
Person ality
owder finger
Ġstead ily
n ear
ra x
Ġdevelop s
59 1
77 9
Ed die
Te legraph
ĠYou Tube
ĠClass ification
Ġcit izen
Ġcompris ed
ophys ical
imp act
H il
M R
b arb
s ets
an or
ĠM ale
ĠI D
ĠD j
ĠN ar
op ol
ĠK yle
pe z
Ġ17 4
66 1
Ex amples
ĠÂ §
Ġlabel ed
Ġtact ical
Ġsurpr ising
Inc rease
8 44
D over
F ifth
R us
Ġ 9780
or ers
ion ed
ĠS ah
ĠC ancer
Ġl ifestyle
Ġch at
Ġpar ody
war z
Car los
Mon ey
ĠMD OT
Ġtim ber
Ġadvoc ate
A ircraft
H i
S i
S yl
c ong
h ath
ed ly
Ġb ishops
eb erg
cess ors
Ġcon form
bo ot
Ġsp ite
form ula
ĠIs les
20110 60
Man ia
Ġadapt ations
ĠEle ments
planet ary
Prom etheus
) =
A ID
H astings
s olid
Ñ Į
Ġ org
in as
Ġf reed
iv ist
ign e
Ġde leted
pl acement
ĠCl ifford
Ġorgan ize
Ph Rv
Pe ak
Brad ford
ĠWhe eler
apole onic
cart ography
4 19
6 29
B rett
B ureau
I B
c w
k l
m oral
n n
w ould
ĠD ew
ĠJ udaism
con stitution
journal ist
98 1
sequ ent
ĠIndian apolis
rect ed
hyth mic
haw ks
GN U
Ġforg otten
ĠAlb any
Ġstrict ly
P ic
R uth
T ake
b ing
Ġt om
or ie
ch ard
Ġh ook
lo on
ĠP as
art y
if ton
oc y
ĠK eep
are well
ph is
sh irt
Ġ18 56
eg o
Ġdis abled
Ġdis charge
ood y
Ar senal
ful ness
inter est
gen re
DF DF
uther land
cop al
6 10
6 22
T Y
b id
| *
Å Ľ
re ational
Ġa wa
am on
ĠF an
ĠL ines
ĠThe me
Ġat op
18 84
16 00
ĠDo uble
Ġnom inal
tit el
Ã¶n ig
8 60
E rnst
F und
L und
W ells
s end
is ler
Ġp ig
Ġth rowing
Ġl aser
ĠF ol
ab olic
right s
Ġany where
rey er
urren ts
Ġlength y
mond s
ĠHon our
chem istry
ĠJul iet
Ġperman ently
brow se
fol io
A Z
K it
al la
Ġo ct
Ġs ugar
ĠC urtis
arch ical
Ġde alt
18 77
ke let
til la
Ġdam aging
ĠEm ma
Game Spy
Ġden otes
Sil ent
F ly
F antasy
K S
b ots
y re
z ke
Ġ ?
Ġa ster
Ġp atch
ĠS emin
ĠC het
ĠB ec
ri ka
tern ate
Ġmon archy
ĠCar los
Ġdr ill
sur face
ĠDun can
Ġsubstant ially
Anton io
6 30
T ol
W esley
m ary
t am
Î ·
ore n
Ġex ec
Ġcomp utation
Ġ18 2
Ġob s
Ġman if
ald i
Ġcould n
af i
atter ing
Ġpar ade
Ġproject ed
Ġtreat ments
Mod el
ĠCy ber
Ġconsequ ently
Ġinnov ative
Care er
ĠInnov ation
B j
C lin
H ur
N F
S oul
S uz
ĠB rock
ĠD over
Ġj azz
ĠPress ure
ĠRe ader
Ġship wrecks
Ġair field
Ġsent iment
dr ug
Ġdomin ance
ĠSol o
Ġmor ality
appropri ate
J et
in idad
en os
Ġn erve
ĠF ast
op ath
per ry
18 07
St ro
." ]
2019 04
ĠCo ach
aly pt
ĠDam age
pan ic
ĠCorn wall
Ġsurve illance
martph one
D ow
G raph
L etter
N ET
b ros
n ab
ĠA bu
em atsu
ĠF ear
ish a
op ing
Ġ2 15
ĠIn g
ĠIn stit
12 25
Ġres erved
elf th
Ġlink ing
ara oh
Ġcreat ure
Ġgraph ic
ahn eman
Ġinsect s
Ġdislik ed
3 000
C red
g iant
h aul
m itting
z u
Ġp ine
Ġin ade
ac z
Ġg reet
ĠW atts
qu ant
ex ecutive
Ġk ids
dead line
Ġed s
yl on
Ġcr ashed
dec ision
ĠWeb ster
Ġchampionship s
Hard y
Ġperfect ly
Care y
Ġveter ans
Ġdro pping
Ġambig uous
Ġhelic opter
8 22
d rama
ĠC ry
ly mouth
ĠF ind
ĠL inn
est ion
ĠIn itiative
Ġ18 6
ism arck
Ġrel ies
ari etal
Ã© m
56 4
val id
ĠEd gar
Pol y
Form ula
bat man
ĠLight ning
Ġastron omy
Liber ty
Ġped est
irp itz
syntax highlight
retz ky
6 28
K aren
V S
c ook
j ord
m orph
Ġare na
Ġinter fer
Ġqu ot
ery l
leg isl
Mar itime
Ġprim itive
Ġep it
Ġsum mon
Gl en
Fl ash
wr ite
B ush
F u
c orporate
ate l
ub an
ĠR ings
ĠW ant
ĠN ad
Ġ2 17
ill ian
Ġde commissioned
18 57
ific ate
Ġmod est
58 1
uck land
ĠComm odore
Ġpo ets
Ġimp ly
Ġcompet itors
Def inition
Ġvoc abulary
Batt ing
ĠJer emy
Ġvo iced
ĠWander ers
b is
m int
art mouth
ore m
ast a
so aps
uss en
amb ling
Ġsw ept
Ġimpress ive
fin ished
exper ience
Ġsophistic ated
C loud
D ue
P ont
Q F
b eyonce
d ress
w iley
al manack
Ġb its
ĠB reckinridge
Ġat oms
ĠO scar
sh p
Ġlo ver
ĠAugust ine
Ġab bre
wh ats
ampa ignb
Ġorder ing
ĠSch olar
storm s
Ðµ Ð½
Ġjudg ments
ĠScient ist
ĠContin ental
Chap man
ampaignb ox
8 40
9 14
K an
c inema
f ailed
at ile
at ology
Ġb le
Ġin ev
}} ,<
ĠS onic
ĠH ancock
ow e
ĠL ay
Ġac ute
int roduction
Ġsub set
ĠCl im
ĠCal c
ĠSw itch
Ġsens es
Ġaff il
gl ass
Ġdiss olved
unicip ality
ĠPla za
ĠMond ay
C ru
m are
st ere
20 2007
Ġb ills
Ġp ound
ĠA C
Ġg ran
Ġbe ating
osaur s
ĠArch bishop
Ġinv aded
ĠClass ics
Ġsus cept
Ġscreen ing
Ġteach ings
Ġwalk ed
Phys ics
Ġrecommend ation
Nik ol
necess ary
F ind
S id
W B
c ube
he ws
'' âĢĶ
Ġm our
et i
ĠP irates
Ġdis advant
59 3
ĠIs is
mar iah
amil ies
Ġdeb ated
For ce
def ense
Nor wich
show item
Ġmount s
stud io
john son
ĠCro atia
Ġsatisf y
Ġspiritual ity
NC AA
Ġstead y
Ġambass ador
V AR
c in
j ans
p cg
Ġ æ
Ġw atches
Ġs hed
Ġf ru
ĠS ultan
arch itect
Ġperform s
ĠAg reement
Christ gau
icy cle
Ġdeg rad
Jo an
ĠSol omon
Ġmanufact ured
Ġhar sh
Ġdefend ers
Ġinfer ior
Ġlect ure
Ġhomosexual ity
ĠLegisl ature
Egypt ian
Nobel Prize
ĠHass ett
4 21
R esp
T u
s ag
× Ļ
it at
ad ows
10 26
Ġpro spective
Ġk idn
Ġdes ires
Ġar ithmetic
ix ies
ĠComp utational
Ġri ots
cr ime
ĠMad ison
bet ween
whe el
llen haal
5 38
9 27
Q AAQBAJ
n ai
å ¹
ĠM oz
im id
ĠR ac
if ty
ĠK ra
Ġsh ar
are l
Ch ang
ann ounced
pe er
ĠSh adow
play ed
59 4
Ġext ant
ush room
ĠRes ource
Green e
Leg al
onel iness
Writ ing
ĠDur ham
Ġremark able
wisden almanack
0 19
9 11
C ad
M achine
S ingles
ch anging
ĠS ony
Ġ20 2
Ġth under
ĠM aps
Ġ( $
ĠB ir
ow el
Ġ2 13
Ġun ified
Ġrec ount
33 89
ĠRe ality
57 2
ĠPr imary
state ment
rem ix
Ġdest ination
Tr acy
ĠBlack burn
nl m
Roman ian
record ed
Ġmur ders
Ġmanufact urer
Ġanaly ze
Ġbeat en
ĠCE O
Ġtheor ists
Ġru ins
Ġeros ion
5 37
7 15
Ġw ard
Ġc reek
Ġd ock
ĠT ell
ĠF ate
na ire
ĠCal vin
ĠEl iot
Sup port
Ġens emble
Ġbus y
cust om
G rad
K re
L udwig
S ax
g one
an other
Ġf ran
Ġd up
ĠS olid
ad b
ri ots
ateg ories
18 86
ph ants
Ġ18 45
ĠNew foundland
Ġrep ublic
99 8
ĠQu antum
Ġkeep s
ĠAre as
ĠConf eder
Ġspect ators
ĠAlb ion
Ġdisappoint ed
Ġslo pe
habilit ation
8 26
9 50
\ \
c ame
l ives
r ill
re ach
en ne
Ġa ided
20 201
ĠR id
ĠH yp
int osh
rap e
tain s
tain er
An y
Sh ah
Ġdiscuss es
ĠRob ot
ias m
phil papers
Ver lag
Ġdiagn osed
erne ath
6 50
C it
M editerranean
Z iff
n ard
s C
Ġt ennis
et us
ĠL oss
Ġ19 2
av iation
Ġr amp
ĠCh amp
the ning
ĠHe in
umb ai
An nals
Ar istotle
rick son
ĠAd vertiser
ĠIm pro
Sw itzerland
ibl i
ĠSal isbury
ĠHy de
autog enerated
6 12
A uthor
C ritic
G ender
L uis
t ables
on aut
ink el
Ch ad
ms n
over line
Ġinst ant
Le vel
Ġprop he
Ġexam ining
hop per
Ġdream s
B ronze
C over
b ath
d ab
as u
ĠT el
ĠP ref
ĠI l
ĠH offman
ĠF ungi
Ġan them
se ga
18 30
cy cle
ograph ers
ĠSystem atic
Ġtrack ed
Ġri fle
het te
Ġuniform s
Ġvir uses
ĠCre ative
Ġrecept ors
ĠBelg ian
techn ical
estab lish
Ġsuppress ion
ĠJosh ua
ĠUkrain e
C ounter
P u
d ial
ĠS ens
ĠO x
ind onesia
sh ift
ev il
ĠAn imation
Ġspe aks
Ġcoup led
Ġcalc ulus
McC arthy
Li u
Plain list
D erm
M aj
Î ³
un al
ir teenth
id us
ce stor
Ġpro sec
]]. "<
Ġqu otes
ck e
ĠQ uality
Ġsk i
ĠStud ent
ĠHaw aiian
four th
Ġweaken ing
F owler
R ic
c stv
m ine
t ec
Ù Ħ
ent ral
th y
ĠT ale
ĠL ibraries
ra ising
Ġun rest
lic he
Ġprot ecting
Ġsyn onyms
Hol mes
ĠPat tern
Ġsusp ension
Ġcrow ds
Ġprompt ing
Ġinher it
compos er
p f
r ÃŃ
s ley
Ġ2 11
18 60
friend ly
Ġillustr ations
Ġtherm al
Ġinequ ality
nws ource
4 331
7 47
M ega
R P
ww cgi
ĠJ in
Re ich
uel a
Ġcy ber
not ic
osa ic
Ġexecut ives
Ġvolcan oes
Ġscreens hot
, _
C ow
F K
G ate
W ay
c ant
o up
r ules
it ely
Ġn aked
ĠS M
ĠC ecil
arch aeology
to x
co oper
Ġ18 32
St re
ĠGu itar
ĠOr d
Ġpropos es
Ġpsych ologists
Ġeval uated
ESPN cricinfo
Eth ics
Ġmamm al
ĠJos Ã©
Belg ium
J upiter
S PA
f ires
h q
p ilot
at ist
20 2006
am en
Ġ20 3
ĠM ile
eb ell
ww event
ĠD ow
Ġ2 12
ep per
ex pl
Ġse eds
Ġ18 52
ĠSp it
Ġpass ages
]]< !--
Ġconf ined
Ġstory telling
ĠBrit ten
AT O
bour g
abs burg
ĠPres ervation
Ġastron auts
ĠSix th
ĠGeorg etown
Album s
Ġlect ures
uccane ers
5 90
E t
F lora
H yp
T HE
g el
Ġn ephew
us ive
ĠE uro
und o
ult imate
low n
Ġk een
bn ormal
"> </
ĠCol lections
Robert son
Ġintro duces
dr ive
Ġexpect ation
ĠDream s
ĠOri ent
Ġdisturb ance
b ull
am el
ch ap
ĠH ew
ĠH ath
ĠL uis
Ġ19 3
ĠJ ar
ell ular
18 40
13 53
ĠY osh
ann urev
ĠCon struct
Or lando
Ġreve aling
ĠStat us
g ene
Ġt une
Ġf lav
ĠS layer
ig u
Ġ( '
10 40
10 51
Ġl umin
op amine
Ġv end
13 65
Ġ18 20
2008 120
Ġsub tle
Th er
ĠIs abel
dis covery
Ġrun ner
Ġsouth western
isc al
Ġel dest
ĠRiver a
Me chan
ember ing
Pop Matters
urea ucr
h Pa
in flu
Ġs its
Ġs aur
ĠS ignal
us el
ĠT elescope
ĠM it
Ġe ccentric
ĠJ unction
Ġweb sites
ĠCh ang
]]'' ;
Ġun anim
Ġad ul
rib bon
Un signed
ars en
tr uth
Ġcost ume
Comp an
Ġren umber
ĠCarol ine
CR C
Ġsu ited
Ġnom inee
ogene ous
Ġlegit imate
kelet al
8 45
D as
F arlane
ch ris
Ġ20 5
ĠL em
ĠG iant
up er
ĠNew spaper
omin ated
Ġcomb inations
App lied
amin er
ĠSav age
Ġexpert ise
ĠMechan ics
Ġdescend ants
ĠSic ily
J ung
t un
z ens
at ibility
le uc
Ġn ineteenth
Ġm ansion
ĠD odd
Ġ2 60
port land
uk h
uk as
68 3
88 9
world s
20110 72
Sign atures
Ġtrigg ered
G rove
v re
Ġc atalogue
ĠC C
ot on
res co
Ġpro gression
pl aced
Ġwork place
Ġcl ients
Ġmod ules
Ġref eree
Ġdesign ing
Com mentary
cy cl
asc ade
ĠDay ton
Ġconv iction
tw itter
Den mark
ici ency
Ġmo ist
Ġvent ure
Ġmonarch s
ĠLad ies
Iss ue
6 27
6 44
; ">[[
E ach
k k
Ġe states
uc ible
ran ial
Ġadd iction
Sh ock
98 7
Ġdevelopment al
Ġlength s
bl u
ĠIm ages
App lications
ĠTim othy
Apple man
Show Event
B urns
G ran
R M
R N
h ire
Ġp enn
ĠB av
ĠD im
Ġr ises
sfn ref
18 06
Ġret reated
ott i
ox ide
Ġloc ate
Ġopen ly
ĠMon ster
Ġpred ators
Pl ant
Ġcop ing
Met aphysics
Ġarm oured
ĠLead ers
ĠKa iser
ĠPriest ley
Ġdece ased
ĠCath olics
B h
E rik
z ing
É ª
ĠP in
ĠB righton
ack ets
Ġup coming
ax is
val ley
ĠMan itoba
merc ury
Ġdepart ments
Pet e
ĠDick inson
ĠHold en
Ġadvertis ement
K ot
v ro
z d
Ġt ribut
ĠB ess
ĠR ice
ĠH ence
Ġg ifts
per ors
Sh akespeare
Ġclass room
Ġgeneral ized
Ġanal yst
Ġliter ally
ĠMat thews
Go ing
Ġassum ing
ĠSocial ist
fe et
anti ago
Ġselect ive
Brazil ian
igor ous
0 21
L act
V ar
] ''
p ic
t oc
Ã ®
ag in
ĠB ound
ang an
ĠY u
ix ion
pro duced
ax ies
Ġjust ified
87 6
ĠWilliam son
ĠSw an
ĠPe irce
Comm and
useb ius
M uch
f ext
f reedom
z ra
Ä Ļ
Ġp el
ĠS occer
ĠH ume
Ġbe ats
ĠW er
ĠG ould
11 24
18 08
ĠCh in
Ġ18 9
Ġinter rupted
Ġform ulation
Ġam phib
med icine
ole an
Ġgen uine
Tr ust
ump kins
Ġassum es
Ġess ays
sq mi
ĠFin ance
ĠBrook lyn
Ġmuseum s
Sol omon
ĠCost a
C ul
V ic
j im
p n
Ġb apt
Ġp ose
ac ademy
ĠS at
.< !--
ĠH alo
ĠD iet
Ġst air
ĠW ere
ok i
the ater
St ill
ee ves
Ġrec ol
000 7
37 58
yn ski
ĠRec ognition
field er
ĠQu ant
ãģ ª
Ġgr at
Ġprec urs
plain url
Griff iths
ĠFig ure
Mov ie
A thlet
J u
L as
Ġ ion
st ick
it ars
Ġc ow
ĠT iger
et c
Ġon set
Ġwh ites
ep pe
ight ed
ach ary
Ġ17 8
Ġdec iding
ĠEd win
Ġann ounces
Ġter restrial
Sw iss
Ġreflect ing
Ġdiscover ies
Ok lahoma
C ore
V E
g pt
i ard
z es
]] âĢĵ[[
Ġc ryst
Ġh yd
ĠA T
ĠG y
ab ella
12 12
In g
15 74
ered ith
Ġrele asing
Ġmon ks
ilit ia
66 4
oe uv
mar sh
ĠAnn ounces
Def ence
PL o
Ev ents
Ġcontact ed
canad ian
abil istic
Ġpri ests
Gree ce
B ach
P hy
ro at
Ġpro secut
ĠIn ch
Ġj oke
ink le
Ġag ing
Ġrem arks
Ġphys ician
bot any
mo ured
ĠFore ver
keep ing
Ġtot als
ĠMcG raw
Ġancest ors
Fle ming
atab ases
Ġhemis phere
F D
R an
T on
T OC
k ap
t rop
Ġn ode
ĠB ede
ĠL ed
ĠL ear
ab lish
Ġal ly
Ġpro found
Ġj ealous
Ġcl ips
Ġz ones
Lab our
IU CN
z man
ĠT rends
ĠC S
ĠM LB
Ġtr am
Ġtr aced
ĠYork er
Ġ7 47
Ġwe ights
aff er
Is land
sem i
Ġintegr ity
Ġinters ects
insp ired
ĠEs sex
Ġtub es
virgin ia
B elt
S ak
c ancer
o ise
Ġc ricketer
ur as
ĠT unnel
ad min
10 90
201 201
Ġch ip
ind uced
oy s
Ġsup porter
Ġconc urrency
Ġstruct ured
Ġfunction ality
ams ung
Ġcal m
Ġdark ness
hor st
tole my
Ġemer ge
R ebecca
f rance
in h
Ġre actor
ia k
18 05
Ġapp ar
Arch itecture
err ero
less ly
Ġlay ing
rat op
Ġelement ary
second ary
ĠKn ights
esthet ics
5 45
M exican
Ï ī
es ame
Ġin scribed
ĠA A
ĠC and
os ome
Ġsp ots
ĠUn til
Ch uck
Ġind ivid
69 4
Ġshould ers
bf i
ĠSen ior
East Enders
OC LC
Ġpath s
Ġsen ator
ĠId ol
Den ver
haw k
Ġundert ook
ĠLead ership
Ġflex ibility
Ġcrop s
- .
L ane
M ach
Q U
f cb
Ġin fl
om ens
Ġh orm
ul as
ĠD ock
Ġj acket
co le
Ġla kes
ret ion
atch ing
59 2
ĠAd ult
els sohn
itte es
Int elligence
Her itage
ĠSound ers
ÑĢ Ð°
Ã¸ r
care y
Under standing
6 23
B righton
M OS
M olecular
d ots
g ro
w ear
Ġt ender
Ġin ning
ĠS z
ol and
ĠM anufact
ĠH erm
ĠD avenport
ĠF en
ĠO w
ĠAr row
ĠInd ustries
ĠVal ue
Ġconsider ations
ĠBen ch
Pal mer
Elect ric
Ġple ased
Ġsn ake
ĠGard iner
Ġhighlight s
" ).<
8 28
G raphic
W I
m eter
t aking
ä »
it ate
ĠM ic
em i
em er
ĠL odge
Ġ2 33
ip oli
ath lon
ĠK ind
18 47
Ġro ster
ob ituaries
Ġres erves
col lect
Ġbo ards
Ġnorth bound
Am ong
stor age
Man agement
Ġdisp atched
Bur ton
Ġsusp ic
Ġsac rifice
ĠGer ald
9 16
h ans
j in
v ig
ĠJ es
Ġpro ud
Ġhe aling
Ġsh ark
the verge
aur ie
Ġmet aphor
Ġaccept ing
Ã¨ res
Ġcaptain s
ĠViet namese
Ġrecip ients
Om ega
agre b
A man
C hes
P seud
S ite
f alls
Ġ2 14
con struction
Ġ18 4
ĠMar ge
ĠBr ill
We aver
Ġhon ey
Ġviol ation
Ġproceed s
Ġspont aneous
G T
R enaissance
g erman
n os
r ab
Ġn as
ĠI gn
ail ure
2010 09
Ġ17 3
Ġob verse
Ġwe ighed
ĠWorld wide
ĠCo ins
ĠGod d
Ben son
ĠBoy d
Ġimm une
ĠProgram me
Leg end
Ġlaws uit
emor ative
Ġca ution
Ġmane uver
E merg
V ari
Y our
Y ugos
b acco
m ountain
y u
y roll
ag ent
ĠSt rike
bo ve
Ġun used
news itemID
Ġpr ide
arri es
Arch bishop
Sch wartz
ĠIm plications
Ġexpl oring
York shire
Ġconsum ed
amas utra
runner records
D unn
G le
K otaku
W i
e als
f ellow
ar f
ĠS P
ĠC ord
la ge
ay or
ĠF o
ass er
ult ratop
''' </
ĠAr istotle
itt a
57 4
ĠEd it
ĠPl ans
Ġmat ched
unk er
Cr unch
Out standing
Sm art
Ġrobot ics
Ġoptim ization
ĠOri ental
ĠLock e
ĠGran ada
8 30
st am
is co
Ġs ings
ĠC ities
ĠM iy
rom an
12 26
18 56
ĠCh opra
Ġ18 37
app oint
Ġconc urrent
Ã¤ n
Bo ard
Wik iquote
club s
vro let
G ener
d ash
v ous
Ã Ĩthel
Ġw isdom
th am
ĠT H
ĠC av
la ined
ew orld
ĠP ont
ĠH im
ĠN amed
ĠL inguistics
ĠUn known
Ġdis par
ĠNew spapers
Ġpolit ically
Ġcomment ing
het ical
rael i
ulpt ure
Ġalleg ations
Ġdispl aced
ĠMyst ery
occup ied
A stro
B uch
T X
c av
f ossil
r ington
he in
en eg
Ġa br
Ġb itter
ĠA ri
ĠA pes
ul ators
ew ays
ack ers
12 23
ile e
Ġ18 8
58 3
Sp eech
ĠBe atty
ilt ers
Ġtri angle
flag country
ĠWork ers
anch ard
Haw aii
McG raw
ĠBark ley
Ġreprint ed
B ull
C ube
C ameron
M is
P uerto
R NA
c oron
Ġs aving
Ġd ent
ber lake
ĠK rist
ie ee
Ġsh ifts
Ġteam mates
duct ive
88 6
lev ania
Mc Farland
ĠSup plement
Ġaccount ing
ĠRob otics
f ifth
n ant
w anda
em ption
ĠD O
ĠW u
ĠJ enkins
ĠO K
ra ch
Ġhe aven
Ġall ied
ĠWar wick
ĠSc hed
67 3
by ter
56 1
Ġsuccess es
Ġph ones
Ġprogram mer
Ġphys iological
Br idge
pre ced
Ġinte ger
rif ied
Ġbelong s
ĠMich aels
Ġborrow ed
C ort
E agle
G ER
N eg
O ber
c ry
f urt
f ederal
m ust
Ġt rem
st all
Ġc ens
Ġc ache
ĠC lement
et ically
ĠL afayette
ain ter
so lete
ãĤ ĭ
Ġide ology
ij k
ĠSur face
Ġinvestig ating
zen odo
Ġhonor ary
Ġpregn ancy
B ass
E ck
R andy
Y o
c ourse
g ra
r aint
s son
v ance
in en
on ance
Ġn ull
ĠB uc
ĠW imbledon
Ġr ushing
ge ons
18 82
25 10
Ġvers es
ãĤ ·
List en
Ġill umin
Ġpref erences
ĠTri al
GB R
Ġpen insula
pag ew
Od gers
ĠPruss ian
corn ell
Chron o
6 24
B ess
G round
M aced
k ir
x iii
al ogy
Ġ20 8
sp ider
ere z
Ġlo ading
2010 07
ĠSh ock
arl ton
68 1
organ ization
Ġjust ify
ĠState ment
pagew anted
0 362
6 70
C AN
W u
y anka
at ern
us ually
ĠSt alin
Ġsh ading
18 15
so on
2010 04
PA C
dis cover
Ġbuild er
Richard son
rish na
Ġstay ing
ĠId aho
ĠFeat ures
Ġpromin ence
conserv ation
H ood
s low
s quad
ap or
11 10
Ġde viation
18 48
ĠCh er
Ġ18 1
af ael
On ly
Ind ividual
ĠOriginal AirDate
RI AA
Up on
Ġnortheast ern
Ġunsuccessful ly
Conf uc
Ġmarg inal
. )|
C ut
b uff
k iss
en z
Ġ20 7
ig ates
ĠB rom
ĠB reen
ĠN ob
Ġ2 56
ĠO pinion
ook ie
ib al
ĠV ar
Ġserv ants
65 4
esc u
Le ft
Ġstat istic
Ġactiv ist
Ġgirl friend
ebr ates
ĠMonte verdi
init ely
B Y
B ed
L ip
p end
Ġt orpedoes
Ġb er
ac cept
od ynamics
ĠO DNB
ry n
erv a
Ġtr aces
fr ames
Ġjust ification
Ġph osph
esc ue
met a
Ġdet on
trans it
Ġthink s
Dec rease
Ġreject ion
Ġdemand ing
? &
G ould
R D
S ri
b j
g arden
Ġf ever
ro ot
ĠL ew
Ġ" '
Ġ2 16
Ġcont ested
ĠUn d
over y
ĠAir lines
ĠDis aster
Ob serv
brid ges
Ġspac etime
Ġclimb ing
5 47
G amer
b ond
d istance
f est
æ ĸ
Ġm im
ĠM ell
ut al
ub o
ab lo
Ġch ase
Ġ18 35
Ġad vers
Ġper mit
Ġtra ils
Ġflu ct
ĠChap lin
Ġmyst erious
Cre ative
Techn ical
vide ogames
Ġmerch ants
zym es
D H
b art
re cht
al og
20 27
Ġb ust
Ġp uzz
Ġg arn
ap arte
ĠK aren
con tract
ty pes
eng el
Pro b
Ġfe as
Ġfin anc
Ġdem ographic
Ġdeb ates
Ġmot to
ĠMo or
sound s
Hans en
sil icon
oven ant
Ġendors ed
B labbermouth
N igel
P hi
b ush
ï ½
ch ing
ĠR us
ĠL anguages
Ġpro be
pl atinum
Ġcount s
iter ation
News bank
Ġproblem atic
Ġneur ot
Ġcollabor ative
ĠBat man
Ġadm ired
odg son
Ġcla use
= *
b road
g ot
g overn
m wr
Ġpro long
co al
Ġmod ifying
Ġprocess ors
Ġcirc uits
Ġcontract ed
ST OR
With in
tran sform
ige on
ĠLook ing
ĠCit izen
itro gen
const ellation
este em
ĠCoal ition
0 23
K odansha
g lee
m otion
s afety
z icht
at cr
al ities
le ashed
Ġc ord
Ġm ilk
ĠT at
ad us
og enesis
18 44
Ġdef icit
Ġtro phy
Ġess ence
Ġimm igrants
ĠExpl oration
Educ ational
ĠMaced onia
ĠBuild ings
Wis consin
uclide an
Ultr atop
M RI
N ob
S inger
S andy
st uff
Ġf ores
ĠH iro
ast ing
Ġ18 46
Ġ18 53
." }}
ĠRe in
ĠShe et
well s
And rea
Cl inton
ĠâĢ ¢
Ġcolon el
lar ative
Ġwound s
Ġaltern atives
Ġsupposed ly
Lanc ashire
á ½
ĠS ine
em my
Ġg ig
ĠN igel
Ġan onymous
ĠV aughan
18 69
clud es
iel lo
ĠQ ual
ym en
Ġprom ising
asp ar
Ġmonth ly
Ġbi ased
El sevier
sl ides
ĠAtt ack
Ġconstit ute
Reference A
Joh annes
ĠTon ight
? }}</
G onz
J ar
d ids
ac hette
ĠT err
op oly
ĠCom mercial
ĠSc ript
Ġcontin uity
comm end
Ġident ities
ĠPer u
ii hf
Bar ber
iffer ential
rehens ion
Ġvolunte er
Ġrect angular
B utter
C reat
R ib
W ing
\ ,
f emale
t ailed
st ack
ĠA ND
ad en
Ġan cestor
ĠK es
Ġj e
per ed
Ġpl utonium
Ġinc ent
road runnerrecords
Qu oted
ĠMil ton
ãĢ ģ
, %
5 80
F leet
F TA
L oc
P apers
ad ata
ĠP am
ĠG rowth
ĠJ ob
Ġ2 26
ex act
ĠTh ursday
br istol
St age
St ates
inal d
ĠLe vel
Ġgu ards
Comm ander
pol ygon
lav a
Histor ia
dep th
ĠMerc ia
Georg etown
Ġdig its
Ġritual s
Ġsaf ely
T E
h k
h uffington
m akes
he at
Ġb ol
Ġb orough
ĠC rom
Ġ20 6
um ption
Ġst roke
ĠN iger
sf gate
Ġval ued
ĠAir borne
Ġanal ogy
arb age
Ġarch bishop
Ġqual ify
zy k
Ġfarm ing
ĠSpring field
Ġrecip ient
Ġresemb les
alach ian
J ersey
M ann
V G
g lossary
h ull
i ep
i ating
l aring
t ap
Ġ à¤
ac ula
ĠC olumbus
et ian
lo an
ight on
Ġbet ray
Ġcons ec
Ġresp ected
me an
ĠFran z
sk in
Ġmed ley
ĠNe al
Ġpost p
Ġdam ages
ĠMed ien
Ġinf ants
oms bury
Ã¤ r
inem atic
Ġcat ches
ãĢ Į
ãĢ į
ĠNev ille
ĠHans en
ĠPep per
= }}</
C rystal
C aldwell
H oughton
S ud
b arn
ar er
Ġp ier
om ac
ch ronic
ĠT owards
Ġe leg
art man
ĠN ights
ĠE state
sp l
se at
Ġ18 55
ĠQ ue
Ġrun time
ĠCar th
Ġsuggest ions
ĠAct s
Ġve ctors
ĠEmp loy
sort able
Ġtransl ator
ĠOper ating
orith m
Ġprede cessors
Ġpoll ution
otom ayor
Ġpractition ers
! "<
8 29
9 15
F ine
G amasutra
P as
c rew
m agn
t an
Ġt ensions
20 50
am bo
ac ious
Ġon t
ĠH edge
ard in
ĠLe eds
me aning
Ġcommun ist
bit ious
Ġgovern ance
Del aware
Ġprohib ited
6 31
C yr
E h
F reder
F IFA
G arc
f rey
om ach
Ġ20 4
Ġ20 9
im et
Ġl ady
ĠD ial
end all
ank ind
ĠSc ully
ĠCon an
wh it
oo tp
Ġden oted
Ġsch izophrenia
tra il
Ġhar bor
ĠAntar ctica
h unt
m axim
at res
ĠS qu
Ġl ord
ĠN othing
Ġ19 6
ĠHe ights
ty mology
Pro Quest
ĠAng lican
ĠPar achute
ros aur
spe ople
Ġcollabor ated
Char acters
Bi ological
Ġbowl ers
Ġsurve ys
Jam ie
Ġintr insic
; Â°
> ),
D M
M aur
b ors
n umbers
al ong
is i
Ġh anging
Ġg rief
ĠW ide
ĠK ol
rit t
rap er
Ġres ist
Ġla bels
ĠCon cer
Ġadd itions
organ ic
ãģ ¦
ĠPer fect
Ġins ights
Mor rison
certain ty
omic ide
ĠShort Summary
Phot ograph
) (
M AAJ
Ð ±
Ġa esthetic
ĠS hen
id US
ĠP reliminary
ĠD E
ĠTh ing
ĠSh ot
sub mit
US GS
Ġmat rices
Ġeast bound
ĠNor se
Ġcast les
Ġaver ages
Ġfrequ encies
Wik t
ĠGre co
Ġwalk s
ĠChief s
F RA
H omo
b matrix
m uch
r ichard
s ince
at ropical
20 2009
Ġd atas
ĠB ates
ĠB ermuda
ĠTh anks
Ġass erts
Ġ17 76
Ġmodel ed
Ġaut ism
Ġspecific ations
Ġinsp ection
Ġdefin itive
ĠRadio head
ĠBaron et
ĠTrad ition
Spring field
Ġcomfort able
ustain able
Ġdisband ed
5 36
C ock
R ear
h oun
m ant
p wt
Ġm eter
ess en
ĠF erdinand
ĠJ olie
Ġse iz
Ġcol ored
ĠSp ot
vent ional
lor ious
ĠBe ast
Ġdisc rimin
Car roll
uty ens
Ġbal anced
Ġprogress ive
Ġincorpor ating
ĠTor ch
fight er
Ġheter osexual
Ġjuven ile
1 201
5 70
9 60
A ston
Ġc rypt
ĠS und
th read
ĠC BS
ĠF ry
ĠE aster
con cept
Ġro uting
oot ing
aj o
Pro file
ãĥ Ĳ
Mar ilyn
can on
Ġsocial ly
Ġeast ward
Game Pro
Hon olulu
Conf ederate
ĠMuslim s
à¥ į
ĠLen in
) /
C helsea
T el
a uc
w old
z heimer
at io
Ġc oh
ĠS F
ĠT ampa
ĠR ece
ĠD anny
ĠE U
11 29
12 10
15 15
Ġ18 36
red irect
Ġcl erk
Ġgu ilt
Ġlow ered
Ġfact ion
Rel Date
Ġign or
east ern
ĠBerg er
ĠLam bert
strument al
pwt orch
A xis
l ind
Ã ĸ
Ġd awn
ĠS oph
th row
el ton
com mercial
ĠN E
ĠG entle
ard on
Ġ2 22
ĠK iss
18 61
pro blem
yn d
Ġsk illed
Ġnational ity
Tur kish
Ġunus ually
ĠBry ant
Ġfatal ities
Ġbare ly
P y
i ad
an tha
ar over
ĠL akers
ĠG one
Ġcom merce
ak is
ge oc
ĠY ang
Ġlater al
Ġeight een
sur vey
Ġprem ise
Ġmush rooms
Ġwel come
Michel le
Ġabund ant
Ġinsign ia
ĠSine Bot
H air
I AAJ
L ower
N I
U sher
k it
o ak
st ry
le q
ing o
Ġb arriers
ut an
ĠP aleontology
um acher
ĠR are
ĠG ospel
Ġher oes
Ġdesc ended
ze k
Ġdet ached
omet ime
Ġprob abilities
Ġcal iber
Ġviol in
Aut osigned
Ġmanufact urers
ĠBot any
ĠPatt erson
Ġsurpass ed
B ak
M iley
b ard
b elt
h c
r ations
ĠA aron
ly oaks
Ġch ronology
cl ar
18 83
Ġim ped
ĠLe af
urg ery
Ġrespons ibilities
ĠMo jo
ĠPhys iology
rend an
arover zicht
H um
M amm
P ut
v ich
ĠC rew
ort ic
ip ment
ĠSt eph
ĠCh ambers
att ie
edu ctive
duct ions
Ġdirect ing
comm ander
Mar vel
EA FF
cre ative
Carol ine
huffington post
O B
P au
g iving
p he
Ġt ongue
it ius
Ġc abin
Ġd readnought
Ġre bel
ĠH ab
if olia
Ġbur den
Ġinher ent
Ġcongress ional
Ġcontempor aries
V ladimir
n ca
Ġ ellip
Ġl ane
com edy
sp acing
Ġbr ig
ĠBe haviour
ĠApp eals
Ġprop ose
cn r
ste ve
orough bred
ĠTalk s
ĠPau lo
inemat ography
A ub
S aturday
l ac
n ascar
ĠA PI
ĠH ole
ĠG R
Ġ19 1
ĠIn struction
18 65
man c
ould er
ann ada
Ġout door
ĠGu in
arm ing
Ġcrit erion
ĠBe auty
ander ing
Ġperiod ic
Ne ural
Ġgr ain
Port uguese
Ġcycl es
uts u
nes ia
Ġcelebr ations
Ell en
Cla ud
Ġstrugg les
Ġimpl ied
Miss issippi
Ġproc laimed
F ritz
R ab
j ob
r r
ĠH ir
ĠH oll
10 46
Ġex cerpt
ĠCh ancellor
15 25
Ġun popular
Ġag gression
Ġnew er
ĠPl us
met roid
Ġextra ordinary
Ġpublish ers
Ġyield s
ĠResp onse
ĠTurn pike
ĠCP U
employ ment
Ġcompl iment
Ġrender ing
M eyers
V on
W ord
v t
al most
Ġf lesh
Ġd uck
ĠH itch
Ġl ip
Ġ2 21
av irus
iz able
vel le
iqu ette
Ġfinal s
ãģ Į
Ind igenous
sw imming
AT ION
vis ible
ĠDist inguished
Ġsem antics
south ern
Ham let
harm onic
Through out
rosso ver
0 25
O G
] {{
c ities
im ates
ag ua
lo u
ĠP ilot
ĠP ioneer
Ġ2 19
ep er
ĠK ay
ick e
ĠEn cyclop
ps es
ract ion
riv ial
Mc Laughlin
78 9
well ing
West minster
ĠGod win
Bar on
Van ity
ĠRos a
bro ken
Tran sport
Ġstrugg ling
foot er
Ġorb ital
Ã« l
Ġlift ed
* "
E ve
F iction
H ugo
M ills
Ġs olit
ri que
ab as
Ġ2 80
Ġ2 28
aur i
98 6
Ġhistor ies
Ġspecial ist
ges ch
Pol ice
Ġpath ways
Res ult
Ġspect ral
Ġincorpor ates
Ġmist akes
ĠWal ton
ĠProcess es
ĠTher apy
A ward
L iv
m isc
at om
am orph
ĠD river
11 25
18 49
ict ive
ystem s
ax ter
sen ate
Ġdeterm ines
nor thern
Ġded ication
Pers ian
0 24
P ub
j c
k ie
Ġp ioneer
ad dy
ig son
ĠR utherford
Ġ2 70
qu ick
Ġsp are
Ġim per
Ġ18 44
ĠSc i
gu id
ha o
igg ing
Ġhard er
ibl ings
ĠGold man
har rison
idel berg
Ġintent ional
olymp ic
l ishes
u els
Ê »
Ġo mitted
Ġp aired
ch y
Ġ( <
=" -
se ctions
18 45
to oth
to ols
Ġ18 43
St ructure
Ġpl acement
log in
urg ical
Ġland ings
Ġhel ium
Ġelect oral
da ughter
high way
aver age
Ġassoci ates
ĠCour ier
immer man
ĠRest oration
Ven us
8 55
W er
d ollar
k w
ĠC M
ct rine
ag mat
âĢ ľ
ĠW on
ud o
Ġex ceeded
Ġr ape
Ġor th
Ġch ron
ef c
Ch in
ne ural
ou los
Ġcol league
cy clone
ief enb
Ġmet ers
oe ch
ĠCal iph
Ġhon est
Ġapprox imate
Ġnegative ly
Ġcell ular
Ġdemonstr ates
ĠFront ier
Dist rict
ĠProt ocol
Ġdecre ases
PLo SO
8 99
K err
W alk
Ġc ents
ch aft
ĠC ay
ĠC ome
Ġr hy
ous and
18 59
Ġbut tons
Ġ18 47
St ruct
Ġob taining
69 3
cast ing
Ġtri ps
Ġflo ors
AL L
ĠModel ing
north west
ĠBrand on
ĠMand ela
ĠBla ine
ĠBark er
Ġartif acts
> ).
F o
Ġp ian
ac s
ĠD ocuments
ĠJ urassic
Ġad her
igh bor
clud e
angu ard
Ġres ort
ident ified
fl or
inn ov
ĠZ en
Ġimport ed
bol ic
ĠDr agons
ĠMor al
Ġbox es
Ġscript s
Ġorient ed
Now rap
Ġnucle i
ĠLithuan ia
9 90
P or
ar ra
'' )}}
Ġm aternal
ĠP L
ĠH es
own ers
Ġwhen ever
Sh in
Ġdep ot
Ġmon ster
na utical
Ġnorth western
Ġwhe els
gl i
Ġcalc ulate
Ġfort ress
Afric a
HM AS
ĠPred iction
pur pose
Ġguarant ee
apol lo
7 24
A ff
L il
W innipeg
j pl
n intend
Ï Ĩ
or ry
es ium
Ġf erry
Ġb less
ĠS G
th orpe
ĠC od
ĠR E
10 000
âĢ ł
Ġcon g
Ġ2 32
Ġr ush
ĠCh ronology
aur Ã©
ĠMc Cl
rict ion
ken stein
ĠExper iment
Ġretro spective
C ecil
L ew
M ut
f ed
h air
r aces
ed ic
20 2008
Ġd io
Ġm ice
ĠA br
ĠP VA
art et
ie le
bo om
eg y
Ġlo ses
Ġout s
sw ald
Ġaut obiographical
Ġder ives
Ġang les
Ġcalc ulation
Ġexhib its
Ġintegr ate
ĠRod gers
Ġstream ing
ĠMult iple
Ġmor ale
Ġmus cles
ĠInvest ig
articip ants
Ġincons istent
[...]
